{
  "eos": 0, 
  "UNK": 1, 
  ",": 2, 
  "的": 3, 
  ".": 4, 
  "\"": 5, 
  "在": 6, 
  ")": 7, 
  "(": 8, 
  "及": 9, 
  "是": 10, 
  "和": 11, 
  "或": 12, 
  "於": 13, 
  "第": 14, 
  "有": 15, 
  ":": 16, 
  "为": 17, 
  ";": 18, 
  "我们": 19, 
  "该": 20, 
  "会": 21, 
  "香港": 22, 
  "政府": 23, 
  "了": 24, 
  "我": 25, 
  "而": 26, 
  "对": 27, 
  "与": 28, 
  "人": 29, 
  "以": 30, 
  "中": 31, 
  "由": 32, 
  "所": 33, 
  "将": 34, 
  "条": 35, 
  "他": 36, 
  "本": 37, 
  "可": 38, 
  "有关": 39, 
  "说": 40, 
  "已": 41, 
  "就": 42, 
  "-": 43, 
  "议员": 44, 
  "上": 45, 
  "并": 46, 
  "须": 47, 
  "任何": 48, 
  "号": 49, 
  "条例": 50, 
  "这": 51, 
  "也": 52, 
  "亦": 53, 
  "发展": 54, 
  "一": 55, 
  "时": 56, 
  "?": 57, 
  "问题": 58, 
  "一个": 59, 
  "要": 60, 
  "主席": 61, 
  "后": 62, 
  "但": 63, 
  "工作": 64, 
  "进行": 65, 
  "向": 66, 
  "不": 67, 
  "服务": 68, 
  "他们": 69, 
  "计划": 70, 
  "根据": 71, 
  "委员会": 72, 
  "提供": 73, 
  "内": 74, 
  "其": 75, 
  "中国": 76, 
  "1": 77, 
  "等": 78, 
  "被": 79, 
  "2": 80, 
  "新": 81, 
  "局": 82, 
  "下": 83, 
  "其他": 84, 
  "至": 85, 
  "则": 86, 
  "港": 87, 
  "人士": 88, 
  "如": 89, 
  "情况": 90, 
  "没有": 91, 
  "元": 92, 
  "作出": 93, 
  "提出": 94, 
  "年": 95, 
  "包括": 96, 
  "经济": 97, 
  "今日": 98, 
  "三": 99, 
  "都": 100, 
  "市民": 101, 
  "可以": 102, 
  "处": 103, 
  "地": 104, 
  "署": 105, 
  "公司": 106, 
  "名": 107, 
  "这些": 108, 
  "区": 109, 
  "方面": 110, 
  "获": 111, 
  "3": 112, 
  "(a)": 113, 
  "两": 114, 
  "表示": 115, 
  "修订": 116, 
  "(b)": 117, 
  "认为": 118, 
  "台湾": 119, 
  "到": 120, 
  "建议": 121, 
  "规定": 122, 
  "者": 123, 
  "法律": 124, 
  "二": 125, 
  "应": 126, 
  "以及": 127, 
  "个": 128, 
  "更": 129, 
  "人员": 130, 
  "申请": 131, 
  "从": 132, 
  "能": 133, 
  "大": 134, 
  "会议": 135, 
  "事务": 136, 
  "需要": 137, 
  "警方": 138, 
  "来": 139, 
  "项": 140, 
  "作": 141, 
  "美国": 142, 
  "活动": 143, 
  "社会": 144, 
  "必须": 145, 
  "调查": 146, 
  "款": 147, 
  "影响": 148, 
  "时间": 149, 
  "草案": 150, 
  "措施": 151, 
  "要求": 152, 
  "研究": 153, 
  "前": 154, 
  "重要": 155, 
  "教育": 156, 
  "国家": 157, 
  "把": 158, 
  "工程": 159, 
  "多": 160, 
  "资料": 161, 
  "所有": 162, 
  "关系": 163, 
  "这个": 164, 
  "日": 165, 
  "机构": 166, 
  "使用": 167, 
  "道": 168, 
  "希望": 169, 
  "政策": 170, 
  "是否": 171, 
  "之": 172, 
  "各": 173, 
  "国际": 174, 
  "4": 175, 
  "因此": 176, 
  "使": 177, 
  "约": 178, 
  "局长": 179, 
  "用": 180, 
  "立法会": 181, 
  "主要": 182, 
  "安全": 183, 
  "九": 184, 
  "继续": 185, 
  "令": 186, 
  "管理": 187, 
  "著": 188, 
  "环境": 189, 
  "意见": 190, 
  "四": 191, 
  "支持": 192, 
  "现": 193, 
  "如果": 194, 
  "最": 195, 
  "又": 196, 
  "属": 197, 
  "处理": 198, 
  "很": 199, 
  "以下": 200, 
  "正": 201, 
  "因为": 202, 
  "由於": 203, 
  "让": 204, 
  "麽": 205, 
  "外": 206, 
  "便": 207, 
  "中心": 208, 
  "因": 209, 
  "决定": 210, 
  "注册": 211, 
  "市场": 212, 
  "加强": 213, 
  "合作": 214, 
  "岁": 215, 
  "发言人": 216, 
  "受": 217, 
  "宗": 218, 
  "均": 219, 
  "行动": 220, 
  "可能": 221, 
  "一些": 222, 
  "安排": 223, 
  "五": 224, 
  "即": 225, 
  "现在": 226, 
  "科技": 227, 
  "现时": 228, 
  "改善": 229, 
  "其中": 230, 
  "得": 231, 
  "增加": 232, 
  "5": 233, 
  "代表": 234, 
  "法": 235, 
  "经": 236, 
  "交通": 237, 
  "举行": 238, 
  "考虑": 239, 
  "还": 240, 
  "当局": 241, 
  "作为": 242, 
  "曾": 243, 
  "指": 244, 
  "她": 245, 
  "此外": 246, 
  "位": 247, 
  "开始": 248, 
  "公告": 249, 
  "再": 250, 
  "*": 251, 
  "指出": 252, 
  "起": 253, 
  "组织": 254, 
  "文化": 255, 
  "一项": 256, 
  "较": 257, 
  "管": 258, 
  "发出": 259, 
  "通过": 260, 
  "期间": 261, 
  "特别": 262, 
  "想": 263, 
  "订": 264, 
  "部分": 265, 
  "目前": 266, 
  "地区": 267, 
  "先生": 268, 
  "已经": 269, 
  "司": 270, 
  "六": 271, 
  "不同": 272, 
  "公众": 273, 
  "做": 274, 
  "明": 275, 
  "成员": 276, 
  "统计": 277, 
  "你": 278, 
  "学校": 279, 
  "性": 280, 
  "地方": 281, 
  "(c)": 282, 
  "一名": 283, 
  "上述": 284, 
  "过": 285, 
  "每": 286, 
  "6": 287, 
  "制度": 288, 
  "同时": 289, 
  "请": 290, 
  "接受": 291, 
  "系统": 292, 
  "只": 293, 
  "土地": 294, 
  "方式": 295, 
  "按": 296, 
  "水": 297, 
  "成为": 298, 
  "呢": 299, 
  "出": 300, 
  "成立": 301, 
  "今天": 302, 
  "发生": 303, 
  "投资": 304, 
  "非": 305, 
  "世界": 306, 
  "命令": 307, 
  "商": 308, 
  "报告": 309, 
  "采取": 310, 
  "这是": 311, 
  "实施": 312, 
  "才": 313, 
  "不能": 314, 
  "间": 315, 
  "另": 316, 
  "内地": 317, 
  "学生": 318, 
  "业": 319, 
  "如何": 320, 
  "这项": 321, 
  "不会": 322, 
  "自": 323, 
  "进一步": 324, 
  "基金": 325, 
  "条文": 326, 
  "车辆": 327, 
  "相信": 328, 
  "符合": 329, 
  "男子": 330, 
  "过去": 331, 
  "提高": 332, 
  "将会": 333, 
  "数字": 334, 
  "资讯": 335, 
  "此": 336, 
  "国": 337, 
  "完成": 338, 
  "给": 339, 
  "财政": 340, 
  "法院": 341, 
  "就是": 342, 
  "协助": 343, 
  "谘询": 344, 
  "次": 345, 
  "不得": 346, 
  "分别": 347, 
  "确保": 348, 
  "检讨": 349, 
  "当": 350, 
  "很多": 351, 
  "署长": 352, 
  "本地": 353, 
  "却": 354, 
  "文件": 355, 
  "议案": 356, 
  "日期": 357, 
  "适用": 358, 
  "比较": 359, 
  "期": 360, 
  "章": 361, 
  "单位": 362, 
  "设施": 363, 
  "法例": 364, 
  "规则": 365, 
  "参与": 366, 
  "结果": 367, 
  "出现": 368, 
  "规例": 369, 
  "各位": 370, 
  "行政长官": 371, 
  "去": 372, 
  "获得": 373, 
  "公布": 374, 
  "大@@": 375, 
  "修正案": 376, 
  "所以": 377, 
  "八": 378, 
  "总": 379, 
  "予": 380, 
  "部门": 381, 
  "屋": 382, 
  "不过": 383, 
  "选举": 384, 
  "检": 385, 
  "程序": 386, 
  "大家": 387, 
  "高": 388, 
  "个案": 389, 
  "若": 390, 
  "像": 391, 
  "7": 392, 
  "透过": 393, 
  "不@@": 394, 
  "发现": 395, 
  "部": 396, 
  "建设": 397, 
  "范围": 398, 
  "第二": 399, 
  "共": 400, 
  "取得": 401, 
  "公共": 402, 
  "家": 403, 
  "述": 404, 
  "定": 405, 
  "份": 406, 
  "七": 407, 
  "供": 408, 
  "工业": 409, 
  "未来": 410, 
  "科": 411, 
  "临时": 412, 
  "目标": 413, 
  "街": 414, 
  "解决": 415, 
  "积极": 416, 
  "显示": 417, 
  "方法": 418, 
  "反对": 419, 
  "否": 420, 
  "一般": 421, 
  "房屋": 422, 
  "健康": 423, 
  "天": 424, 
  "政治": 425, 
  "小": 426, 
  "机会": 427, 
  "费用": 428, 
  "为了": 429, 
  "条件": 430, 
  "应该": 431, 
  "海关": 432, 
  "课程": 433, 
  "海": 434, 
  "一@@": 435, 
  "非常": 436, 
  "达": 437, 
  "讨论": 438, 
  "龙": 439, 
  "无": 440, 
  "贸易": 441, 
  "发表": 442, 
  "其实": 443, 
  "目的": 444, 
  "牌": 445, 
  "能够": 446, 
  "委任": 447, 
  "指明": 448, 
  "专业": 449, 
  "虽然": 450, 
  "发": 451, 
  "个月": 452, 
  "原则": 453, 
  "金": 454, 
  "行": 455, 
  "资源": 456, 
  "除": 457, 
  "劳工": 458, 
  "这种": 459, 
  "同意": 460, 
  "路": 461, 
  "─": 462, 
  "组": 463, 
  "不是": 464, 
  "责任": 465, 
  "通知": 466, 
  "牌照": 467, 
  "执行": 468, 
  "小组": 469, 
  "这样": 470, 
  "也是": 471, 
  "适当": 472, 
  "上升": 473, 
  "金融": 474, 
  "里": 475, 
  "委员": 476, 
  "标准": 477, 
  "台": 478, 
  "任何人": 479, 
  "特区": 480, 
  "保障": 481, 
  "团体": 482, 
  "运作": 483, 
  "罪行": 484, 
  "界": 485, 
  "医院": 486, 
  "第一": 487, 
  "经营": 488, 
  "提交": 489, 
  "雇员": 490, 
  "推行": 491, 
  "大学": 492, 
  "银行": 493, 
  "!": 494, 
  "甚": 495, 
  "训练": 496, 
  "开放": 497, 
  "自己": 498, 
  "都是": 499, 
  "事": 500, 
  "行政": 501, 
  "之间": 502, 
  "按照": 503, 
  "书": 504, 
  "段": 505, 
  "觉得": 506, 
  "仍": 507, 
  "利益": 508, 
  "许多": 509, 
  "(i)": 510, 
  "载": 511, 
  "十分": 512, 
  "而言": 513, 
  "问": 514, 
  "宣布": 515, 
  "长": 516, 
  "团": 517, 
  "分": 518, 
  "季": 519, 
  "8": 520, 
  "参加": 521, 
  "罚款": 522, 
  "设立": 523, 
  "企业": 524, 
  "入": 525, 
  "今": 526, 
  "化": 527, 
  "今年": 528, 
  "技术": 529, 
  "上诉": 530, 
  "负责": 531, 
  "全面": 532, 
  "批": 533, 
  "生活": 534, 
  "改革": 535, 
  "指数": 536, 
  "设计": 537, 
  "附表": 538, 
  "不断": 539, 
  "基": 540, 
  "一直": 541, 
  "好": 542, 
  "保持": 543, 
  "全": 544, 
  "涉及": 545, 
  "强调": 546, 
  "报": 547, 
  "为何": 548, 
  "收费": 549, 
  "星期三": 550, 
  "基础": 551, 
  "非法": 552, 
  "并不": 553, 
  "处长": 554, 
  "量": 555, 
  "公务员": 556, 
  "数": 557, 
  "严重": 558, 
  "星期五": 559, 
  "两国": 560, 
  "整体": 561, 
  "事件": 562, 
  "电": 563, 
  "产品": 564, 
  "得到": 565, 
  "解释": 566, 
  "不少": 567, 
  "居民": 568, 
  "发言": 569, 
  "文": 570, 
  "开支": 571, 
  "完全": 572, 
  "书面": 573, 
  "受到": 574, 
  "意外": 575, 
  "类": 576, 
  "刚才": 577, 
  "入境": 578, 
  "它": 579, 
  "内容": 580, 
  "动议": 581, 
  "就业": 582, 
  "控": 583, 
  "关於": 584, 
  "船舶": 585, 
  "例如": 586, 
  "出席": 587, 
  "队": 588, 
  "规划": 589, 
  "门": 590, 
  "水平": 591, 
  "批准": 592, 
  "提": 593, 
  "只有": 594, 
  "占": 595, 
  "去年": 596, 
  "当然": 597, 
  "增长": 598, 
  "案": 599, 
  "度": 600, 
  "巴士": 601, 
  "管理局": 602, 
  "亚洲": 603, 
  "点": 604, 
  "(ii)": 605, 
  "历史": 606, 
  "除了": 607, 
  "东": 608, 
  "司长": 609, 
  "权": 610, 
  "一定": 611, 
  "项目": 612, 
  "减少": 613, 
  "经验": 614, 
  "事宜": 615, 
  "双方": 616, 
  "评估": 617, 
  "最后": 618, 
  "以上": 619, 
  "只是": 620, 
  "下跌": 621, 
  "下午": 622, 
  "业务": 623, 
  "道路": 624, 
  "食物": 625, 
  "林": 626, 
  "努力": 627, 
  "管制": 628, 
  "登记": 629, 
  "维持": 630, 
  "精神": 631, 
  "调整": 632, 
  "促进": 633, 
  "图": 634, 
  "知道": 635, 
  "制": 636, 
  "培训": 637, 
  "资助": 638, 
  "答覆": 639, 
  "凡": 640, 
  "车": 641, 
  "10": 642, 
  "以来": 643, 
  "加入": 644, 
  "进入": 645, 
  "读": 646, 
  "楼宇": 647, 
  "基本法": 648, 
  "美": 649, 
  "费": 650, 
  "法庭": 651, 
  "拥有": 652, 
  "重": 653, 
  "3@@": 654, 
  "能力": 655, 
  "雇主": 656, 
  "港元": 657, 
  "查询": 658, 
  "原因": 659, 
  "更多": 660, 
  "实际": 661, 
  "监察": 662, 
  "同": 663, 
  "村": 664, 
  "给予": 665, 
  "合约": 666, 
  "造成": 667, 
  "来说": 668, 
  "合理": 669, 
  "未": 670, 
  "子": 671, 
  "阶段": 672, 
  "站": 673, 
  "食": 674, 
  "家庭": 675, 
  "个人": 676, 
  "证": 677, 
  "员": 678, 
  "看": 679, 
  "稳定": 680, 
  "某": 681, 
  "关注": 682, 
  "机": 683, 
  "当时": 684, 
  "人民": 685, 
  "数目": 686, 
  "政": 687, 
  "规": 688, 
  "9": 689, 
  "并非": 690, 
  "商业": 691, 
  "乎": 692, 
  "建立": 693, 
  "加": 694, 
  "列": 695, 
  "但是": 696, 
  "星期四": 697, 
  "民": 698, 
  "党": 699, 
  "楼": 700, 
  "女士": 701, 
  "电脑": 702, 
  "了解": 703, 
  "案件": 704, 
  "山": 705, 
  "主任": 706, 
  "限制": 707, 
  "直接": 708, 
  "(d)": 709, 
  "借": 710, 
  "成功": 711, 
  "什": 712, 
  "比": 713, 
  "各项": 714, 
  "务": 715, 
  "4@@": 716, 
  "呼吁": 717, 
  "每年": 718, 
  "本人": 719, 
  "成": 720, 
  "式": 721, 
  "接": 722, 
  "选择": 723, 
  "详情": 724, 
  "鼓励": 725, 
  "之后": 726, 
  "讯": 727, 
  "权力": 728, 
  "我国": 729, 
  "违反": 730, 
  "增补": 731, 
  "补充": 732, 
  "展开": 733, 
  "张": 734, 
  "代": 735, 
  "打击": 736, 
  "带来": 737, 
  "大陆": 738, 
  "线": 739, 
  "贷款": 740, 
  "生产": 741, 
  "轮": 742, 
  "过程": 743, 
  "议会": 744, 
  "具有": 745, 
  "访问": 746, 
  "资格": 747, 
  "保护": 748, 
  "用途": 749, 
  "采用": 750, 
  "而且": 751, 
  "理由": 752, 
  "推动": 753, 
  "场": 754, 
  "举办": 755, 
  "星期二": 756, 
  "推广": 757, 
  "有人": 758, 
  "电话": 759, 
  "利用": 760, 
  "税": 761, 
  "指示": 762, 
  "英国": 763, 
  "方": 764, 
  "供应": 765, 
  "具": 766, 
  "面对": 767, 
  "象": 768, 
  "交": 769, 
  "竞争": 770, 
  "表": 771, 
  "如此": 772, 
  "西": 773, 
  "委": 774, 
  "持": 775, 
  "星期一": 776, 
  "然而": 777, 
  "新闻": 778, 
  "中央": 779, 
  "顾问": 780, 
  "质素": 781, 
  "纪录": 782, 
  "权利": 783, 
  "转": 784, 
  "一种": 785, 
  "第三": 786, 
  "欢迎": 787, 
  "人口": 788, 
  "上午": 789, 
  "生": 790, 
  "控制": 791, 
  "收入": 792, 
  "最近": 793, 
  "授权": 794, 
  "协议": 795, 
  "需求": 796, 
  "建筑": 797, 
  "学习": 798, 
  "公开": 799, 
  "铁路": 800, 
  "工": 801, 
  "两岸": 802, 
  "首": 803, 
  "区域": 804, 
  "监督": 805, 
  "一份": 806, 
  "因素": 807, 
  "星期六": 808, 
  "的话": 809, 
  "持续": 810, 
  "之前": 811, 
  "拘捕": 812, 
  "地点": 813, 
  "力": 814, 
  "介": 815, 
  "民政": 816, 
  "总督": 817, 
  "宣传": 818, 
  "行业": 819, 
  "良好": 820, 
  "5@@": 821, 
  "产生": 822, 
  "先": 823, 
  "房": 824, 
  "据": 825, 
  "视": 826, 
  "机制": 827, 
  "超过@@": 828, 
  "北京": 829, 
  "十": 830, 
  "事实上": 831, 
  "见": 832, 
  "来自": 833, 
  "计算": 834, 
  "别": 835, 
  "经过": 836, 
  "行为": 837, 
  "市政局": 838, 
  "级": 839, 
  "那": 840, 
  "最高": 841, 
  "辩论": 842, 
  "卫生署": 843, 
  "改变": 844, 
  "仍然": 845, 
  "证明": 846, 
  "设备": 847, 
  "学": 848, 
  "成本": 849, 
  "共同": 850, 
  "价格": 851, 
  "制定": 852, 
  "无@@": 853, 
  "连": 854, 
  "正在": 855, 
  "往": 856, 
  "记者": 857, 
  "机场": 858, 
  "我的": 859, 
  "危险": 860, 
  "价值": 861, 
  "公": 862, 
  "投诉": 863, 
  "A": 864, 
  "表格": 865, 
  "率": 866, 
  "交易": 867, 
  "有效": 868, 
  "保安": 869, 
  "建造": 870, 
  "联络": 871, 
  "有些": 872, 
  "充分": 873, 
  "表现": 874, 
  "还是": 875, 
  "私人": 876, 
  "完": 877, 
  "环保": 878, 
  "传统": 879, 
  "医生": 880, 
  "人数": 881, 
  "角": 882, 
  "律师": 883, 
  "平均": 884, 
  "甚至": 885, 
  "头": 886, 
  "办事处": 887, 
  "营": 888, 
  "致电": 889, 
  "相当": 890, 
  "司法": 891, 
  "警察": 892, 
  "予以": 893, 
  "何": 894, 
  "自由": 895, 
  "一次": 896, 
  "儿童": 897, 
  "全部": 898, 
  "监管": 899, 
  "清楚": 900, 
  "基本": 901, 
  "困难": 902, 
  "南": 903, 
  "…": 904, 
  "支付": 905, 
  "额": 906, 
  "教": 907, 
  "配合": 908, 
  "2@@": 909, 
  "以便": 910, 
  "亿": 911, 
  "卫生": 912, 
  "有限公司": 913, 
  "合": 914, 
  "质询": 915, 
  "申请人": 916, 
  "策略": 917, 
  "员工": 918, 
  "教师": 919, 
  "低": 920, 
  "生效": 921, 
  "展览": 922, 
  "市": 923, 
  "6@@": 924, 
  "签署": 925, 
  "全球": 926, 
  "另外": 927, 
  "出口": 928, 
  "自己的": 929, 
  "详细": 930, 
  "电子": 931, 
  "货物": 932, 
  "小@@": 933, 
  "修改": 934, 
  "值": 935, 
  "形式": 936, 
  "强": 937, 
  "信": 938, 
  "如下": 939, 
  "物": 940, 
  "联": 941, 
  "达到": 942, 
  "12": 943, 
  "原": 944, 
  "一段": 945, 
  "这次": 946, 
  "提醒": 947, 
  "1998年": 948, 
  "利": 949, 
  "师": 950, 
  "指定": 951, 
  "前往": 952, 
  "新界": 953, 
  "住": 954, 
  "持有": 955, 
  "证明书": 956, 
  "各种": 957, 
  "电讯": 958, 
  "续": 959, 
  "犯罪": 960, 
  "警": 961, 
  "运输": 962, 
  "1997年": 963, 
  "首先": 964, 
  "国内": 965, 
  "落实": 966, 
  "还有": 967, 
  "船": 968, 
  "人权": 969, 
  "北": 970, 
  "一样": 971, 
  "星期日": 972, 
  "致辞": 973, 
  "感到": 974, 
  "共有": 975, 
  "之一": 976, 
  "题": 977, 
  "华": 978, 
  "海外": 979, 
  "现有": 980, 
  "统筹": 981, 
  "核": 982, 
  "职": 983, 
  "建": 984, 
  "说明": 985, 
  "程度": 986, 
  "回应": 987, 
  "社": 988, 
  "即使": 989, 
  "做法": 990, 
  "整个": 991, 
  "总统": 992, 
  "职业": 993, 
  "公园": 994, 
  "职位": 995, 
  "官员": 996, 
  "$": 997, 
  "江泽民": 998, 
  "称": 999, 
  "重大": 1000, 
  "票": 1001, 
  "通知书": 1002, 
  "7@@": 1003, 
  "德": 1004, 
  "谨": 1005, 
  "办": 1006, 
  "士": 1007, 
  "医疗": 1008, 
  "旅游": 1009, 
  "看到": 1010, 
  "地位": 1011, 
  "总署": 1012, 
  "作用": 1013, 
  "正式": 1014, 
  "存在": 1015, 
  "艺术": 1016, 
  "统一": 1017, 
  "独立": 1018, 
  "驾驶": 1019, 
  "着": 1020, 
  "油": 1021, 
  "大厦": 1022, 
  "录": 1023, 
  "修正": 1024, 
  "康乐": 1025, 
  "介绍": 1026, 
  "种": 1027, 
  "承诺": 1028, 
  "不足": 1029, 
  "和平": 1030, 
  "订立": 1031, 
  "湾": 1032, 
  "区内": 1033, 
  "少": 1034, 
  "实现": 1035, 
  "经常": 1036, 
  "款项": 1037, 
  "乘客": 1038, 
  "指引": 1039, 
  "住宅": 1040, 
  "教育署": 1041, 
  "兴建": 1042, 
  "船只": 1043, 
  "测试": 1044, 
  "设": 1045, 
  "陈": 1046, 
  "回": 1047, 
  "认可": 1048, 
  "同事": 1049, 
  "综合": 1050, 
  "11": 1051, 
  "时候": 1052, 
  "保证": 1053, 
  "米": 1054, 
  "并无": 1055, 
  "本身": 1056, 
  "隧道": 1057, 
  "重视": 1058, 
  "分析": 1059, 
  "开": 1060, 
  "租": 1061, 
  "支援": 1062, 
  "才能": 1063, 
  "准备": 1064, 
  "有助": 1065, 
  "令人": 1066, 
  "这一": 1067, 
  "检查": 1068, 
  "本会": 1069, 
  "致力": 1070, 
  "发行": 1071, 
  "拨款": 1072, 
  "社区": 1073, 
  "防止": 1074, 
  "暂停": 1075, 
  "自然": 1076, 
  "月": 1077, 
  "制订": 1078, 
  "香港特别行政区": 1079, 
  "8@@": 1080, 
  "尽快": 1081, 
  "下列": 1082, 
  "结构": 1083, 
  "审": 1084, 
  "宪": 1085, 
  "个别": 1086, 
  "待": 1087, 
  "否则": 1088, 
  "同样": 1089, 
  "警务": 1090, 
  "至@@": 1091, 
  "昨日": 1092, 
  "室": 1093, 
  "立法": 1094, 
  "物品": 1095, 
  "帮助": 1096, 
  "近": 1097, 
  "最大": 1098, 
  "拟": 1099, 
  "分区": 1100, 
  "运动": 1101, 
  "福利": 1102, 
  "被捕": 1103, 
  "挑战": 1104, 
  "消费": 1105, 
  "保险": 1106, 
  "节目": 1107, 
  "高@@": 1108, 
  "资产": 1109, 
  "特别是": 1110, 
  "万": 1111, 
  "注意": 1112, 
  "送达": 1113, 
  "坚持": 1114, 
  "译文": 1115, 
  "董建华": 1116, 
  "反": 1117, 
  "心": 1118, 
  "死亡": 1119, 
  "表决": 1120, 
  "审议": 1121, 
  "水@@": 1122, 
  "选": 1123, 
  "9@@": 1124, 
  "定罪": 1125, 
  "计": 1126, 
  "同期": 1127, 
  "执法": 1128, 
  "人才": 1129, 
  "工人": 1130, 
  "证券": 1131, 
  "交流": 1132, 
  "早": 1133, 
  "废物": 1134, 
  "花": 1135, 
  "广泛": 1136, 
  "领导": 1137, 
  "缴付": 1138, 
  "城市": 1139, 
  "投票": 1140, 
  "每个": 1141, 
  "创新": 1142, 
  "世": 1143, 
  "不论": 1144, 
  "备": 1145, 
  "气": 1146, 
  "避免": 1147, 
  "院": 1148, 
  "朗": 1149, 
  "s": 1150, 
  "总值": 1151, 
  "官": 1152, 
  "中@@": 1153, 
  "长期": 1154, 
  "压力": 1155, 
  "的士": 1156, 
  "业主": 1157, 
  "事项": 1158, 
  "最新": 1159, 
  "发挥": 1160, 
  "认识": 1161, 
  "结束": 1162, 
  "0": 1163, 
  "担任": 1164, 
  "方便": 1165, 
  "态度": 1166, 
  "女子": 1167, 
  "购买": 1168, 
  "青少年": 1169, 
  "有@@": 1170, 
  "无法": 1171, 
  "滩": 1172, 
  "导致": 1173, 
  "存": 1174, 
  "巿": 1175, 
  "维修": 1176, 
  "除非": 1177, 
  "证据": 1178, 
  "立法局": 1179, 
  "手": 1180, 
  "制造": 1181, 
  "那些": 1182, 
  "类别": 1183, 
  "乐": 1184, 
  "装置": 1185, 
  "都会": 1186, 
  "高度": 1187, 
  "一切": 1188, 
  "两年": 1189, 
  "事实": 1190, 
  "李@@": 1191, 
  "有所": 1192, 
  "致": 1193, 
  "不要": 1194, 
  "14": 1195, 
  "建筑物": 1196, 
  "可否": 1197, 
  "作品": 1198, 
  "索": 1199, 
  "电影": 1200, 
  "该处": 1201, 
  "附近": 1202, 
  "思想": 1203, 
  "民主": 1204, 
  "自@@": 1205, 
  "]": 1206, 
  "网页": 1207, 
  "薪": 1208, 
  "重新": 1209, 
  "病人": 1210, 
  "真正": 1211, 
  "舱": 1212, 
  "马": 1213, 
  "并且": 1214, 
  "带": 1215, 
  "实在": 1216, 
  "石": 1217, 
  "中文": 1218, 
  "开发": 1219, 
  "印": 1220, 
  "推出": 1221, 
  "及其": 1222, 
  "代替": 1223, 
  "需": 1224, 
  "联系": 1225, 
  "司机": 1226, 
  "太": 1227, 
  "针对": 1228, 
  "物业": 1229, 
  "器": 1230, 
  "在此": 1231, 
  "现行": 1232, 
  "大部分": 1233, 
  "方案": 1234, 
  "预计": 1235, 
  "法官": 1236, 
  "按揭": 1237, 
  "[": 1238, 
  "提问": 1239, 
  "15": 1240, 
  "专家": 1241, 
  "废除": 1242, 
  "法定": 1243, 
  "怀疑": 1244, 
  "答": 1245, 
  "K": 1246, 
  "组成": 1247, 
  "多少": 1248, 
  "反映": 1249, 
  "无须": 1250, 
  "们": 1251, 
  "财产": 1252, 
  "当中": 1253, 
  "选民": 1254, 
  "系": 1255, 
  "战略": 1256, 
  "估计": 1257, 
  "另一方面": 1258, 
  "城": 1259, 
  "长远": 1260, 
  "涉嫌": 1261, 
  "方向": 1262, 
  "差": 1263, 
  "泳": 1264, 
  "其后": 1265, 
  "协会": 1266, 
  "相关": 1267, 
  "引起": 1268, 
  "具体": 1269, 
  "联合": 1270, 
  "陈@@": 1271, 
  "未能": 1272, 
  "跟进": 1273, 
  "明日": 1274, 
  "一位": 1275, 
  "年龄": 1276, 
  "架构": 1277, 
  "安": 1278, 
  "时代": 1279, 
  "面": 1280, 
  "豁免": 1281, 
  "状况": 1282, 
  "光": 1283, 
  "这样的": 1284, 
  "下@@": 1285, 
  "广播": 1286, 
  "跟": 1287, 
  "为止": 1288, 
  "主": 1289, 
  "(e)": 1290, 
  "维护": 1291, 
  "下降": 1292, 
  "第四": 1293, 
  "美元": 1294, 
  "本年": 1295, 
  "科学": 1296, 
  "旨在": 1297, 
  "商品": 1298, 
  "法律程序": 1299, 
  "领域": 1300, 
  "日后": 1301, 
  "恢复": 1302, 
  "孩子": 1303, 
  "代理": 1304, 
  "运输署": 1305, 
  "已有": 1306, 
  "功能": 1307, 
  "积": 1308, 
  "逾": 1309, 
  "U": 1310, 
  "产业": 1311, 
  "将来": 1312, 
  "立场": 1313, 
  "角色": 1314, 
  "王@@": 1315, 
  "告知": 1316, 
  "打@@": 1317, 
  "比照": 1318, 
  "节": 1319, 
  "超过": 1320, 
  "公平": 1321, 
  "老": 1322, 
  "设有": 1323, 
  "尽量": 1324, 
  "填": 1325, 
  "稍": 1326, 
  "教授": 1327, 
  "20": 1328, 
  "进": 1329, 
  "广": 1330, 
  "名称": 1331, 
  "功": 1332, 
  "只要": 1333, 
  "上@@": 1334, 
  "风": 1335, 
  "操作": 1336, 
  "派": 1337, 
  "首次": 1338, 
  "根本": 1339, 
  "重点": 1340, 
  "它们": 1341, 
  "地址": 1342, 
  "走": 1343, 
  "应付": 1344, 
  "13": 1345, 
  "重建": 1346, 
  "单": 1347, 
  "身": 1348, 
  "货品": 1349, 
  "事情": 1350, 
  "至今": 1351, 
  "明显": 1352, 
  "拒绝": 1353, 
  "沙田": 1354, 
  "收到": 1355, 
  "治疗": 1356, 
  "货币": 1357, 
  "清": 1358, 
  "随": 1359, 
  "客": 1360, 
  "屯": 1361, 
  "许可证": 1362, 
  "禁止": 1363, 
  "一间": 1364, 
  "邀请": 1365, 
  "任": 1366, 
  "正常": 1367, 
  "相同": 1368, 
  "老人": 1369, 
  "更改": 1370, 
  "正确": 1371, 
  "从事": 1372, 
  "汽车": 1373, 
  "新@@": 1374, 
  "律": 1375, 
  "预防": 1376, 
  "某些": 1377, 
  "行使": 1378, 
  "张@@": 1379, 
  "黄": 1380, 
  "增": 1381, 
  "人们": 1382, 
  "人@@": 1383, 
  "天@@": 1384, 
  "消防": 1385, 
  "友好": 1386, 
  "英": 1387, 
  "钱": 1388, 
  "进口": 1389, 
  "提升": 1390, 
  "旅客": 1391, 
  "爱": 1392, 
  "药物": 1393, 
  "多个": 1394, 
  "预测": 1395, 
  "年度": 1396, 
  "医": 1397, 
  "一九九九年": 1398, 
  "扩大": 1399, 
  "巴": 1400, 
  "居": 1401, 
  "1995年": 1402, 
  "李": 1403, 
  "申": 1404, 
  "职员": 1405, 
  "一套": 1406, 
  "大量": 1407, 
  "议题": 1408, 
  "吗": 1409, 
  "比赛": 1410, 
  "例": 1411, 
  "机关": 1412, 
  "所谓": 1413, 
  "限": 1414, 
  "聆": 1415, 
  "红": 1416, 
  "确定": 1417, 
  "营运": 1418, 
  "-@@": 1419, 
  "三@@": 1420, 
  "设置": 1421, 
  "女": 1422, 
  "品": 1423, 
  "国@@": 1424, 
  "八@@": 1425, 
  "刊登": 1426, 
  "便是": 1427, 
  "明白": 1428, 
  "曾经": 1429, 
  "晚上": 1430, 
  "业界": 1431, 
  "截至": 1432, 
  "二@@": 1433, 
  "而是": 1434, 
  "超": 1435, 
  "知识": 1436, 
  "罪": 1437, 
  "容易": 1438, 
  "取消": 1439, 
  "多项": 1440, 
  "数量": 1441, 
  "失业": 1442, 
  "收": 1443, 
  "零": 1444, 
  "足够": 1445, 
  "那麽": 1446, 
  "出@@": 1447, 
  "清洁": 1448, 
  "农业": 1449, 
  "飞机": 1450, 
  "处所": 1451, 
  "实行": 1452, 
  "出售": 1453, 
  "贡献": 1454, 
  "届": 1455, 
  "学院": 1456, 
  "荃湾": 1457, 
  "全国": 1458, 
  "货柜": 1459, 
  "监禁": 1460, 
  "五@@": 1461, 
  "网络": 1462, 
  "无论": 1463, 
  "大会": 1464, 
  "25": 1465, 
  "查": 1466, 
  "打": 1467, 
  "互联网": 1468, 
  "00": 1469, 
  "候选人": 1470, 
  "克": 1471, 
  "辖": 1472, 
  "条款": 1473, 
  "以外": 1474, 
  "观": 1475, 
  "遵守": 1476, 
  "定期": 1477, 
  "性质": 1478, 
  "家长": 1479, 
  "军事": 1480, 
  "铁": 1481, 
  "承认": 1482, 
  "型": 1483, 
  "不应": 1484, 
  "不仅": 1485, 
  "二十": 1486, 
  "适应": 1487, 
  "座": 1488, 
  "1996年": 1489, 
  "记": 1490, 
  "英文": 1491, 
  "明确": 1492, 
  "环": 1493, 
  "音乐": 1494, 
  "赞成": 1495, 
  "英语": 1496, 
  "研讨会": 1497, 
  "施政报告": 1498, 
  "成果": 1499, 
  "直至": 1500, 
  "18": 1501, 
  "起来": 1502, 
  "再次": 1503, 
  "总额": 1504, 
  "刑事": 1505, 
  "显著": 1506, 
  "回答": 1507, 
  "体": 1508, 
  "班": 1509, 
  "然后": 1510, 
  "参观": 1511, 
  "展": 1512, 
  "止": 1513, 
  "封闭": 1514, 
  "有利": 1515, 
  "附属": 1516, 
  "高兴": 1517, 
  "鱼": 1518, 
  "身分": 1519, 
  "深入": 1520, 
  "邮政": 1521, 
  "不可": 1522, 
  "诉讼": 1523, 
  "任务": 1524, 
  "0@@": 1525, 
  "承担": 1526, 
  "金管局": 1527, 
  "小学": 1528, 
  "数据": 1529, 
  "马@@": 1530, 
  "权益": 1531, 
  "犯": 1532, 
  "空间": 1533, 
  "男": 1534, 
  "适合": 1535, 
  "人类": 1536, 
  "中学": 1537, 
  "吸引": 1538, 
  "叶": 1539, 
  "绝对": 1540, 
  "席": 1541, 
  "领导人": 1542, 
  "十五": 1543, 
  "姓名": 1544, 
  "容许": 1545, 
  "办法": 1546, 
  "位置": 1547, 
  "字": 1548, 
  "/": 1549, 
  "秘书": 1550, 
  "究竟": 1551, 
  "画": 1552, 
  "(iii)": 1553, 
  "驻": 1554, 
  "很大": 1555, 
  "集团": 1556, 
  "加快": 1557, 
  "享有": 1558, 
  "意义": 1559, 
  "30": 1560, 
  "青年": 1561, 
  "密切": 1562, 
  "面积": 1563, 
  "16": 1564, 
  "保留": 1565, 
  "立": 1566, 
  "年前": 1567, 
  "援": 1568, 
  "香港人": 1569, 
  "一条": 1570, 
  "事业": 1571, 
  "形": 1572, 
  "应用": 1573, 
  "访": 1574, 
  "值得": 1575, 
  "简单": 1576, 
  "接触": 1577, 
  "专员": 1578, 
  "讼": 1579, 
  "子女": 1580, 
  "款额": 1581, 
  "19": 1582, 
  "最终": 1583, 
  "听": 1584, 
  "称为": 1585, 
  "谈判": 1586, 
  "离": 1587, 
  "开@@": 1588, 
  "教学": 1589, 
  "信心": 1590, 
  "这类": 1591, 
  "图书馆": 1592, 
  "中美": 1593, 
  "理": 1594, 
  "礼": 1595, 
  "提名": 1596, 
  "租金": 1597, 
  "实质": 1598, 
  "口": 1599, 
  "极": 1600, 
  "湾仔": 1601, 
  "高级": 1602, 
  "外国": 1603, 
  "心@@": 1604, 
  "欧洲": 1605, 
  "依据": 1606, 
  "声": 1607, 
  "朱": 1608, 
  "提到": 1609, 
  "治": 1610, 
  "以前": 1611, 
  "大型": 1612, 
  "长者": 1613, 
  "兴趣": 1614, 
  "有权": 1615, 
  "预算案": 1616, 
  "试验": 1617, 
  "一九九八年": 1618, 
  "公共关系": 1619, 
  "照顾": 1620, 
  "董事": 1621, 
  "检验": 1622, 
  "紧急": 1623, 
  "行人": 1624, 
  "B": 1625, 
  "越": 1626, 
  "离开": 1627, 
  "满意": 1628, 
  "初步": 1629, 
  "收益": 1630, 
  "综": 1631, 
  "履行": 1632, 
  "附件": 1633, 
  "模式": 1634, 
  "一点": 1635, 
  "资金": 1636, 
  "中共": 1637, 
  "污水": 1638, 
  "C": 1639, 
  "提及": 1640, 
  "片": 1641, 
  "公约": 1642, 
  "社会福利": 1643, 
  "C@@": 1644, 
  "对外": 1645, 
  "力量": 1646, 
  "部份": 1647, 
  "假期": 1648, 
  "中国人": 1649, 
  "贸": 1650, 
  "消费者": 1651, 
  "所需的": 1652, 
  "类似": 1653, 
  "件": 1654, 
  "联合国": 1655, 
  "当地": 1656, 
  "取": 1657, 
  "部队": 1658, 
  "期望": 1659, 
  "四@@": 1660, 
  "乡": 1661, 
  "电视": 1662, 
  "公路": 1663, 
  "今年@@": 1664, 
  "快": 1665, 
  "污染": 1666, 
  "构成": 1667, 
  "消息": 1668, 
  "仪": 1669, 
  "谈": 1670, 
  "难": 1671, 
  "居住": 1672, 
  "施行": 1673, 
  "10@@": 1674, 
  "各国": 1675, 
  "损害": 1676, 
  "准则": 1677, 
  "一部分": 1678, 
  "职能": 1679, 
  "财务": 1680, 
  "空气": 1681, 
  "斯": 1682, 
  "妇女": 1683, 
  "优惠": 1684, 
  "外汇": 1685, 
  "台北": 1686, 
  "关": 1687, 
  "亚太": 1688, 
  "排放": 1689, 
  "开展": 1690, 
  "愿意": 1691, 
  "出来": 1692, 
  "空气污染": 1693, 
  "一起": 1694, 
  "泊": 1695, 
  "公顷": 1696, 
  "谁": 1697, 
  "安装": 1698, 
  "承建": 1699, 
  "警告": 1700, 
  "酬": 1701, 
  "运用": 1702, 
  "康": 1703, 
  "各地": 1704, 
  "老@@": 1705, 
  "证书": 1706, 
  "你们": 1707, 
  "地铁": 1708, 
  "援助": 1709, 
  "进展": 1710, 
  "奖": 1711, 
  "立即": 1712, 
  "全委会": 1713, 
  "补偿": 1714, 
  "看法": 1715, 
  "战争": 1716, 
  "法案": 1717, 
  "码头": 1718, 
  "正如": 1719, 
  "破产": 1720, 
  "艘": 1721, 
  "似乎": 1722, 
  "旺": 1723, 
  "免费": 1724, 
  "1999年": 1725, 
  "动": 1726, 
  "民国": 1727, 
  "工资": 1728, 
  "动物": 1729, 
  "理想": 1730, 
  "加以": 1731, 
  "相@@": 1732, 
  "记录": 1733, 
  "布什": 1734, 
  "社会主义": 1735, 
  "套": 1736, 
  "退休": 1737, 
  "梁": 1738, 
  "收集": 1739, 
  "肯定": 1740, 
  "受伤": 1741, 
  "达成": 1742, 
  "私营": 1743, 
  "变化": 1744, 
  "富": 1745, 
  "声明": 1746, 
  "尔": 1747, 
  "知": 1748, 
  "军": 1749, 
  "投入": 1750, 
  "邮票": 1751, 
  "50": 1752, 
  "信息": 1753, 
  "修": 1754, 
  "真的": 1755, 
  "暂时": 1756, 
  "分配": 1757, 
  "证实": 1758, 
  "民主党": 1759, 
  "职责": 1760, 
  "文@@": 1761, 
  "意": 1762, 
  "1993年": 1763, 
  "现代": 1764, 
  "板": 1765, 
  "即时": 1766, 
  "纳": 1767, 
  "校": 1768, 
  "白": 1769, 
  "常": 1770, 
  "内部": 1771, 
  "大纲": 1772, 
  "守则": 1773, 
  "查阅": 1774, 
  "c": 1775, 
  "民族": 1776, 
  "A@@": 1777, 
  "新华社": 1778, 
  "布": 1779, 
  "怎": 1780, 
  "趋势": 1781, 
  "e": 1782, 
  "生@@": 1783, 
  "成绩": 1784, 
  "决议": 1785, 
  "覆": 1786, 
  "专利": 1787, 
  "优势": 1788, 
  "通讯": 1789, 
  "创造": 1790, 
  "引致": 1791, 
  "长@@": 1792, 
  "普遍": 1793, 
  "十二": 1794, 
  "万@@": 1795, 
  "沙": 1796, 
  "预算": 1797, 
  "年来": 1798, 
  "老师": 1799, 
  "二十@@": 1800, 
  "附": 1801, 
  "标志": 1802, 
  "全文": 1803, 
  "为期": 1804, 
  "言": 1805, 
  "埔": 1806, 
  "主题": 1807, 
  "短期": 1808, 
  "预期": 1809, 
  "21": 1810, 
  "津贴": 1811, 
  "园": 1812, 
  "竞争力": 1813, 
  "刘": 1814, 
  "朋友": 1815, 
  "负担": 1816, 
  "紧密": 1817, 
  "现场": 1818, 
  "以后": 1819, 
  "表演": 1820, 
  "于": 1821, 
  "顺利": 1822, 
  "价": 1823, 
  "电台": 1824, 
  "主持": 1825, 
  "之@@": 1826, 
  "更加": 1827, 
  "比例": 1828, 
  "语": 1829, 
  "17": 1830, 
  "於是": 1831, 
  "博士": 1832, 
  "地盘": 1833, 
  "生命": 1834, 
  "一经": 1835, 
  "平": 1836, 
  "些": 1837, 
  "裁处": 1838, 
  "满": 1839, 
  "正是": 1840, 
  "效率": 1841, 
  "对此": 1842, 
  "除外": 1843, 
  "港岛": 1844, 
  "外@@": 1845, 
  "星": 1846, 
  "得以": 1847, 
  "中国政府": 1848, 
  "不再": 1849, 
  "出版": 1850, 
  "远": 1851, 
  "店": 1852, 
  "缴": 1853, 
  "六@@": 1854, 
  "放": 1855, 
  "且": 1856, 
  "划": 1857, 
  "有效的": 1858, 
  "完善": 1859, 
  "升": 1860, 
  "年底": 1861, 
  "然": 1862, 
  "不但": 1863, 
  "全体": 1864, 
  "协调": 1865, 
  "田": 1866, 
  "特殊": 1867, 
  "停止": 1868, 
  "收取": 1869, 
  "怎样": 1870, 
  "分@@": 1871, 
  "空": 1872, 
  "省": 1873, 
  "关键": 1874, 
  "接纳": 1875, 
  "展示": 1876, 
  "祖国": 1877, 
  "没": 1878, 
  "在内": 1879, 
  "名单": 1880, 
  "病": 1881, 
  "游泳": 1882, 
  "情": 1883, 
  "加上": 1884, 
  "例子": 1885, 
  "S@@": 1886, 
  "既": 1887, 
  "藏": 1888, 
  "广告": 1889, 
  "制作": 1890, 
  "集中": 1891, 
  "代表团": 1892, 
  "各个": 1893, 
  "争取": 1894, 
  "埙": 1895, 
  "廿": 1896, 
  "额外": 1897, 
  "遵从": 1898, 
  "鉴": 1899, 
  "公@@": 1900, 
  "流动": 1901, 
  "转变": 1902, 
  "吃": 1903, 
  "22": 1904, 
  "遭": 1905, 
  "息": 1906, 
  "感谢": 1907, 
  "甲": 1908, 
  "助理": 1909, 
  "土": 1910, 
  "塘": 1911, 
  "尊重": 1912, 
  "词": 1913, 
  "写": 1914, 
  "从而": 1915, 
  "导弹": 1916, 
  "通常": 1917, 
  "缺乏": 1918, 
  "星期": 1919, 
  "体系": 1920, 
  "市区": 1921, 
  "真": 1922, 
  "新加坡": 1923, 
  "裁定": 1924, 
  "环境保护": 1925, 
  "有一个": 1926, 
  "册": 1927, 
  "批评": 1928, 
  "时期": 1929, 
  "发@@": 1930, 
  "候": 1931, 
  "黄@@": 1932, 
  "尽": 1933, 
  "未有": 1934, 
  "干部": 1935, 
  "置": 1936, 
  "同@@": 1937, 
  "参考": 1938, 
  "政务司": 1939, 
  "之处": 1940, 
  "毒品": 1941, 
  "理解": 1942, 
  "罗": 1943, 
  "形成": 1944, 
  "特": 1945, 
  "免": 1946, 
  "先进": 1947, 
  "热线": 1948, 
  "载有": 1949, 
  "告": 1950, 
  "迅速": 1951, 
  "光碟": 1952, 
  "人手": 1953, 
  "账目": 1954, 
  "景": 1955, 
  "会见": 1956, 
  "被判": 1957, 
  "一方": 1958, 
  "地下": 1959, 
  "地政": 1960, 
  "旧": 1961, 
  "撤销": 1962, 
  "减": 1963, 
  "伙伴": 1964, 
  "尽管": 1965, 
  "花@@": 1966, 
  "酒": 1967, 
  "战": 1968, 
  "地带": 1969, 
  "现代化": 1970, 
  "投标": 1971, 
  "沟通": 1972, 
  "共识": 1973, 
  "总部": 1974, 
  "副": 1975, 
  "减低": 1976, 
  "资": 1977, 
  "表达": 1978, 
  "最低": 1979, 
  "志": 1980, 
  "金@@": 1981, 
  "准": 1982, 
  "回归": 1983, 
  "严格": 1984, 
  "1@@": 1985, 
  "兰": 1986, 
  "视为": 1987, 
  "版": 1988, 
  "出任": 1989, 
  "厂": 1990, 
  "尤其是": 1991, 
  "专责": 1992, 
  "火警": 1993, 
  "主管": 1994, 
  "准许": 1995, 
  "女性": 1996, 
  "债券": 1997, 
  "形势": 1998, 
  "投资者": 1999, 
  "辅导": 2000, 
  "演出": 2001, 
  "大众": 2002, 
  "用作": 2003, 
  "风险": 2004, 
  "体育": 2005, 
  "会员": 2006, 
  "公营": 2007, 
  "色": 2008, 
  "话": 2009, 
  "安@@": 2010, 
  "关心": 2011, 
  "赔偿": 2012, 
  "西方": 2013, 
  "一九九七年": 2014, 
  "M@@": 2015, 
  "事故": 2016, 
  "相互": 2017, 
  "宗教": 2018, 
  "大幅": 2019, 
  "1994年": 2020, 
  "落": 2021, 
  "(f)": 2022, 
  "重@@": 2023, 
  "学者": 2024, 
  "一系列": 2025, 
  "王": 2026, 
  "反应": 2027, 
  "29": 2028, 
  "工具": 2029, 
  "丰富": 2030, 
  "卖": 2031, 
  "武器": 2032, 
  "汇兑": 2033, 
  "风@@": 2034, 
  "跌幅": 2035, 
  "通": 2036, 
  "自动": 2037, 
  "中方": 2038, 
  "加@@": 2039, 
  "当前": 2040, 
  "外交": 2041, 
  "路线": 2042, 
  "市政": 2043, 
  "柴油": 2044, 
  "零@@": 2045, 
  "三十": 2046, 
  "来源": 2047, 
  "合法": 2048, 
  "语文": 2049, 
  "半": 2050, 
  "深": 2051, 
  "一致": 2052, 
  "认真": 2053, 
  "海@@": 2054, 
  "曾荫权": 2055, 
  "西部": 2056, 
  "可是": 2057, 
  "朝": 2058, 
  "判": 2059, 
  "基建": 2060, 
  "总理": 2061, 
  "@": 2062, 
  "进步": 2063, 
  "金额": 2064, 
  "成效": 2065, 
  "为此": 2066, 
  "特色": 2067, 
  "24": 2068, 
  "装备": 2069, 
  "大楼": 2070, 
  "实": 2071, 
  "成@@": 2072, 
  "'": 2073, 
  "余": 2074, 
  "好@@": 2075, 
  "仪式": 2076, 
  "住户": 2077, 
  "经贸": 2078, 
  "P@@": 2079, 
  "登记册": 2080, 
  "成就": 2081, 
  "研": 2082, 
  "越来越": 2083, 
  "来看": 2084, 
  "执业": 2085, 
  "因而": 2086, 
  "七@@": 2087, 
  "本@@": 2088, 
  "核准": 2089, 
  "靠": 2090, 
  "考试": 2091, 
  "队伍": 2092, 
  "港口": 2093, 
  "自行": 2094, 
  "编制": 2095, 
  "华人": 2096, 
  "B@@": 2097, 
  "讲": 2098, 
  "000": 2099, 
  "送交": 2100, 
  "丽": 2101, 
  "地@@": 2102, 
  "制造业": 2103, 
  "以往": 2104, 
  "罪名": 2105, 
  "吴": 2106, 
  "请问": 2107, 
  "最少": 2108, 
  "角度": 2109, 
  "观念": 2110, 
  "拉": 2111, 
  "各方面": 2112, 
  "即将": 2113, 
  "重申": 2114, 
  "陈述": 2115, 
  "担心": 2116, 
  "版权": 2117, 
  "盗版": 2118, 
  "面临": 2119, 
  "国务院": 2120, 
  "西@@": 2121, 
  "18@@": 2122, 
  "货车": 2123, 
  "理论": 2124, 
  "五十": 2125, 
  "神": 2126, 
  "传媒": 2127, 
  "厘定": 2128, 
  "范畴": 2129, 
  "层": 2130, 
  "t@@": 2131, 
  "同一": 2132, 
  "九@@": 2133, 
  "25@@": 2134, 
  "场地": 2135, 
  "家@@": 2136, 
  "告诉": 2137, 
  "刘@@": 2138, 
  "妥善": 2139, 
  "仅": 2140, 
  "服务业": 2141, 
  "罪案": 2142, 
  "销售": 2143, 
  "当日": 2144, 
  "饷": 2145, 
  "媒体": 2146, 
  "树": 2147, 
  "d@@": 2148, 
  "艺": 2149, 
  "足够的": 2150, 
  "前@@": 2151, 
  "付": 2152, 
  "发售": 2153, 
  "b@@": 2154, 
  "临": 2155, 
  "平衡": 2156, 
  "比率": 2157, 
  "征": 2158, 
  "移民": 2159, 
  "岛": 2160, 
  "卡": 2161, 
  "一向": 2162, 
  "其余": 2163, 
  "最佳": 2164, 
  "必要": 2165, 
  "每天": 2166, 
  "32": 2167, 
  "只能": 2168, 
  "违例": 2169, 
  "求": 2170, 
  "途径": 2171, 
  "推进": 2172, 
  "感": 2173, 
  "民众": 2174, 
  "干": 2175, 
  "东西": 2176, 
  "报告书": 2177, 
  "同志": 2178, 
  "强烈": 2179, 
  "寻求": 2180, 
  "议": 2181, 
  "气体": 2182, 
  "﹒": 2183, 
  "林@@": 2184, 
  "二零零一年": 2185, 
  "水质": 2186, 
  "感染": 2187, 
  "损失": 2188, 
  "史": 2189, 
  "几": 2190, 
  "所得": 2191, 
  "售卖": 2192, 
  "输入": 2193, 
  "物料": 2194, 
  "尼": 2195, 
  "农民": 2196, 
  "之外": 2197, 
  "送": 2198, 
  "第@@": 2199, 
  "并不是": 2200, 
  "引": 2201, 
  "e@@": 2202, 
  "合适": 2203, 
  "残疾": 2204, 
  "观众": 2205, 
  "D@@": 2206, 
  "亚": 2207, 
  "滥用": 2208, 
  "山@@": 2209, 
  "大约": 2210, 
  "增强": 2211, 
  "则是": 2212, 
  "总监": 2213, 
  "明@@": 2214, 
  "至少": 2215, 
  "父母": 2216, 
  "烟": 2217, 
  "s@@": 2218, 
  "具备": 2219, 
  "c@@": 2220, 
  "讲话": 2221, 
  "裁决": 2222, 
  "时@@": 2223, 
  "买卖": 2224, 
  "幅": 2225, 
  "周年": 2226, 
  "平等": 2227, 
  "难以": 2228, 
  "他人": 2229, 
  "装": 2230, 
  "特@@": 2231, 
  "实践": 2232, 
  "复杂": 2233, 
  "效益": 2234, 
  "论": 2235, 
  "发放": 2236, 
  "百": 2237, 
  "群众": 2238, 
  "调": 2239, 
  "意识": 2240, 
  "往往": 2241, 
  "越南": 2242, 
  "俄罗斯": 2243, 
  "物质": 2244, 
  "培养": 2245, 
  "就此": 2246, 
  "鸡": 2247, 
  "规模": 2248, 
  "旁": 2249, 
  "确实": 2250, 
  "伤": 2251, 
  "i@@": 2252, 
  "多年": 2253, 
  "决心": 2254, 
  "副本": 2255, 
  "头@@": 2256, 
  "三十@@": 2257, 
  "多年来": 2258, 
  "逐渐": 2259, 
  "刚": 2260, 
  "多@@": 2261, 
  "更是": 2262, 
  "正@@": 2263, 
  "货": 2264, 
  "主办": 2265, 
  "疾病": 2266, 
  "义": 2267, 
  "双": 2268, 
  "判决": 2269, 
  "28@@": 2270, 
  "19@@": 2271, 
  "逐步": 2272, 
  "语言": 2273, 
  "澳洲": 2274, 
  "易": 2275, 
  "四十": 2276, 
  "军队": 2277, 
  "客户": 2278, 
  "十年": 2279, 
  "二零零零年": 2280, 
  "荣": 2281, 
  "掌握": 2282, 
  "二百@@": 2283, 
  "后@@": 2284, 
  "物价指数": 2285, 
  "变": 2286, 
  "堂": 2287, 
  "12@@": 2288, 
  "白@@": 2289, 
  "南@@": 2290, 
  "拉@@": 2291, 
  "两地": 2292, 
  "索取": 2293, 
  "网址": 2294, 
  "底": 2295, 
  "名@@": 2296, 
  "九时": 2297, 
  "陈辞": 2298, 
  "看来": 2299, 
  "协定": 2300, 
  "清@@": 2301, 
  "每月": 2302, 
  "户": 2303, 
  "h": 2304, 
  "整": 2305, 
  "网": 2306, 
  "a": 2307, 
  "澄清": 2308, 
  "状": 2309, 
  "更为": 2310, 
  "眼": 2311, 
  "移交": 2312, 
  "裁判": 2313, 
  "演": 2314, 
  "表明": 2315, 
  "火": 2316, 
  "签证": 2317, 
  "青": 2318, 
  "一百": 2319, 
  "日@@": 2320, 
  "左右": 2321, 
  "福": 2322, 
  "一国两制": 2323, 
  "斜坡": 2324, 
  "可@@": 2325, 
  "被控": 2326, 
  "会同": 2327, 
  "效果": 2328, 
  "源": 2329, 
  "认同": 2330, 
  "40": 2331, 
  "顾客": 2332, 
  "还要": 2333, 
  "许可": 2334, 
  "儿": 2335, 
  "11@@": 2336, 
  "灯": 2337, 
  "波": 2338, 
  "存款": 2339, 
  "许": 2340, 
  "职务": 2341, 
  "罗@@": 2342, 
  "小巴": 2343, 
  "呈交": 2344, 
  "编号": 2345, 
  "边": 2346, 
  "三百@@": 2347, 
  "封": 2348, 
  "多次": 2349, 
  "投": 2350, 
  "死": 2351, 
  "有关部门": 2352, 
  "十八": 2353, 
  "另一个": 2354, 
  "威胁": 2355, 
  "23": 2356, 
  "相": 2357, 
  "故事": 2358, 
  "雇用": 2359, 
  "空缺": 2360, 
  "禁毒": 2361, 
  "不时": 2362, 
  "行车": 2363, 
  "得@@": 2364, 
  "护照": 2365, 
  "笔": 2366, 
  "旅游业": 2367, 
  "沿": 2368, 
  "变动": 2369, 
  "风暴": 2370, 
  "酒店": 2371, 
  "主权": 2372, 
  "倍": 2373, 
  "程": 2374, 
  "办公室": 2375, 
  "族": 2376, 
  "馆": 2377, 
  "留": 2378, 
  "优先": 2379, 
  "结算": 2380, 
  "笑": 2381, 
  "古": 2382, 
  "T@@": 2383, 
  "活": 2384, 
  "部长": 2385, 
  "创作": 2386, 
  "经理": 2387, 
  "州": 2388, 
  "收回": 2389, 
  "产": 2390, 
  "延长": 2391, 
  "统": 2392, 
  "20@@": 2393, 
  "千": 2394, 
  "两@@": 2395, 
  "搜查": 2396, 
  "工厂": 2397, 
  "每日": 2398, 
  "稿": 2399, 
  "句": 2400, 
  "2.@@": 2401, 
  "纳入": 2402, 
  "肆": 2403, 
  "成长": 2404, 
  "歧视": 2405, 
  "病毒": 2406, 
  "协": 2407, 
  "互相": 2408, 
  "云": 2409, 
  "庞大": 2410, 
  "终审": 2411, 
  "气@@": 2412, 
  "固定": 2413, 
  "更大": 2414, 
  "改": 2415, 
  "一百@@": 2416, 
  "食品": 2417, 
  "财经": 2418, 
  "随着": 2419, 
  "该计划": 2420, 
  "佳": 2421, 
  "公职": 2422, 
  "28": 2423, 
  "派发": 2424, 
  "能否": 2425, 
  "买": 2426, 
  "尚": 2427, 
  "利@@": 2428, 
  "有机会": 2429, 
  "取代": 2430, 
  "赋予": 2431, 
  "商界": 2432, 
  "两者": 2433, 
  "唯一": 2434, 
  "十四": 2435, 
  "之下": 2436, 
  "升幅": 2437, 
  "利率": 2438, 
  "借此": 2439, 
  "26": 2440, 
  "护理": 2441, 
  "而@@": 2442, 
  "E": 2443, 
  "留意": 2444, 
  "全@@": 2445, 
  "充满": 2446, 
  "破坏": 2447, 
  "小组委员会": 2448, 
  "资本": 2449, 
  "台独": 2450, 
  "吨": 2451, 
  "手@@": 2452, 
  "27": 2453, 
  "垃圾": 2454, 
  "概念": 2455, 
  "大律师": 2456, 
  "打算": 2457, 
  "会晤": 2458, 
  "主@@": 2459, 
  "关乎": 2460, 
  "库": 2461, 
  "学位": 2462, 
  "刑罚": 2463, 
  "您": 2464, 
  "入狱": 2465, 
  "三个月": 2466, 
  "雇": 2467, 
  "错误": 2468, 
  "材料": 2469, 
  "小心": 2470, 
  "聘用": 2471, 
  "追": 2472, 
  "一下": 2473, 
  "过@@": 2474, 
  "博物馆": 2475, 
  "民建": 2476, 
  "也要": 2477, 
  "纪律": 2478, 
  "各界": 2479, 
  "公民": 2480, 
  "速度": 2481, 
  "十一": 2482, 
  "方针": 2483, 
  "列出": 2484, 
  "民间": 2485, 
  "尤其": 2486, 
  "黑": 2487, 
  "传": 2488, 
  "几乎": 2489, 
  "终止": 2490, 
  "护": 2491, 
  "身体": 2492, 
  "所需": 2493, 
  "美@@": 2494, 
  "动力": 2495, 
  "李鹏": 2496, 
  "披露": 2497, 
  "近年来": 2498, 
  "纸": 2499, 
  "新世纪": 2500, 
  "雇佣": 2501, 
  "合并": 2502, 
  "盖": 2503, 
  "中小型企业": 2504, 
  "算": 2505, 
  "流": 2506, 
  "储备": 2507, 
  "随时": 2508, 
  "涌": 2509, 
  "外地": 2510, 
  "防": 2511, 
  "县": 2512, 
  "杨": 2513, 
  "十@@": 2514, 
  "机械": 2515, 
  "类型": 2516, 
  "专": 2517, 
  "受托": 2518, 
  "期限": 2519, 
  "债": 2520, 
  "澳": 2521, 
  "扣": 2522, 
  "东@@": 2523, 
  "为什麽": 2524, 
  "副主席": 2525, 
  "届满": 2526, 
  "尚未": 2527, 
  "课": 2528, 
  "始终": 2529, 
  "探": 2530, 
  "广大": 2531, 
  "警员": 2532, 
  "p@@": 2533, 
  "晚": 2534, 
  "格式": 2535, 
  "评审": 2536, 
  "天气": 2537, 
  "届时": 2538, 
  "箱": 2539, 
  "兴": 2540, 
  "递交": 2541, 
  "围": 2542, 
  "悬挂": 2543, 
  "接近": 2544, 
  "现实": 2545, 
  "报道": 2546, 
  "不可能": 2547, 
  "足以": 2548, 
  "样本": 2549, 
  "世纪": 2550, 
  "木": 2551, 
  "网站": 2552, 
  "或是": 2553, 
  "60": 2554, 
  "以为": 2555, 
  "火@@": 2556, 
  "入境处": 2557, 
  "探讨": 2558, 
  "只会": 2559, 
  "刊物": 2560, 
  "六时": 2561, 
  "有效地": 2562, 
  "短": 2563, 
  "中华": 2564, 
  "城市规划": 2565, 
  "轻微": 2566, 
  "尖沙咀": 2567, 
  "巩固": 2568, 
  "有了": 2569, 
  "惩": 2570, 
  "负": 2571, 
  "转@@": 2572, 
  "会面": 2573, 
  "基层": 2574, 
  "校长": 2575, 
  "思": 2576, 
  "决策": 2577, 
  "论坛": 2578, 
  "文章": 2579, 
  "企图": 2580, 
  "听取": 2581, 
  "证监会": 2582, 
  "雅": 2583, 
  "尔@@": 2584, 
  "不知道": 2585, 
  "/@@": 2586, 
  "加拿大": 2587, 
  "交易所": 2588, 
  "死者": 2589, 
  "变成": 2590, 
  "早上": 2591, 
  "航空": 2592, 
  "乘": 2593, 
  "可行": 2594, 
  "背景": 2595, 
  "各方": 2596, 
  "普通": 2597, 
  "假如": 2598, 
  "总@@": 2599, 
  "依法": 2600, 
  "澳门": 2601, 
  "er": 2602, 
  "官方": 2603, 
  "义务": 2604, 
  "种种": 2605, 
  "领取": 2606, 
  "收@@": 2607, 
  "石油气": 2608, 
  "召开": 2609, 
  "同月": 2610, 
  "年内": 2611, 
  "日子": 2612, 
  "利息": 2613, 
  "处置": 2614, 
  "生产力": 2615, 
  "古@@": 2616, 
  "m@@": 2617, 
  "周@@": 2618, 
  "它的": 2619, 
  "遇到": 2620, 
  "别人": 2621, 
  "世界上": 2622, 
  "光@@": 2623, 
  "经济体系": 2624, 
  "一旦": 2625, 
  "保": 2626, 
  "征收": 2627, 
  "群": 2628, 
  "最多": 2629, 
  "引入": 2630, 
  "舍": 2631, 
  "倒": 2632, 
  "淑": 2633, 
  "法治": 2634, 
  "o@@": 2635, 
  "花园": 2636, 
  "戏": 2637, 
  "二千": 2638, 
  "计画": 2639, 
  "用@@": 2640, 
  "养": 2641, 
  "定义": 2642, 
  "五个": 2643, 
  "H@@": 2644, 
  "学员": 2645, 
  "狗": 2646, 
  "专题": 2647, 
  "海事": 2648, 
  "港人": 2649, 
  "生态": 2650, 
  "境": 2651, 
  "热": 2652, 
  "德@@": 2653, 
  "送往": 2654, 
  "广场": 2655, 
  "用以": 2656, 
  "十二@@": 2657, 
  "虚假": 2658, 
  "扩展": 2659, 
  "实际上": 2660, 
  "跌": 2661, 
  "前景": 2662, 
  "或许": 2663, 
  "一批": 2664, 
  "行事": 2665, 
  "任期": 2666, 
  "汉": 2667, 
  "印度": 2668, 
  "松": 2669, 
  "西藏": 2670, 
  "信托": 2671, 
  "满足": 2672, 
  "财政年度": 2673, 
  "找": 2674, 
  "下述": 2675, 
  "流@@": 2676, 
  "获准": 2677, 
  "并未": 2678, 
  "第五": 2679, 
  "相对": 2680, 
  "1.@@": 2681, 
  "舞": 2682, 
  "劳": 2683, 
  "E@@": 2684, 
  "掉": 2685, 
  "内@@": 2686, 
  "平方米": 2687, 
  "连接": 2688, 
  "屋宇署": 2689, 
  "巨大": 2690, 
  "裁判官": 2691, 
  "宝": 2692, 
  "年@@": 2693, 
  "十时": 2694, 
  "5%": 2695, 
  "启用": 2696, 
  "十一@@": 2697, 
  "通道": 2698, 
  "行@@": 2699, 
  "阿": 2700, 
  "运": 2701, 
  "燃料": 2702, 
  "危机": 2703, 
  "半@@": 2704, 
  "33": 2705, 
  "放弃": 2706, 
  "找到": 2707, 
  "仍未": 2708, 
  "h@@": 2709, 
  "主动": 2710, 
  "转让": 2711, 
  "优质": 2712, 
  "新机场": 2713, 
  "政党": 2714, 
  "公斤": 2715, 
  "报导": 2716, 
  "下来": 2717, 
  "做好": 2718, 
  "商标": 2719, 
  "偏高": 2720, 
  "石@@": 2721, 
  "中环": 2722, 
  "快速": 2723, 
  "斗争": 2724, 
  "各类": 2725, 
  "后来": 2726, 
  "过往": 2727, 
  "陆": 2728, 
  "望": 2729, 
  "说法": 2730, 
  "电力": 2731, 
  "干预": 2732, 
  "可供": 2733, 
  "网上": 2734, 
  "I": 2735, 
  "郑": 2736, 
  "乙": 2737, 
  "在这里": 2738, 
  "看@@": 2739, 
  "观察": 2740, 
  "选出": 2741, 
  "断": 2742, 
  "27@@": 2743, 
  "好的": 2744, 
  "制品": 2745, 
  "a@@": 2746, 
  "进口货": 2747, 
  "期货": 2748, 
  "之中": 2749, 
  "反@@": 2750, 
  "虽": 2751, 
  "一辆": 2752, 
  "主义": 2753, 
  "跨": 2754, 
  "喜欢": 2755, 
  "身上": 2756, 
  "根": 2757, 
  "明年": 2758, 
  "t": 2759, 
  "假": 2760, 
  "的确": 2761, 
  "每一": 2762, 
  "七时": 2763, 
  "彻底": 2764, 
  "伦敦": 2765, 
  "水域": 2766, 
  "l@@": 2767, 
  "二零零一年@@": 2768, 
  "办理": 2769, 
  "中国人民": 2770, 
  "一贯": 2771, 
  "繁荣": 2772, 
  "样": 2773, 
  "学会": 2774, 
  "31": 2775, 
  "L@@": 2776, 
  "四百@@": 2777, 
  "江": 2778, 
  "拨": 2779, 
  "涵盖": 2780, 
  "种类": 2781, 
  "名为": 2782, 
  "审慎": 2783, 
  "穿": 2784, 
  "35": 2785, 
  "争议": 2786, 
  "茶": 2787, 
  "金钱": 2788, 
  "领袖": 2789, 
  "空@@": 2790, 
  "分组": 2791, 
  "有限": 2792, 
  "S": 2793, 
  "G@@": 2794, 
  "架": 2795, 
  "公正": 2796, 
  "付款": 2797, 
  "剂": 2798, 
  "对话": 2799, 
  "审查": 2800, 
  "违法": 2801, 
  "军@@": 2802, 
  "行驶": 2803, 
  "势力": 2804, 
  "首席": 2805, 
  "连同": 2806, 
  "四月": 2807, 
  "草图": 2808, 
  "辞": 2809, 
  "发给": 2810, 
  "纪念": 2811, 
  "东区": 2812, 
  "西贡": 2813, 
  "周": 2814, 
  "如今": 2815, 
  "起@@": 2816, 
  "当作": 2817, 
  "单车": 2818, 
  "u@@": 2819, 
  "拓展": 2820, 
  "消除": 2821, 
  "绝不": 2822, 
  "数码": 2823, 
  "工商": 2824, 
  "蔡": 2825, 
  "当年": 2826, 
  "今后": 2827, 
  "不可以": 2828, 
  "停车场": 2829, 
  "游戏": 2830, 
  "透明度": 2831, 
  "鸟": 2832, 
  "80": 2833, 
  "保养": 2834, 
  "手段": 2835, 
  "依": 2836, 
  "重要性": 2837, 
  "3.@@": 2838, 
  "小型": 2839, 
  "最好": 2840, 
  "噪音": 2841, 
  "分裂": 2842, 
  "课税": 2843, 
  "知识产权": 2844, 
  "1992年": 2845, 
  "日益": 2846, 
  "都要": 2847, 
  "课题": 2848, 
  "河": 2849, 
  "而不是": 2850, 
  "既然": 2851, 
  "院校": 2852, 
  "会谈": 2853, 
  "每次": 2854, 
  "渡轮": 2855, 
  "有意": 2856, 
  "中华人民共和国": 2857, 
  "文字": 2858, 
  "未经": 2859, 
  "可行性": 2860, 
  "船员": 2861, 
  "股份": 2862, 
  "合署": 2863, 
  "以致": 2864, 
  "结合": 2865, 
  "浏览": 2866, 
  "指标": 2867, 
  "难@@": 2868, 
  "放@@": 2869, 
  "逗留": 2870, 
  "别的": 2871, 
  "平@@": 2872, 
  "g@@": 2873, 
  "较为": 2874, 
  "顾及": 2875, 
  "能源": 2876, 
  "体制": 2877, 
  "回@@": 2878, 
  "15@@": 2879, 
  "这点": 2880, 
  "菜": 2881, 
  "清盘": 2882, 
  "关闭": 2883, 
  "渠": 2884, 
  "代理人": 2885, 
  "洲": 2886, 
  "下去": 2887, 
  "Q": 2888, 
  "二零零二年": 2889, 
  "in@@": 2890, 
  "全国人大": 2891, 
  "恍": 2892, 
  "歌": 2893, 
  "报名": 2894, 
  "矛盾": 2895, 
  "被告人": 2896, 
  "游": 2897, 
  "接@@": 2898, 
  "文本": 2899, 
  "一件": 2900, 
  "观点": 2901, 
  "38": 2902, 
  "26@@": 2903, 
  "仲裁": 2904, 
  "德国": 2905, 
  "错": 2906, 
  "F@@": 2907, 
  "核心": 2908, 
  "将军澳": 2909, 
  "容量": 2910, 
  "落@@": 2911, 
  "一如": 2912, 
  "用户": 2913, 
  "秩序": 2914, 
  "责": 2915, 
  "双边": 2916, 
  "永": 2917, 
  "本部": 2918, 
  "集": 2919, 
  "I@@": 2920, 
  "原来": 2921, 
  "乃": 2922, 
  "做到": 2923, 
  "十六": 2924, 
  "不受": 2925, 
  "引进": 2926, 
  "股": 2927, 
  "辅助": 2928, 
  "冲突": 2929, 
  "回收": 2930, 
  "足": 2931, 
  "贯彻": 2932, 
  "D": 2933, 
  "六月": 2934, 
  "主张": 2935, 
  "通@@": 2936, 
  "常务": 2937, 
  "坊": 2938, 
  "兵": 2939, 
  "34": 2940, 
  "增幅": 2941, 
  "距离": 2942, 
  "农村": 2943, 
  "不单": 2944, 
  "身份": 2945, 
  "(g)": 2946, 
  "连续": 2947, 
  "施加": 2948, 
  "毕业": 2949, 
  "游客": 2950, 
  "证人": 2951, 
  "存放": 2952, 
  "籍": 2953, 
  "玉": 2954, 
  "海上": 2955, 
  "十三": 2956, 
  "指导": 2957, 
  "f@@": 2958, 
  "讨": 2959, 
  "署理": 2960, 
  "木@@": 2961, 
  "音": 2962, 
  "保存": 2963, 
  "商会": 2964, 
  "北角": 2965, 
  "交换": 2966, 
  "皆": 2967, 
  "100": 2968, 
  "百分之@@": 2969, 
  "善": 2970, 
  "孆": 2971, 
  "2000年": 2972, 
  "知悉": 2973, 
  "五月": 2974, 
  "入@@": 2975, 
  "增值": 2976, 
  "冯": 2977, 
  "诊所": 2978, 
  "截": 2979, 
  "六十": 2980, 
  "七月": 2981, 
  "九月": 2982, 
  "坐": 2983, 
  "16@@": 2984, 
  "清洗": 2985, 
  "喜": 2986, 
  "几个": 2987, 
  "初": 2988, 
  "八时": 2989, 
  "第一次": 2990, 
  "众": 2991, 
  "青@@": 2992, 
  "大力": 2993, 
  "韩国": 2994, 
  "软件": 2995, 
  "确认": 2996, 
  "夫": 2997, 
  "交@@": 2998, 
  "兼": 2999, 
  "仁": 3000, 
  "劳资": 3001, 
  "港币": 3002, 
  "付诸": 3003, 
  "一天": 3004, 
  "法@@": 3005, 
  "(S)": 3006, 
  "人力": 3007, 
  "私家车": 3008, 
  "飞": 3009, 
  "家人": 3010, 
  "克@@": 3011, 
  "发布": 3012, 
  "嘉宾": 3013, 
  "总数": 3014, 
  "商讨": 3015, 
  "标记": 3016, 
  "高层": 3017, 
  "二零零二年@@": 3018, 
  "愿": 3019, 
  "佛": 3020, 
  "夜": 3021, 
  "原@@": 3022, 
  "券": 3023, 
  "指挥": 3024, 
  "讲座": 3025, 
  "利润": 3026, 
  "拆": 3027, 
  "防御": 3028, 
  "解": 3029, 
  "输": 3030, 
  "37": 3031, 
  "渔": 3032, 
  "被告": 3033, 
  "路边": 3034, 
  "归": 3035, 
  "含": 3036, 
  "一时": 3037, 
  "雄": 3038, 
  "近期": 3039, 
  "门@@": 3040, 
  "步": 3041, 
  "目": 3042, 
  "数额": 3043, 
  "近年": 3044, 
  "维": 3045, 
  "采": 3046, 
  "桥": 3047, 
  "审核": 3048, 
  "支出": 3049, 
  "y": 3050, 
  "为主": 3051, 
  "电@@": 3052, 
  "这一点": 3053, 
  "缓": 3054, 
  "营业": 3055, 
  "拿": 3056, 
  "工会": 3057, 
  "可惜": 3058, 
  "味": 3059, 
  "支": 3060, 
  "随即": 3061, 
  "药": 3062, 
  "看看": 3063, 
  "庆祝": 3064, 
  "早前": 3065, 
  "二零零零年@@": 3066, 
  "号码": 3067, 
  "降低": 3068, 
  "剧": 3069, 
  "切实": 3070, 
  "全力": 3071, 
  "低@@": 3072, 
  "阔": 3073, 
  "友": 3074, 
  "4.@@": 3075, 
  "先后": 3076, 
  "故": 3077, 
  "盛": 3078, 
  "阿@@": 3079, 
  "(@@": 3080, 
  "纽约": 3081, 
  "如@@": 3082, 
  "文学": 3083, 
  "循": 3084, 
  "议事": 3085, 
  "经费": 3086, 
  "渠道": 3087, 
  "幼稚园": 3088, 
  "出生": 3089, 
  "负责人": 3090, 
  "何时": 3091, 
  "防火": 3092, 
  "很难": 3093, 
  "政府发言人": 3094, 
  "一家": 3095, 
  "地产": 3096, 
  "切实可行": 3097, 
  "职工": 3098, 
  "照": 3099, 
  "脚": 3100, 
  "父亲": 3101, 
  "合@@": 3102, 
  "少数": 3103, 
  "三个代表": 3104, 
  "转口货": 3105, 
  "搞": 3106, 
  "居屋": 3107, 
  "17@@": 3108, 
  "标": 3109, 
  "到@@": 3110, 
  "仍有": 3111, 
  "继": 3112, 
  "质疑": 3113, 
  "大致": 3114, 
  "卫星": 3115, 
  "巴@@": 3116, 
  "三千@@": 3117, 
  "文明": 3118, 
  "经历": 3119, 
  "不知": 3120, 
  "壁": 3121, 
  "坚决": 3122, 
  "透露": 3123, 
  "宽": 3124, 
  "家禽": 3125, 
  "繁忙": 3126, 
  "西区": 3127, 
  "促请": 3128, 
  "作战": 3129, 
  "毫米": 3130, 
  "开幕": 3131, 
  "定额": 3132, 
  "进程": 3133, 
  "薪金": 3134, 
  "华@@": 3135, 
  "私": 3136, 
  "审批": 3137, 
  "R@@": 3138, 
  "搜集": 3139, 
  "选区": 3140, 
  "学术": 3141, 
  "车@@": 3142, 
  "0.@@": 3143, 
  "改进": 3144, 
  "婚姻": 3145, 
  "冲击": 3146, 
  "侵犯": 3147, 
  "大使": 3148, 
  "一千@@": 3149, 
  "24@@": 3150, 
  "承办": 3151, 
  "落案": 3152, 
  "急": 3153, 
  "居留权": 3154, 
  "为@@": 3155, 
  "久": 3156, 
  "文书": 3157, 
  "公会": 3158, 
  "基地": 3159, 
  "容": 3160, 
  "邮政局": 3161, 
  "贤": 3162, 
  "四十@@": 3163, 
  "领": 3164, 
  "注": 3165, 
  "一场": 3166, 
  "零售": 3167, 
  "口@@": 3168, 
  "智": 3169, 
  "欣赏": 3170, 
  "相应": 3171, 
  "永远": 3172, 
  "税务": 3173, 
  "街市": 3174, 
  "出口货": 3175, 
  "停": 3176, 
  "分享": 3177, 
  "36": 3178, 
  "厅": 3179, 
  "点@@": 3180, 
  "鎔": 3181, 
  "均可": 3182, 
  "清晰": 3183, 
  "斯@@": 3184, 
  "去年@@": 3185, 
  "立@@": 3186, 
  "里@@": 3187, 
  "N@@": 3188, 
  "深刻": 3189, 
  "国防": 3190, 
  "应当": 3191, 
  "心理": 3192, 
  "革命": 3193, 
  "堆": 3194, 
  "2%": 3195, 
  "公里": 3196, 
  "月份": 3197, 
  "党@@": 3198, 
  "所在": 3199, 
  "汇率": 3200, 
  "八月": 3201, 
  "承": 3202, 
  "谢谢": 3203, 
  "幺": 3204, 
  "泥": 3205, 
  "失踪": 3206, 
  "草": 3207, 
  "街道": 3208, 
  "包": 3209, 
  "5.@@": 3210, 
  "集体": 3211, 
  "当@@": 3212, 
  "股票": 3213, 
  "交付": 3214, 
  "反而": 3215, 
  "撞": 3216, 
  "1990年": 3217, 
  "百@@": 3218, 
  "训": 3219, 
  "层面": 3220, 
  "顿": 3221, 
  "农": 3222, 
  "13@@": 3223, 
  "宜": 3224, 
  "细节": 3225, 
  "自我": 3226, 
  "基本上": 3227, 
  "优秀": 3228, 
  "大大": 3229, 
  "海洋": 3230, 
  "料": 3231, 
  "进度": 3232, 
  "童": 3233, 
  "传@@": 3234, 
  "落成": 3235, 
  "签发": 3236, 
  "诗": 3237, 
  "动@@": 3238, 
  "财": 3239, 
  "一半": 3240, 
  "五百@@": 3241, 
  "售": 3242, 
  "劳动": 3243, 
  "吴@@": 3244, 
  "不到": 3245, 
  "首长": 3246, 
  "叫": 3247, 
  "氏": 3248, 
  "呈请": 3249, 
  "巡查": 3250, 
  "每一个": 3251, 
  "球": 3252, 
  "女@@": 3253, 
  "(iv)": 3254, 
  "读者": 3255, 
  "出示": 3256, 
  "必然": 3257, 
  "re@@": 3258, 
  "依照": 3259, 
  "典型": 3260, 
  "调@@": 3261, 
  "教署": 3262, 
  "乱": 3263, 
  "失业率": 3264, 
  "债务": 3265, 
  "二000年": 3266, 
  "这位": 3267, 
  "传票": 3268, 
  "经营者": 3269, 
  "国外": 3270, 
  "显然": 3271, 
  "小时": 3272, 
  "14@@": 3273, 
  "高科技": 3274, 
  "6.@@": 3275, 
  "素": 3276, 
  "航": 3277, 
  "再度": 3278, 
  "患": 3279, 
  "听到": 3280, 
  "关@@": 3281, 
  "社会保障": 3282, 
  "d": 3283, 
  "胜": 3284, 
  "体现": 3285, 
  "失去": 3286, 
  "健": 3287, 
  "很好": 3288, 
  "水管": 3289, 
  "一九九六年": 3290, 
  "径": 3291, 
  "原本": 3292, 
  "红旗": 3293, 
  "植物": 3294, 
  "好处": 3295, 
  "失@@": 3296, 
  "年轻": 3297, 
  "退休金": 3298, 
  "3%": 3299, 
  "飞行": 3300, 
  "联盟": 3301, 
  "机遇": 3302, 
  "淑怡": 3303, 
  "周梁": 3304, 
  "战@@": 3305, 
  "红@@": 3306, 
  "必": 3307, 
  "时间表": 3308, 
  "1991年": 3309, 
  "李登辉": 3310, 
  "裁": 3311, 
  "聘请": 3312, 
  "一方面": 3313, 
  "减轻": 3314, 
  "伟": 3315, 
  "移": 3316, 
  "若干": 3317, 
  "燃油": 3318, 
  "传播": 3319, 
  "贩毒": 3320, 
  "影": 3321, 
  "唱": 3322, 
  "时刻": 3323, 
  "换": 3324, 
  "办公": 3325, 
  "葵涌": 3326, 
  "丁": 3327, 
  "学@@": 3328, 
  "千@@": 3329, 
  "名义": 3330, 
  "评论": 3331, 
  "自由党": 3332, 
  "贵": 3333, 
  "大屿山": 3334, 
  "典礼": 3335, 
  "吧": 3336, 
  "部署": 3337, 
  "磋商": 3338, 
  "43": 3339, 
  "1998年@@": 3340, 
  "声称": 3341, 
  "供应商": 3342, 
  "路@@": 3343, 
  "招标": 3344, 
  "30@@": 3345, 
  "情形": 3346, 
  "联会": 3347, 
  "钟": 3348, 
  "39": 3349, 
  "仍在": 3350, 
  "卢": 3351, 
  "界定": 3352, 
  "r@@": 3353, 
  "分类": 3354, 
  "寻找": 3355, 
  "油麻地": 3356, 
  "泰": 3357, 
  "储": 3358, 
  "母亲": 3359, 
  "来@@": 3360, 
  "48": 3361, 
  "朝鲜": 3362, 
  "谷": 3363, 
  "v@@": 3364, 
  "之内": 3365, 
  "面@@": 3366, 
  "各自": 3367, 
  "n@@": 3368, 
  "陈水扁": 3369, 
  "此次": 3370, 
  "舞蹈": 3371, 
  "医学": 3372, 
  "三月": 3373, 
  "扣留": 3374, 
  "宝贵": 3375, 
  "民@@": 3376, 
  "相反": 3377, 
  "声音": 3378, 
  "威": 3379, 
  "碱": 3380, 
  "高达": 3381, 
  "手法": 3382, 
  "卅": 3383, 
  "社会上": 3384, 
  "或者": 3385, 
  "六百@@": 3386, 
  "农@@": 3387, 
  "8%": 3388, 
  "尤": 3389, 
  "各级": 3390, 
  "信贷": 3391, 
  "品质": 3392, 
  "高等": 3393, 
  "比@@": 3394, 
  "牛": 3395, 
  "工程师": 3396, 
  "技能": 3397, 
  "起诉": 3398, 
  "排": 3399, 
  "场所": 3400, 
  "欧盟": 3401, 
  "多种": 3402, 
  "45": 3403, 
  "方@@": 3404, 
  "五时": 3405, 
  "敦": 3406, 
  "年中": 3407, 
  "天文台": 3408, 
  "飞@@": 3409, 
  "分为": 3410, 
  "过境": 3411, 
  "实@@": 3412, 
  "受惠": 3413, 
  "救": 3414, 
  "随后": 3415, 
  "北@@": 3416, 
  "作@@": 3417, 
  "总结": 3418, 
  "故此": 3419, 
  "现金": 3420, 
  "授予": 3421, 
  "其次": 3422, 
  "袋": 3423, 
  "推@@": 3424, 
  "O@@": 3425, 
  "甲板": 3426, 
  "灭": 3427, 
  "习惯": 3428, 
  "安置": 3429, 
  "零售业": 3430, 
  "哪些": 3431, 
  "永久": 3432, 
  "深@@": 3433, 
  "压": 3434, 
  "1984年": 3435, 
  "力@@": 3436, 
  "干@@": 3437, 
  "连@@": 3438, 
  "全球化": 3439, 
  "往来": 3440, 
  "在@@": 3441, 
  "庆": 3442, 
  "嘉": 3443, 
  "验": 3444, 
  "伯": 3445, 
  "赛马": 3446, 
  "走私": 3447, 
  "船长": 3448, 
  "果": 3449, 
  "说@@": 3450, 
  "翌日": 3451, 
  "标签": 3452, 
  "征询": 3453, 
  "原有": 3454, 
  "孙": 3455, 
  "郊野": 3456, 
  "道@@": 3457, 
  "自愿": 3458, 
  "页": 3459, 
  "改革开放": 3460, 
  "一月": 3461, 
  "客观": 3462, 
  "同胞": 3463, 
  "技巧": 3464, 
  "势": 3465, 
  "母": 3466, 
  "举报": 3467, 
  "地政局": 3468, 
  "浸": 3469, 
  "答案": 3470, 
  "铜锣湾": 3471, 
  "栏": 3472, 
  "克林顿": 3473, 
  "记得": 3474, 
  "亲": 3475, 
  "国民": 3476, 
  "一九九八年@@": 3477, 
  "联@@": 3478, 
  "人大": 3479, 
  "行政局": 3480, 
  "症": 3481, 
  "放在": 3482, 
  "入口": 3483, 
  "不公平": 3484, 
  "香": 3485, 
  "报章": 3486, 
  "以至": 3487, 
  "命": 3488, 
  "申诉": 3489, 
  "二零零三年@@": 3490, 
  "改为": 3491, 
  "却是": 3492, 
  "雨": 3493, 
  "排@@": 3494, 
  "29@@": 3495, 
  "艇": 3496, 
  "弥": 3497, 
  "强制性": 3498, 
  "特定": 3499, 
  "提@@": 3500, 
  "海港": 3501, 
  "九七年": 3502, 
  "付出": 3503, 
  "乡村": 3504, 
  "适宜": 3505, 
  "热@@": 3506, 
  "契": 3507, 
  "欲": 3508, 
  "辆": 3509, 
  "其@@": 3510, 
  "复": 3511, 
  "1,@@": 3512, 
  "供水": 3513, 
  "深信": 3514, 
  "曲": 3515, 
  "文物": 3516, 
  "更新": 3517, 
  "造": 3518, 
  "受害人": 3519, 
  "杀": 3520, 
  "一九九七年@@": 3521, 
  "49": 3522, 
  "好象": 3523, 
  "44": 3524, 
  "步伐": 3525, 
  "6%": 3526, 
  "芮": 3527, 
  "41": 3528, 
  "结论": 3529, 
  "哪": 3530, 
  "结@@": 3531, 
  "年初": 3532, 
  "才是": 3533, 
  "档": 3534, 
  "精@@": 3535, 
  "民航": 3536, 
  "海岸": 3537, 
  "开设": 3538, 
  "上市": 3539, 
  "路政": 3540, 
  "室内": 3541, 
  "过渡": 3542, 
  "返": 3543, 
  "也许": 3544, 
  "正面": 3545, 
  "从@@": 3546, 
  "更好": 3547, 
  "月底": 3548, 
  "一张": 3549, 
  "轻": 3550, 
  "伟大": 3551, 
  "选举委员会": 3552, 
  "an@@": 3553, 
  "她们": 3554, 
  "分钟": 3555, 
  "讯号": 3556, 
  "突出": 3557, 
  "建筑工程": 3558, 
  "说话": 3559, 
  "议程": 3560, 
  "灵活": 3561, 
  "小贩": 3562, 
  "极为": 3563, 
  "体@@": 3564, 
  "成功的": 3565, 
  "学年": 3566, 
  "这里": 3567, 
  "谈到": 3568, 
  "扮演": 3569, 
  "替": 3570, 
  "列为": 3571, 
  "盓": 3572, 
  "杂志": 3573, 
  "奇": 3574, 
  "两间": 3575, 
  "装设": 3576, 
  "两种": 3577, 
  "II": 3578, 
  "志@@": 3579, 
  "警署": 3580, 
  "著名": 3581, 
  "人物": 3582, 
  "审讯": 3583, 
  "凭借": 3584, 
  "院长": 3585, 
  "1%": 3586, 
  "全世界": 3587, 
  "签订": 3588, 
  "严厉": 3589, 
  "神@@": 3590, 
  "阳": 3591, 
  "抵达": 3592, 
  "有可能": 3593, 
  "销": 3594, 
  "不变": 3595, 
  "试": 3596, 
  "二00一年": 3597, 
  "蚊": 3598, 
  "手续": 3599, 
  "书@@": 3600, 
  "尽早": 3601, 
  "美方": 3602, 
  "病@@": 3603, 
  "仪器": 3604, 
  "纾缓": 3605, 
  "液": 3606, 
  "康复": 3607, 
  "可见": 3608, 
  "地图": 3609, 
  "图片": 3610, 
  "节省": 3611, 
  "弱": 3612, 
  "较高": 3613, 
  "委任为": 3614, 
  "防@@": 3615, 
  "多谢": 3616, 
  "伊": 3617, 
  "有没有": 3618, 
  "毒": 3619, 
  "布@@": 3620, 
  "p": 3621, 
  "吃@@": 3622, 
  "安生": 3623, 
  "般": 3624, 
  "负债": 3625, 
  "陈方": 3626, 
  "s.@@": 3627, 
  "旅行": 3628, 
  "月至@@": 3629, 
  "独@@": 3630, 
  "粮食": 3631, 
  "富@@": 3632, 
  "言论": 3633, 
  "y@@": 3634, 
  "双@@": 3635, 
  "意思": 3636, 
  "中等": 3637, 
  "深圳": 3638, 
  "强@@": 3639, 
  "留下": 3640, 
  "走向": 3641, 
  "or@@": 3642, 
  "占用": 3643, 
  "疑问": 3644, 
  "核@@": 3645, 
  "略": 3646, 
  "转移": 3647, 
  "讲@@": 3648, 
  "梦": 3649, 
  "情@@": 3650, 
  "放宽": 3651, 
  "赴": 3652, 
  "水准": 3653, 
  "囚犯": 3654, 
  "外来": 3655, 
  "P": 3656, 
  "净": 3657, 
  "开办": 3658, 
  "危害": 3659, 
  "创意": 3660, 
  "章程": 3661, 
  "机器": 3662, 
  "亲自": 3663, 
  "外交部": 3664, 
  "终於": 3665, 
  "制@@": 3666, 
  "沙@@": 3667, 
  "二千@@": 3668, 
  "直@@": 3669, 
  "评定": 3670, 
  "丙": 3671, 
  "描述": 3672, 
  "理事会": 3673, 
  "of": 3674, 
  "十七": 3675, 
  "医护": 3676, 
  "代@@": 3677, 
  "亚@@": 3678, 
  "夫人": 3679, 
  "广东省": 3680, 
  "民意": 3681, 
  "42": 3682, 
  "会上": 3683, 
  "保@@": 3684, 
  "俄": 3685, 
  "坚": 3686, 
  "四千@@": 3687, 
  "辉": 3688, 
  "忧虑": 3689, 
  "共@@": 3690, 
  "交通工具": 3691, 
  "草拟": 3692, 
  "法律援助": 3693, 
  "格": 3694, 
  "市场经济": 3695, 
  "策划": 3696, 
  "公积金": 3697, 
  "阶层": 3698, 
  "已就": 3699, 
  "督察": 3700, 
  "削减": 3701, 
  "售价": 3702, 
  "锦": 3703, 
  "冻结": 3704, 
  "结": 3705, 
  "理@@": 3706, 
  "http": 3707, 
  "依然": 3708, 
  "er@@": 3709, 
  "尝试": 3710, 
  "表面": 3711, 
  "但却": 3712, 
  "附有": 3713, 
  "血@@": 3714, 
  "复@@": 3715, 
  "对@@": 3716, 
  "黑@@": 3717, 
  "选票": 3718, 
  "真@@": 3719, 
  "秘书处": 3720, 
  "纷纷": 3721, 
  "台北市": 3722, 
  "谢": 3723, 
  "床": 3724, 
  "赤": 3725, 
  "誓": 3726, 
  "思考": 3727, 
  "沉": 3728, 
  "督导": 3729, 
  "衣": 3730, 
  "格@@": 3731, 
  "气氛": 3732, 
  "专门": 3733, 
  "施": 3734, 
  "月@@": 3735, 
  "监测站": 3736, 
  "顾": 3737, 
  "认": 3738, 
  "累积": 3739, 
  "良": 3740, 
  "季节性": 3741, 
  "较大": 3742, 
  "情报": 3743, 
  "块": 3744, 
  "工@@": 3745, 
  "相等": 3746, 
  "未必": 3747, 
  "苦@@": 3748, 
  "苏": 3749, 
  "服务中心": 3750, 
  "人为": 3751, 
  "同学": 3752, 
  "汇报": 3753, 
  "疑": 3754, 
  "所属": 3755, 
  "共同努力": 3756, 
  "仔细": 3757, 
  "苦": 3758, 
  "组合": 3759, 
  "融资": 3760, 
  "二月": 3761, 
  "执照": 3762, 
  "五十@@": 3763, 
  "阅读": 3764, 
  "数年": 3765, 
  "庙": 3766, 
  "中小企业": 3767, 
  "大规模": 3768, 
  "工作人员": 3769, 
  "变@@": 3770, 
  "专用": 3771, 
  "娱乐": 3772, 
  "羁留": 3773, 
  "加工": 3774, 
  "配": 3775, 
  "不准": 3776, 
  "素质": 3777, 
  "大多数": 3778, 
  "报@@": 3779, 
  "满@@": 3780, 
  "立方米": 3781, 
  "完整": 3782, 
  "定@@": 3783, 
  "厘": 3784, 
  "春": 3785, 
  "身@@": 3786, 
  "少年": 3787, 
  "树@@": 3788, 
  "肉": 3789, 
  "运载": 3790, 
  "没有人": 3791, 
  "票价": 3792, 
  "刊": 3793, 
  "G": 3794, 
  "运@@": 3795, 
  "芬": 3796, 
  "应有": 3797, 
  "胡@@": 3798, 
  "苑": 3799, 
  "极大": 3800, 
  ",@@": 3801, 
  "校董会": 3802, 
  "1989年": 3803, 
  "两次": 3804, 
  "本月": 3805, 
  "影片": 3806, 
  "触犯": 3807, 
  "一连串": 3808, 
  "停@@": 3809, 
  "应@@": 3810, 
  "端": 3811, 
  "先@@": 3812, 
  "40@@": 3813, 
  "居所": 3814, 
  "长度": 3815, 
  "活力": 3816, 
  "会@@": 3817, 
  "五万": 3818, 
  "评价": 3819, 
  "拍": 3820, 
  "质量": 3821, 
  "请求": 3822, 
  "邦": 3823, 
  "列入": 3824, 
  "时限": 3825, 
  "500": 3826, 
  "八十": 3827, 
  "包装": 3828, 
  "数@@": 3829, 
  "作业": 3830, 
  "控告": 3831, 
  "2,@@": 3832, 
  "中华民国": 3833, 
  "大会堂": 3834, 
  "一九九五年": 3835, 
  "声@@": 3836, 
  "不想": 3837, 
  "教@@": 3838, 
  "一一": 3839, 
  "某人": 3840, 
  "恰当": 3841, 
  "人力资源": 3842, 
  "二十五": 3843, 
  "追求": 3844, 
  "邪教": 3845, 
  "基因": 3846, 
  "人生": 3847, 
  "w@@": 3848, 
  "三合会": 3849, 
  "展出": 3850, 
  "补": 3851, 
  "成了": 3852, 
  "突破": 3853, 
  "讯息": 3854, 
  "加价": 3855, 
  "感觉": 3856, 
  "创": 3857, 
  "债权人": 3858, 
  "月十八日": 3859, 
  "到底": 3860, 
  "烟花": 3861, 
  "障碍": 3862, 
  "al": 3863, 
  "1997年@@": 3864, 
  "进出口": 3865, 
  "玩": 3866, 
  "上限": 3867, 
  ",000": 3868, 
  "自杀": 3869, 
  "经由": 3870, 
  "允许": 3871, 
  "车位": 3872, 
  "航空公司": 3873, 
  "陆续": 3874, 
  "求职": 3875, 
  "男女": 3876, 
  "皮": 3877, 
  "容器": 3878, 
  "摄影": 3879, 
  "2000": 3880, 
  "运输局": 3881, 
  "全年": 3882, 
  "名册": 3883, 
  "1999年@@": 3884, 
  "海员": 3885, 
  "一千": 3886, 
  "不利": 3887, 
  "简介": 3888, 
  "后果": 3889, 
  "游行": 3890, 
  "4%": 3891, 
  "无线电": 3892, 
  "52": 3893, 
  "世@@": 3894, 
  "尾": 3895, 
  "传真": 3896, 
  "年后": 3897, 
  "o": 3898, 
  "效力": 3899, 
  "专@@": 3900, 
  "深水": 3901, 
  "退@@": 3902, 
  "不在": 3903, 
  "初@@": 3904, 
  "(h)": 3905, 
  "乐团": 3906, 
  "仍是": 3907, 
  "科@@": 3908, 
  "发展商": 3909, 
  "总会": 3910, 
  "常委会": 3911, 
  "午": 3912, 
  "应变": 3913, 
  "一事": 3914, 
  "见@@": 3915, 
  "一带": 3916, 
  "ar@@": 3917, 
  "磡": 3918, 
  "总裁": 3919, 
  "主导": 3920, 
  "量度": 3921, 
  "多人": 3922, 
  "扩": 3923, 
  "篇": 3924, 
  "1987年": 3925, 
  "回到": 3926, 
  "刀": 3927, 
  "期待": 3928, 
  "伤害": 3929, 
  "采访": 3930, 
  "春@@": 3931, 
  "禧": 3932, 
  "撤回": 3933, 
  "微@@": 3934, 
  "1988年": 3935, 
  "廉政": 3936, 
  "涵义": 3937, 
  "泰国": 3938, 
  "愈": 3939, 
  "余下": 3940, 
  "干扰": 3941, 
  "评": 3942, 
  "演习": 3943, 
  "生物": 3944, 
  "独": 3945, 
  "祥": 3946, 
  "59": 3947, 
  "泉": 3948, 
  "化@@": 3949, 
  "早在": 3950, 
  "质": 3951, 
  "待遇": 3952, 
  "潜力": 3953, 
  "刺激": 3954, 
  "急@@": 3955, 
  "隔": 3956, 
  "实力": 3957, 
  "两条": 3958, 
  "视察": 3959, 
  "友谊": 3960, 
  "机@@": 3961, 
  "提议": 3962, 
  "与其": 3963, 
  "早日": 3964, 
  "团结": 3965, 
  "宪法": 3966, 
  "柜": 3967, 
  "业者": 3968, 
  "虫": 3969, 
  "月十七日": 3970, 
  "46": 3971, 
  "担当": 3972, 
  "冲": 3973, 
  "何@@": 3974, 
  "政府机构": 3975, 
  "宁": 3976, 
  "账": 3977, 
  "又是": 3978, 
  "动用": 3979, 
  "五千@@": 3980, 
  "而已": 3981, 
  "董": 3982, 
  "子@@": 3983, 
  "准确": 3984, 
  "规范": 3985, 
  "秀": 3986, 
  "十九": 3987, 
  "热烈": 3988, 
  "昌": 3989, 
  "业内": 3990, 
  "道德": 3991, 
  "发展中国家": 3992, 
  "一部": 3993, 
  "杨@@": 3994, 
  "分子": 3995, 
  "期内": 3996, 
  "要@@": 3997, 
  "以免": 3998, 
  "卡@@": 3999, 
  "身分证": 4000, 
  "多位": 4001, 
  "守": 4002, 
  "差距": 4003, 
  "有信心": 4004, 
  "球场": 4005, 
  "截止": 4006, 
  "此等": 4007, 
  "54": 4008, 
  "投@@": 4009, 
  "助": 4010, 
  "不满": 4011, 
  "密": 4012, 
  "导": 4013, 
  "凭": 4014, 
  "登": 4015, 
  "全日制": 4016, 
  "常规": 4017, 
  "安老院": 4018, 
  "爱滋病": 4019, 
  "紧张": 4020, 
  "颇": 4021, 
  "考虑到": 4022, 
  "监狱": 4023, 
  "受@@": 4024, 
  "接收": 4025, 
  "信@@": 4026, 
  "清理": 4027, 
  "就要": 4028, 
  "ing": 4029, 
  "规格": 4030, 
  "工商界": 4031, 
  "吸烟": 4032, 
  "开拓": 4033, 
  "弹性": 4034, 
  "厂商": 4035, 
  "上半年": 4036, 
  "变得": 4037, 
  "学童": 4038, 
  "第六": 4039, 
  "航运": 4040, 
  "7.@@": 4041, 
  "改@@": 4042, 
  "直": 4043, 
  "宗旨": 4044, 
  "民生": 4045, 
  "判处": 4046, 
  "恐怕": 4047, 
  "落马洲": 4048, 
  "购": 4049, 
  "激烈": 4050, 
  "行程": 4051, 
  "对抗": 4052, 
  "迪": 4053, 
  "美军": 4054, 
  "有待": 4055, 
  "探索": 4056, 
  "言@@": 4057, 
  "委托": 4058, 
  "百分之二十@@": 4059, 
  "七千@@": 4060, 
  "公吨": 4061, 
  "埗": 4062, 
  "痛": 4063, 
  "转型": 4064, 
  "公安": 4065, 
  "冲@@": 4066, 
  "时四十五分": 4067, 
  "多名": 4068, 
  "生意": 4069, 
  "独特": 4070, 
  "加大": 4071, 
  "搭": 4072, 
  "洪": 4073, 
  "经济@@": 4074, 
  "进@@": 4075, 
  "有时": 4076, 
  "代价": 4077, 
  "不了": 4078, 
  "两个月": 4079, 
  "万元": 4080, 
  "获取": 4081, 
  "枪": 4082, 
  "不大": 4083, 
  "健全": 4084, 
  "众多": 4085, 
  "租户": 4086, 
  "听@@": 4087, 
  "迎接": 4088, 
  "不用": 4089, 
  "管辖": 4090, 
  "七百@@": 4091, 
  "遗产": 4092, 
  "一日": 4093, 
  "航行": 4094, 
  "一并": 4095, 
  "月二十九日": 4096, 
  "丧失": 4097, 
  "回来": 4098, 
  "突击": 4099, 
  "形容": 4100, 
  "念": 4101, 
  "血": 4102, 
  "破@@": 4103, 
  "首要": 4104, 
  "红潮": 4105, 
  "迁": 4106, 
  "台@@": 4107, 
  "化学": 4108, 
  "必定": 4109, 
  "庭": 4110, 
  "缩短": 4111, 
  "龄": 4112, 
  "走@@": 4113, 
  "中国共产党": 4114, 
  "六十@@": 4115, 
  "仔": 4116, 
  "详": 4117, 
  "编": 4118, 
  "委员长": 4119, 
  "等候": 4120, 
  "珠": 4121, 
  "赌博": 4122, 
  "前一年": 4123, 
  "天桥": 4124, 
  "昨天": 4125, 
  "盈余": 4126, 
  "考": 4127, 
  "饮食": 4128, 
  "镇": 4129, 
  "阻": 4130, 
  "1986年": 4131, 
  "不多": 4132, 
  "七十": 4133, 
  "51": 4134, 
  "恩": 4135, 
  "尼@@": 4136, 
  "台商": 4137, 
  "聘": 4138, 
  "7%": 4139, 
  "梁智鸿": 4140, 
  "政务": 4141, 
  "龙@@": 4142, 
  "经@@": 4143, 
  "本来": 4144, 
  "吓": 4145, 
  "与此同时": 4146, 
  "电视台": 4147, 
  "招聘": 4148, 
  "圣": 4149, 
  "删除": 4150, 
  "劫": 4151, 
  "取@@": 4152, 
  "通往": 4153, 
  "复苏": 4154, 
  "答辩": 4155, 
  "例外": 4156, 
  "早已": 4157, 
  "交往": 4158, 
  "55": 4159, 
  "工作者": 4160, 
  "赛": 4161, 
  "警@@": 4162, 
  "深化": 4163, 
  "鼓舞": 4164, 
  "步骤": 4165, 
  "身为": 4166, 
  "任命": 4167, 
  "离岛": 4168, 
  "75": 4169, 
  "月二十三日": 4170, 
  "T": 4171, 
  "慈善": 4172, 
  "十万": 4173, 
  "想法": 4174, 
  "伪造": 4175, 
  "摊位": 4176, 
  "使得": 4177, 
  "k@@": 4178, 
  "五千": 4179, 
  "月五日": 4180, 
  "都市": 4181, 
  "理念": 4182, 
  "远@@": 4183, 
  "外籍": 4184, 
  "邮递": 4185, 
  "七十@@": 4186, 
  "促使": 4187, 
  "发送": 4188, 
  "铁@@": 4189, 
  "65": 4190, 
  "备有": 4191, 
  "53": 4192, 
  "中医": 4193, 
  "社团": 4194, 
  "殖民地": 4195, 
  "口头": 4196, 
  "银行业": 4197, 
  "废气": 4198, 
  "中医药": 4199, 
  "商贸": 4200, 
  "谈话": 4201, 
  "游乐场": 4202, 
  "名额": 4203, 
  "二00二年": 4204, 
  "参加者": 4205, 
  "葵": 4206, 
  "·": 4207, 
  "议席": 4208, 
  "家属": 4209, 
  "强大": 4210, 
  "扬": 4211, 
  "毕业生": 4212, 
  "工场": 4213, 
  "府": 4214, 
  "签": 4215, 
  "灵": 4216, 
  "第二次": 4217, 
  "遗憾": 4218, 
  "流行": 4219, 
  "改造": 4220, 
  "评核": 4221, 
  "申报": 4222, 
  "紧": 4223, 
  "夏": 4224, 
  "举手": 4225, 
  "管道": 4226, 
  "库务局": 4227, 
  "颁发": 4228, 
  "公署": 4229, 
  "立法机关": 4230, 
  "at@@": 4231, 
  "边境": 4232, 
  "怕": 4233, 
  "研究所": 4234, 
  "携带": 4235, 
  "恶": 4236, 
  "一座": 4237, 
  "纠纷": 4238, 
  "刘慧卿": 4239, 
  "中东": 4240, 
  "罚": 4241, 
  "赞助": 4242, 
  "失": 4243, 
  "瑞": 4244, 
  "合共": 4245, 
  "优良": 4246, 
  "三百": 4247, 
  "人事": 4248, 
  "领导干部": 4249, 
  "贮存": 4250, 
  "1985年": 4251, 
  "大浪": 4252, 
  "渔农处": 4253, 
  "梅": 4254, 
  "月十三日": 4255, 
  "竹": 4256, 
  "返回": 4257, 
  "延": 4258, 
  "几年": 4259, 
  "暂": 4260, 
  "田@@": 4261, 
  "细": 4262, 
  "不好": 4263, 
  "船上": 4264, 
  "合格": 4265, 
  "确立": 4266, 
  "切勿": 4267, 
  "爆炸": 4268, 
  "恒": 4269, 
  "8.@@": 4270, 
  "K@@": 4271, 
  ".@@": 4272, 
  "庄": 4273, 
  "真是": 4274, 
  "器具": 4275, 
  "及时": 4276, 
  "一片": 4277, 
  "损": 4278, 
  "机动": 4279, 
  "解决问题": 4280, 
  "停泊": 4281, 
  "填写": 4282, 
  "小册子": 4283, 
  "月三日": 4284, 
  "妥": 4285, 
  "条约": 4286, 
  "重复": 4287, 
  "演讲": 4288, 
  "初期": 4289, 
  "人次": 4290, 
  "有一些": 4291, 
  "赖": 4292, 
  "划分": 4293, 
  "工商局": 4294, 
  "重量": 4295, 
  "总是": 4296, 
  "鸭": 4297, 
  "广东": 4298, 
  "治安": 4299, 
  "坤": 4300, 
  "草@@": 4301, 
  "妈妈": 4302, 
  "汇": 4303, 
  "二十一世纪": 4304, 
  "参阅": 4305, 
  "采纳": 4306, 
  "荷兰": 4307, 
  "必需": 4308, 
  "陈婉娴": 4309, 
  "二十四": 4310, 
  "示范": 4311, 
  "母语": 4312, 
  "缘": 4313, 
  "指@@": 4314, 
  "入住": 4315, 
  "照片": 4316, 
  "波@@": 4317, 
  "56": 4318, 
  "看见": 4319, 
  "9%": 4320, 
  "留在": 4321, 
  "致命": 4322, 
  "一万@@": 4323, 
  "驳": 4324, 
  "车站": 4325, 
  "享受": 4326, 
  "国人": 4327, 
  "未获": 4328, 
  "遇": 4329, 
  "结婚": 4330, 
  "马克思主义": 4331, 
  "货运": 4332, 
  "把握": 4333, 
  "见到": 4334, 
  "情绪": 4335, 
  "月一日": 4336, 
  "数位": 4337, 
  "惩罚": 4338, 
  "儿子": 4339, 
  "国民党": 4340, 
  "今晚": 4341, 
  "猪": 4342, 
  "月二十一日": 4343, 
  "银": 4344, 
  "非洲": 4345, 
  "二百": 4346, 
  "横": 4347, 
  "月初": 4348, 
  "幕": 4349, 
  "局面": 4350, 
  "培育": 4351, 
  "港府": 4352, 
  "大小": 4353, 
  "务求": 4354, 
  "~": 4355, 
  "微": 4356, 
  "中央政府": 4357, 
  "化验": 4358, 
  "有效期": 4359, 
  "保育": 4360, 
  "下载": 4361, 
  "印刷": 4362, 
  "石油": 4363, 
  "不够": 4364, 
  "状态": 4365, 
  "证券公司": 4366, 
  "五百": 4367, 
  "长沙湾": 4368, 
  "外资": 4369, 
  "增设": 4370, 
  "而又": 4371, 
  "环节": 4372, 
  "无疑": 4373, 
  "集邮": 4374, 
  "局势": 4375, 
  "谋": 4376, 
  "男性": 4377, 
  "胡": 4378, 
  "此事": 4379, 
  "近日": 4380, 
  "新年": 4381, 
  "重组": 4382, 
  "保释": 4383, 
  "忠": 4384, 
  "前进": 4385, 
  "推荐": 4386, 
  "36@@": 4387, 
  "出发": 4388, 
  "不久": 4389, 
  "多元化": 4390, 
  "英@@": 4391, 
  "如欲": 4392, 
  "相比": 4393, 
  "61": 4394, 
  "李卓人": 4395, 
  "加深": 4396, 
  "申请书": 4397, 
  "预@@": 4398, 
  "现阶段": 4399, 
  "循环": 4400, 
  "成熟": 4401, 
  "一同": 4402, 
  "服": 4403, 
  "删去": 4404, 
  "当选": 4405, 
  "进修": 4406, 
  "吕": 4407, 
  "月八日": 4408, 
  "c.@@": 4409, 
  "月二十七日": 4410, 
  "民事": 4411, 
  "特点": 4412, 
  "带领": 4413, 
  "创业": 4414, 
  "月九日": 4415, 
  "沉@@": 4416, 
  "一支": 4417, 
  "is@@": 4418, 
  "升降机": 4419, 
  "塔": 4420, 
  "欧": 4421, 
  "生存": 4422, 
  "机电工程": 4423, 
  "搜": 4424, 
  "200": 4425, 
  "在职": 4426, 
  "二十一": 4427, 
  "多数": 4428, 
  "建@@": 4429, 
  "书记": 4430, 
  "3个": 4431, 
  "异": 4432, 
  "二000年@@": 4433, 
  "保险人": 4434, 
  "求@@": 4435, 
  "齐": 4436, 
  "蓝": 4437, 
  "中华民族": 4438, 
  "合办": 4439, 
  "夏佳理": 4440, 
  "青山": 4441, 
  "扣除": 4442, 
  "麦": 4443, 
  "销货": 4444, 
  "芳": 4445, 
  "O": 4446, 
  "月六日": 4447, 
  "慢": 4448, 
  "受助": 4449, 
  "200@@": 4450, 
  "抓": 4451, 
  "梁耀忠": 4452, 
  "亮": 4453, 
  "吉@@": 4454, 
  "启": 4455, 
  "提起": 4456, 
  "76": 4457, 
  "黎": 4458, 
  "汉@@": 4459, 
  "彼此": 4460, 
  "爱@@": 4461, 
  "通胀": 4462, 
  "韩": 4463, 
  "二万@@": 4464, 
  "治理": 4465, 
  "死@@": 4466, 
  "大多": 4467, 
  "日前": 4468, 
  "宿舍": 4469, 
  "58": 4470, 
  "水量": 4471, 
  "简化": 4472, 
  "小孩": 4473, 
  "通告": 4474, 
  "凌晨": 4475, 
  "社会服务": 4476, 
  "放置": 4477, 
  "农历": 4478, 
  "洋": 4479, 
  "武": 4480, 
  "月七日": 4481, 
  "很快": 4482, 
  "船@@": 4483, 
  "90": 4484, 
  "福@@": 4485, 
  "W@@": 4486, 
  "肺炎": 4487, 
  "去世": 4488, 
  "隆": 4489, 
  "宫": 4490, 
  "尸体": 4491, 
  "三十八": 4492, 
  "应否": 4493, 
  "税率": 4494, 
  "队员": 4495, 
  "现任": 4496, 
  "干线": 4497, 
  "当事人": 4498, 
  "含有": 4499, 
  "时十五分": 4500, 
  "抵港": 4501, 
  "力度": 4502, 
  "台湾人": 4503, 
  "中期": 4504, 
  "on@@": 4505, 
  "99": 4506, 
  "东南亚": 4507, 
  "从来": 4508, 
  "副@@": 4509, 
  "冰": 4510, 
  "色情": 4511, 
  "商人": 4512, 
  "00@@": 4513, 
  "泵": 4514, 
  "字@@": 4515, 
  "H": 4516, 
  "施政": 4517, 
  "妨碍": 4518, 
  "中国大陆": 4519, 
  "功@@": 4520, 
  "欠": 4521, 
  "摘要": 4522, 
  "向@@": 4523, 
  "更换": 4524, 
  "金融中心": 4525, 
  "钱其琛": 4526, 
  "地面": 4527, 
  "试@@": 4528, 
  "差不多": 4529, 
  "储存": 4530, 
  "上水": 4531, 
  "印制": 4532, 
  "集会": 4533, 
  "绿化": 4534, 
  "拟议": 4535, 
  "判断": 4536, 
  "解@@": 4537, 
  "丰": 4538, 
  "来到": 4539, 
  "引发": 4540, 
  "遭受": 4541, 
  "否决": 4542, 
  "解除": 4543, 
  "四月一日": 4544, 
  "赞赏": 4545, 
  "没收": 4546, 
  "太多": 4547, 
  "交回": 4548, 
  "江主席": 4549, 
  "意愿": 4550, 
  "维@@": 4551, 
  "养@@": 4552, 
  "洛": 4553, 
  "暴力": 4554, 
  "水塘": 4555, 
  "向前": 4556, 
  "九百@@": 4557, 
  "得奖": 4558, 
  "环境卫生": 4559, 
  "布置": 4560, 
  "月十五日": 4561, 
  "195@@": 4562, 
  "月二十六日": 4563, 
  "太平洋": 4564, 
  "九龙城": 4565, 
  "阻止": 4566, 
  "旗": 4567, 
  "定居": 4568, 
  "上年": 4569, 
  "延续": 4570, 
  "零点一": 4571, 
  "决议案": 4572, 
  "数码港": 4573, 
  "顺": 4574, 
  "古迹": 4575, 
  "盘": 4576, 
  "回顾": 4577, 
  "空运": 4578, 
  "es": 4579, 
  "预留": 4580, 
  "押": 4581, 
  "森": 4582, 
  "对本": 4583, 
  "画@@": 4584, 
  "倒@@": 4585, 
  "乐@@": 4586, 
  "年报": 4587, 
  "股东": 4588, 
  "耀": 4589, 
  "当天": 4590, 
  "NMD": 4591, 
  "约@@": 4592, 
  "舆论": 4593, 
  "商船": 4594, 
  "考验": 4595, 
  "离境": 4596, 
  "直到": 4597, 
  "测量": 4598, 
  "F": 4599, 
  "找出": 4600, 
  "害": 4601, 
  "范": 4602, 
  "水警": 4603, 
  "柱": 4604, 
  "青衣": 4605, 
  "贴": 4606, 
  "土@@": 4607, 
  "扣押": 4608, 
  "王永平": 4609, 
  "近@@": 4610, 
  "197@@": 4611, 
  "驶": 4612, 
  "事先": 4613, 
  "成分": 4614, 
  "野": 4615, 
  "座谈会": 4616, 
  "有必要": 4617, 
  "协商": 4618, 
  "哥": 4619, 
  "休憩": 4620, 
  "人民政府": 4621, 
  "鞋": 4622, 
  "切": 4623, 
  "兴@@": 4624, 
  "单@@": 4625, 
  "金融市场": 4626, 
  "斗": 4627, 
  "粤": 4628, 
  "每项": 4629, 
  "到达": 4630, 
  "合伙人": 4631, 
  "此举": 4632, 
  "70": 4633, 
  "al@@": 4634, 
  "遂": 4635, 
  "真实": 4636, 
  "大概": 4637, 
  "参选": 4638, 
  "立刻": 4639, 
  "医务": 4640, 
  "月二十五日": 4641, 
  "峰": 4642, 
  "墙": 4643, 
  "不可@@": 4644, 
  "谈谈": 4645, 
  "硬": 4646, 
  "酸": 4647, 
  "失败": 4648, 
  "资深": 4649, 
  "想@@": 4650, 
  "尽力": 4651, 
  "基金会": 4652, 
  "善用": 4653, 
  "骨": 4654, 
  "诚": 4655, 
  "海军": 4656, 
  "简易": 4657, 
  "97": 4658, 
  "枝": 4659, 
  "酌情": 4660, 
  "交汇": 4661, 
  "意@@": 4662, 
  "阵": 4663, 
  "前提": 4664, 
  "税收": 4665, 
  "综合症": 4666, 
  "右": 4667, 
  "莫": 4668, 
  "陈鉴": 4669, 
  "ac@@": 4670, 
  "坑": 4671, 
  "须要": 4672, 
  "装@@": 4673, 
  "主体": 4674, 
  "二时": 4675, 
  "廉": 4676, 
  "一百一@@": 4677, 
  "政协": 4678, 
  "邓": 4679, 
  "六千@@": 4680, 
  "油@@": 4681, 
  "多元": 4682, 
  "不应该": 4683, 
  "管@@": 4684, 
  "道理": 4685, 
  "分布": 4686, 
  "武@@": 4687, 
  "工程项目": 4688, 
  "一群": 4689, 
  "月四日": 4690, 
  "基准": 4691, 
  "笼": 4692, 
  "华盛顿": 4693, 
  "音乐会": 4694, 
  "自从": 4695, 
  "金属": 4696, 
  "管辖权": 4697, 
  "己": 4698, 
  "大国": 4699, 
  "信任": 4700, 
  "突然": 4701, 
  "互": 4702, 
  "可靠": 4703, 
  "47": 4704, 
  "印尼": 4705, 
  "法人": 4706, 
  "物流": 4707, 
  "冷@@": 4708, 
  "不良": 4709, 
  "举": 4710, 
  "失望": 4711, 
  "杰出": 4712, 
  "意图": 4713, 
  "追@@": 4714, 
  "家中": 4715, 
  "眼@@": 4716, 
  "备忘录": 4717, 
  "新闻界": 4718, 
  "游@@": 4719, 
  "炳": 4720, 
  "海底": 4721, 
  "ation": 4722, 
  "负责任": 4723, 
  "可持续发展": 4724, 
  "怀": 4725, 
  "三千": 4726, 
  "钢": 4727, 
  "东亚": 4728, 
  "不等": 4729, 
  "八十@@": 4730, 
  "老人家": 4731, 
  "月十九日": 4732, 
  "在场": 4733, 
  "196@@": 4734, 
  "咭": 4735, 
  "在座": 4736, 
  "财富": 4737, 
  "店铺": 4738, 
  "对待": 4739, 
  "1982年": 4740, 
  "民进党": 4741, 
  "en@@": 4742, 
  "之上": 4743, 
  "避": 4744, 
  "陪同": 4745, 
  "中药": 4746, 
  "对外贸易": 4747, 
  "写@@": 4748, 
  "静": 4749, 
  "(A)": 4750, 
  "假日": 4751, 
  "培": 4752, 
  "输出": 4753, 
  "权@@": 4754, 
  "百分比": 4755, 
  "月二十日": 4756, 
  "自治": 4757, 
  "一是": 4758, 
  "一九九六年@@": 4759, 
  "溪": 4760, 
  "省@@": 4761, 
  "邓小平": 4762, 
  "首脑": 4763, 
  "减至": 4764, 
  "邮": 4765, 
  "报案": 4766, 
  "有能力": 4767, 
  "练": 4768, 
  "星@@": 4769, 
  "绿": 4770, 
  "阀": 4771, 
  "地段": 4772, 
  "增进": 4773, 
  "毛": 4774, 
  "62": 4775, 
  "常务委员会": 4776, 
  "赤字": 4777, 
  "厕": 4778, 
  "WTO": 4779, 
  "对付": 4780, 
  "遣返": 4781, 
  "始": 4782, 
  "做出": 4783, 
  "限额": 4784, 
  "修@@": 4785, 
  "洁": 4786, 
  "列@@": 4787, 
  "赞同": 4788, 
  "乐观": 4789, 
  "普通法": 4790, 
  "发射": 4791, 
  "址": 4792, 
  "商场": 4793, 
  "卓越": 4794, 
  "杰": 4795, 
  "破": 4796, 
  "门诊": 4797, 
  "it@@": 4798, 
  "食用": 4799, 
  "南区": 4800, 
  "37@@": 4801, 
  "月十六日": 4802, 
  "菲律宾": 4803, 
  "演奏": 4804, 
  "l": 4805, 
  "品种": 4806, 
  "烧": 4807, 
  "宏": 4808, 
  "实验": 4809, 
  "站在": 4810, 
  "互动": 4811, 
  "几@@": 4812, 
  "参@@": 4813, 
  "38@@": 4814, 
  "克服": 4815, 
  "明年@@": 4816, 
  "君": 4817, 
  "非@@": 4818, 
  "不合理": 4819, 
  "熟悉": 4820, 
  "交代": 4821, 
  "普京": 4822, 
  "涂谨申": 4823, 
  "带动": 4824, 
  "基@@": 4825, 
  "车主": 4826, 
  "一级": 4827, 
  "国会": 4828, 
  "护士": 4829, 
  "罗湖": 4830, 
  "偿还": 4831, 
  "手提": 4832, 
  "57": 4833, 
  "施工": 4834, 
  "坚定": 4835, 
  "有关方面": 4836, 
  "筹备": 4837, 
  "抵": 4838, 
  "挂": 4839, 
  "三通": 4840, 
  "诺": 4841, 
  "以色列": 4842, 
  "60@@": 4843, 
  "法规": 4844, 
  "存@@": 4845, 
  "美好": 4846, 
  "纯": 4847, 
  "访华": 4848, 
  "也曾": 4849, 
  "岸": 4850, 
  "ri@@": 4851, 
  "入场": 4852, 
  "配偶": 4853, 
  "戴": 4854, 
  "和@@": 4855, 
  "逢": 4856, 
  "圆": 4857, 
  "离@@": 4858, 
  "竟": 4859, 
  "间接": 4860, 
  "一笔": 4861, 
  "圆满": 4862, 
  "名字": 4863, 
  "坪": 4864, 
  "唐": 4865, 
  "勇": 4866, 
  "皇": 4867, 
  "记者会": 4868, 
  "M": 4869, 
  "专营": 4870, 
  "法令": 4871, 
  "贪污": 4872, 
  "涉案": 4873, 
  "采购": 4874, 
  "锅炉": 4875, 
  "工商业": 4876, 
  "永@@": 4877, 
  "杯": 4878, 
  "一九九九年十二@@": 4879, 
  "超@@": 4880, 
  "何种": 4881, 
  "探访": 4882, 
  "以期": 4883, 
  "新纪元": 4884, 
  "紧接": 4885, 
  "秘书长": 4886, 
  "烈": 4887, 
  "亦将": 4888, 
  "九八年": 4889, 
  "胜利": 4890, 
  "有效率": 4891, 
  "四十五": 4892, 
  "获悉": 4893, 
  "跑": 4894, 
  "马来西亚": 4895, 
  "台风": 4896, 
  "小说": 4897, 
  "也就": 4898, 
  "很少": 4899, 
  "月十二日": 4900, 
  "投票站": 4901, 
  "观光": 4902, 
  "许@@": 4903, 
  "坏": 4904, 
  "船民": 4905, 
  "il@@": 4906, 
  "玩具": 4907, 
  "再造": 4908, 
  "67": 4909, 
  "邻近": 4910, 
  "呼吸系统": 4911, 
  "智慧": 4912, 
  "股市": 4913, 
  "霍乱": 4914, 
  "退": 4915, 
  "伤亡": 4916, 
  "领@@": 4917, 
  "流入": 4918, 
  "50@@": 4919, 
  "尖": 4920, 
  "预先": 4921, 
  "次数": 4922, 
  "旅": 4923, 
  "以@@": 4924, 
  "增@@": 4925, 
  "暴@@": 4926, 
  "正好": 4927, 
  "ic@@": 4928, 
  "编配": 4929, 
  "黑钱": 4930, 
  "浪费": 4931, 
  "半年": 4932, 
  "承@@": 4933, 
  "普及": 4934, 
  "犹如": 4935, 
  "幅度": 4936, 
  "商机": 4937, 
  "法制": 4938, 
  "女儿": 4939, 
  "物件": 4940, 
  "七月一日": 4941, 
  "询问": 4942, 
  "李永达": 4943, 
  "医师": 4944, 
  "担保": 4945, 
  "策": 4946, 
  "交换意见": 4947, 
  "附加": 4948, 
  "98": 4949, 
  "梯": 4950, 
  "惊@@": 4951, 
  "海峡": 4952, 
  "信仰": 4953, 
  "这件事": 4954, 
  "层次": 4955, 
  "照@@": 4956, 
  "人民币": 4957, 
  "美丽": 4958, 
  "衷心": 4959, 
  "人人": 4960, 
  "董事局": 4961, 
  "均属": 4962, 
  "感情": 4963, 
  "托": 4964, 
  "不敢": 4965, 
  "2001年": 4966, 
  "考察": 4967, 
  "转为": 4968, 
  "那个": 4969, 
  "香@@": 4970, 
  "系列": 4971, 
  "落后": 4972, 
  "薄": 4973, 
  "月二十二日": 4974, 
  "=": 4975, 
  "稳固": 4976, 
  "一步": 4977, 
  "月十四日": 4978, 
  "所致": 4979, 
  "哈@@": 4980, 
  "勤": 4981, 
  "二十六": 4982, 
  "二十三": 4983, 
  "颁奖": 4984, 
  "月十一日": 4985, 
  "增长率": 4986, 
  "恶化": 4987, 
  "呈报": 4988, 
  "是不是": 4989, 
  "终": 4990, 
  "市值": 4991, 
  "寒": 4992, 
  "云@@": 4993, 
  "挤": 4994, 
  "出租": 4995, 
  "脱@@": 4996, 
  "自身": 4997, 
  "中英": 4998, 
  "宝@@": 4999, 
  "分歧": 5000, 
  "制裁": 5001, 
  "鼓": 5002, 
  "陆恭蕙": 5003, 
  "消费品": 5004, 
  "月二十八日": 5005, 
  "谢@@": 5006, 
  "邮件": 5007, 
  "处在": 5008, 
  "可望": 5009, 
  "胡锦涛": 5010, 
  "作者": 5011, 
  "损坏": 5012, 
  "普@@": 5013, 
  "可以说": 5014, 
  "100@@": 5015, 
  "月二日": 5016, 
  "事@@": 5017, 
  "妥为": 5018, 
  "单仲偕": 5019, 
  "等等": 5020, 
  "祖": 5021, 
  "巡逻": 5022, 
  "差异": 5023, 
  "不管": 5024, 
  "一个人": 5025, 
  "兆": 5026, 
  "第七": 5027, 
  "背@@": 5028, 
  "今晨": 5029, 
  "ti@@": 5030, 
  "注明": 5031, 
  "同类": 5032, 
  "电子化": 5033, 
  "物价": 5034, 
  "三万@@": 5035, 
  "圈": 5036, 
  "合伙": 5037, 
  "学历": 5038, 
  "香烟": 5039, 
  "任职": 5040, 
  "通风": 5041, 
  "强化": 5042, 
  "较低": 5043, 
  "倾向": 5044, 
  "袭": 5045, 
  "杂@@": 5046, 
  "一万": 5047, 
  "精简": 5048, 
  "洞": 5049, 
  "平台": 5050, 
  "湖": 5051, 
  "甲@@": 5052, 
  "1981年": 5053, 
  "背后": 5054, 
  "不太": 5055, 
  "不愿": 5056, 
  "常常": 5057, 
  "月二十四日": 5058, 
  "切合": 5059, 
  "夜@@": 5060, 
  "绝@@": 5061, 
  "高等教育": 5062, 
  "就读": 5063, 
  "出入境": 5064, 
  "遗嘱": 5065, 
  "田北俊": 5066, 
  "东方": 5067, 
  "趋": 5068, 
  "中国@@": 5069, 
  "刘健仪": 5070, 
  "信念": 5071, 
  "校舍": 5072, 
  "二十二": 5073, 
  "尽@@": 5074, 
  "吊": 5075, 
  "一九九九年三@@": 5076, 
  "商@@": 5077, 
  "八百@@": 5078, 
  "账户": 5079, 
  "喉管": 5080, 
  "横@@": 5081, 
  "68": 5082, 
  "速": 5083, 
  "迫": 5084, 
  "租约": 5085, 
  "忙": 5086, 
  "压@@": 5087, 
  "对方": 5088, 
  "拍摄": 5089, 
  "宣誓": 5090, 
  "莫@@": 5091, 
  "明天": 5092, 
  "不必要": 5093, 
  "补救": 5094, 
  "流通": 5095, 
  "风格": 5096, 
  "孔": 5097, 
  "有用": 5098, 
  "雪": 5099, 
  "纯粹": 5100, 
  "一月一日": 5101, 
  "一面": 5102, 
  "虎": 5103, 
  "保密": 5104, 
  "帮": 5105, 
  "年代": 5106, 
  "座位": 5107, 
  "引@@": 5108, 
  "一幅": 5109, 
  "妻子": 5110, 
  "否认": 5111, 
  "愿望": 5112, 
  "调查队": 5113, 
  "争": 5114, 
  "X": 5115, 
  "难道": 5116, 
  "亲@@": 5117, 
  "特权": 5118, 
  "1A": 5119, 
  "洗": 5120, 
  "药@@": 5121, 
  "特许": 5122, 
  "副总理": 5123, 
  "贝": 5124, 
  "月三十日": 5125, 
  "算是": 5126, 
  "留@@": 5127, 
  "关怀": 5128, 
  "茶@@": 5129, 
  "画家": 5130, 
  "恶劣": 5131, 
  "丹": 5132, 
  "简@@": 5133, 
  "隐": 5134, 
  "减@@": 5135, 
  "泳池": 5136, 
  "规程": 5137, 
  "停车": 5138, 
  "较多": 5139, 
  "五十万": 5140, 
  "参赛": 5141, 
  "哪里": 5142, 
  "66": 5143, 
  "依赖": 5144, 
  "推": 5145, 
  "超越": 5146, 
  "订单": 5147, 
  "无可": 5148, 
  "得益": 5149, 
  "要素": 5150, 
  "心情": 5151, 
  "国籍": 5152, 
  "江@@": 5153, 
  "交出": 5154, 
  "前途": 5155, 
  "立案": 5156, 
  "苏@@": 5157, 
  "各界人士": 5158, 
  "昨晚": 5159, 
  "攻击": 5160, 
  "一代": 5161, 
  "觉": 5162, 
  "鱼@@": 5163, 
  "导演": 5164, 
  "达@@": 5165, 
  "李洪": 5166, 
  "武力": 5167, 
  "定位": 5168, 
  "艺术家": 5169, 
  "承受": 5170, 
  "玛": 5171, 
  "我军": 5172, 
  "会计师": 5173, 
  "玉@@": 5174, 
  "国际公约": 5175, 
  "目的地": 5176, 
  "审计": 5177, 
  "更高": 5178, 
  "棒": 5179, 
  "卫": 5180, 
  "当值": 5181, 
  "既定": 5182, 
  "加速": 5183, 
  "抵触": 5184, 
  "活@@": 5185, 
  "专营权": 5186, 
  "八千@@": 5187, 
  "奖励": 5188, 
  "二五@@": 5189, 
  "爆发": 5190, 
  "育": 5191, 
  "左": 5192, 
  "中俄": 5193, 
  "一九九九年六@@": 5194, 
  "展望": 5195, 
  "活跃": 5196, 
  "温": 5197, 
  "交界": 5198, 
  "原住民": 5199, 
  "金钟": 5200, 
  "腐败": 5201, 
  "捣破": 5202, 
  "国有": 5203, 
  "交给": 5204, 
  "断@@": 5205, 
  "弃": 5206, 
  "就@@": 5207, 
  "宪制": 5208, 
  "总书记": 5209, 
  "可能性": 5210, 
  "爆": 5211, 
  "示": 5212, 
  "举例": 5213, 
  "舰": 5214, 
  "圆@@": 5215, 
  "鬼": 5216, 
  "谦": 5217, 
  "st@@": 5218, 
  "网路": 5219, 
  "华侨": 5220, 
  "一九九九年九@@": 5221, 
  "四百": 5222, 
  "救生艇": 5223, 
  "潮": 5224, 
  "租用": 5225, 
  "忽略": 5226, 
  "米@@": 5227, 
  "各@@": 5228, 
  "合计": 5229, 
  "糖": 5230, 
  "新鲜": 5231, 
  "廖": 5232, 
  "九九": 5233, 
  "闻": 5234, 
  "纺织": 5235, 
  "奉行": 5236, 
  "频": 5237, 
  "一再": 5238, 
  "圣@@": 5239, 
  "95": 5240, 
  "财物": 5241, 
  "调低": 5242, 
  "契约": 5243, 
  "黑点": 5244, 
  "虚@@": 5245, 
  "门票": 5246, 
  "徐@@": 5247, 
  "级别": 5248, 
  "此类": 5249, 
  "吊销": 5250, 
  "何俊仁": 5251, 
  "筹委会": 5252, 
  "私家": 5253, 
  "病患": 5254, 
  "运送": 5255, 
  "科研": 5256, 
  "野@@": 5257, 
  "高雄": 5258, 
  "一九八@@": 5259, 
  "编辑": 5260, 
  "来临": 5261, 
  "ed": 5262, 
  "年十月": 5263, 
  "即可": 5264, 
  "客@@": 5265, 
  "会计": 5266, 
  "张贴": 5267, 
  "2000年@@": 5268, 
  "粉岭": 5269, 
  "敌": 5270, 
  "89": 5271, 
  "严": 5272, 
  "对开": 5273, 
  "得悉": 5274, 
  "态": 5275, 
  "本土": 5276, 
  "毒药": 5277, 
  "合乎": 5278, 
  "散": 5279, 
  "谘": 5280, 
  "多方面": 5281, 
  "红色": 5282, 
  "劳@@": 5283, 
  "摆": 5284, 
  "窗": 5285, 
  "两天": 5286, 
  "捐赠": 5287, 
  "内务": 5288, 
  "混乱": 5289, 
  "一点@@": 5290, 
  "原则上": 5291, 
  "舞台": 5292, 
  "租赁": 5293, 
  "色彩": 5294, 
  "%": 5295, 
  "袭击": 5296, 
  "瓶": 5297, 
  "思@@": 5298, 
  "奋斗": 5299, 
  "人民群众": 5300, 
  "建成": 5301, 
  "守@@": 5302, 
  "传染病": 5303, 
  "http://www.@@": 5304, 
  "岭": 5305, 
  "困境": 5306, 
  "炉": 5307, 
  "餐厅": 5308, 
  "发明": 5309, 
  "一九六@@": 5310, 
  "建交": 5311, 
  "壳": 5312, 
  "未@@": 5313, 
  "难民": 5314, 
  "忘记": 5315, 
  "宿": 5316, 
  "朱@@": 5317, 
  "丝": 5318, 
  "义@@": 5319, 
  "轻型": 5320, 
  "授": 5321, 
  "(v)": 5322, 
  "争@@": 5323, 
  "月十日": 5324, 
  "亿@@": 5325, 
  "排污": 5326, 
  "作家": 5327, 
  "而来": 5328, 
  "河@@": 5329, 
  "相若": 5330, 
  "9.@@": 5331, 
  "一九九九年十@@": 5332, 
  "负面": 5333, 
  "密@@": 5334, 
  "稳健": 5335, 
  "软": 5336, 
  "东京": 5337, 
  "九千@@": 5338, 
  "假设": 5339, 
  "百万": 5340, 
  "排水": 5341, 
  "那里": 5342, 
  "汇演": 5343, 
  "中共中央": 5344, 
  "×": 5345, 
  "教训": 5346, 
  "遭到": 5347, 
  "昨": 5348, 
  "毫无": 5349, 
  "师@@": 5350, 
  "灵@@": 5351, 
  "知@@": 5352, 
  "借以": 5353, 
  "不幸": 5354, 
  "早期": 5355, 
  "释放": 5356, 
  "热情": 5357, 
  "J": 5358, 
  "前来": 5359, 
  "常@@": 5360, 
  "松@@": 5361, 
  "二零零@@": 5362, 
  "打道": 5363, 
  "毛@@": 5364, 
  "牛@@": 5365, 
  "呎": 5366, 
  "终@@": 5367, 
  "玲": 5368, 
  "对华": 5369, 
  "k": 5370, 
  "精": 5371, 
  "识别": 5372, 
  "调解": 5373, 
  ".gov.hk": 5374, 
  "注射": 5375, 
  "叶@@": 5376, 
  "坟场": 5377, 
  "焦点": 5378, 
  "不如": 5379, 
  "谴责": 5380, 
  "琴": 5381, 
  "1983年": 5382, 
  "二零零三年": 5383, 
  "运动场": 5384, 
  "天水围": 5385, 
  "敏": 5386, 
  "构思": 5387, 
  "奶": 5388, 
  "识": 5389, 
  "邀": 5390, 
  "引用": 5391, 
  "文康": 5392, 
  "次序": 5393, 
  "登革热": 5394, 
  "营@@": 5395, 
  "海滩": 5396, 
  "播放": 5397, 
  "治@@": 5398, 
  "63": 5399, 
  "属下": 5400, 
  "烟@@": 5401, 
  "短@@": 5402, 
  "侧": 5403, 
  "辅": 5404, 
  "弹": 5405, 
  "渔业": 5406, 
  "召": 5407, 
  "包含": 5408, 
  "呈现": 5409, 
  "器官": 5410, 
  "幼儿": 5411, 
  "69": 5412, 
  "马鞍山": 5413, 
  "死因": 5414, 
  "国际上": 5415, 
  "清除": 5416, 
  "佛教": 5417, 
  "垅": 5418, 
  "伤残": 5419, 
  "玻璃": 5420, 
  "使命": 5421, 
  "九十": 5422, 
  "顺@@": 5423, 
  "月中": 5424, 
  "拜": 5425, 
  "不当": 5426, 
  "制造商": 5427, 
  "抗议": 5428, 
  "政权": 5429, 
  "三点@@": 5430, 
  "毁": 5431, 
  "详尽": 5432, 
  "人选": 5433, 
  "追溯": 5434, 
  "助@@": 5435, 
  "199@@": 5436, 
  "赌": 5437, 
  "拖": 5438, 
  "从未": 5439, 
  "公帑": 5440, 
  "物@@": 5441, 
  "二七@@": 5442, 
  "高龄": 5443, 
  "免税": 5444, 
  "赤柱": 5445, 
  "之际": 5446, 
  "编@@": 5447, 
  "禁区": 5448, 
  "可说是": 5449, 
  "中日": 5450, 
  "小朋友": 5451, 
  "施@@": 5452, 
  "摄": 5453, 
  "余@@": 5454, 
  "切@@": 5455, 
  "一所": 5456, 
  "七月份": 5457, 
  "全民": 5458, 
  "得出": 5459, 
  "唱片": 5460, 
  "专科": 5461, 
  "可疑": 5462, 
  "实用": 5463, 
  "招致": 5464, 
  "换@@": 5465, 
  "买@@": 5466, 
  "以此": 5467, 
  "所@@": 5468, 
  "经纪": 5469, 
  "晨": 5470, 
  "船东": 5471, 
  "演员": 5472, 
  "数月": 5473, 
  "据悉": 5474, 
  "感受": 5475, 
  "伯@@": 5476, 
  "霍": 5477, 
  "特征": 5478, 
  "清水湾": 5479, 
  "兰@@": 5480, 
  "心态": 5481, 
  "李华明": 5482, 
  "伊拉克": 5483, 
  "一百零@@": 5484, 
  "二十四小时": 5485, 
  "器材": 5486, 
  "估价": 5487, 
  "做@@": 5488, 
  "紧@@": 5489, 
  "警监": 5490, 
  "幢": 5491, 
  "一行": 5492, 
  "国家@@": 5493, 
  "改道": 5494, 
  "不便": 5495, 
  "回报": 5496, 
  "一九九九年八@@": 5497, 
  "菲": 5498, 
  "随@@": 5499, 
  "一只": 5500, 
  "竞投": 5501, 
  "境外": 5502, 
  "屠": 5503, 
  "日常": 5504, 
  "un@@": 5505, 
  "引擎": 5506, 
  "空军": 5507, 
  "翻@@": 5508, 
  "巡视": 5509, 
  "只不过": 5510, 
  "义工": 5511, 
  "转运": 5512, 
  "救援": 5513, 
  "折": 5514, 
  "百分之三十@@": 5515, 
  "急性": 5516, 
  "充足": 5517, 
  "互助": 5518, 
  "亲切": 5519, 
  "迟": 5520, 
  "77": 5521, 
  "无人": 5522, 
  "阐述": 5523, 
  "移动": 5524, 
  "萧": 5525, 
  "国有企业": 5526, 
  "吉": 5527, 
  "信号": 5528, 
  "寻": 5529, 
  "惠": 5530, 
  "苗": 5531, 
  "威@@": 5532, 
  "注重": 5533, 
  "总经理": 5534, 
  "共和国": 5535, 
  "卖@@": 5536, 
  "跳@@": 5537, 
  "厚": 5538, 
  "V@@": 5539, 
  "海运": 5540, 
  "附带": 5541, 
  "下调": 5542, 
  "et@@": 5543, 
  "了@@": 5544, 
  "纳税人": 5545, 
  "置业": 5546, 
  "会长": 5547, 
  "年十一月": 5548, 
  "邮戳": 5549, 
  "回复": 5550, 
  "永久性": 5551, 
  "香港仔": 5552, 
  "影象": 5553, 
  "转交": 5554, 
  "可用": 5555, 
  "弃置": 5556, 
  "颁": 5557, 
  "贸易署": 5558, 
  "铭": 5559, 
  "上台": 5560, 
  "债权": 5561, 
  "天然": 5562, 
  "救@@": 5563, 
  "证件": 5564, 
  "故意": 5565, 
  "涉": 5566, 
  "户口": 5567, 
  "吋": 5568, 
  "百分之五点@@": 5569, 
  "警觉": 5570, 
  "政@@": 5571, 
  "时段": 5572, 
  "喉": 5573, 
  "一九九九年十一@@": 5574, 
  "赡养费": 5575, 
  "二00三年": 5576, 
  "异@@": 5577, 
  "前线": 5578, 
  "双重": 5579, 
  "金门": 5580, 
  "性别": 5581, 
  "大道": 5582, 
  "推展": 5583, 
  "迈向": 5584, 
  "竞选": 5585, 
  "九十@@": 5586, 
  "联合声明": 5587, 
  "护@@": 5588, 
  "释义": 5589, 
  "食@@": 5590, 
  "安定": 5591, 
  "嘉年华": 5592, 
  "人群": 5593, 
  "婴儿": 5594, 
  "用来": 5595, 
  "零售商": 5596, 
  "审理": 5597, 
  "偏": 5598, 
  "抓好": 5599, 
  "分开": 5600, 
  "屿": 5601, 
  "注意到": 5602, 
  "敏感": 5603, 
  "妙": 5604, 
  "气候": 5605, 
  "押后": 5606, 
  "校园": 5607, 
  "雷@@": 5608, 
  "仕": 5609, 
  "查@@": 5610, 
  "伦": 5611, 
  "六月份": 5612, 
  "有点": 5613, 
  "年青人": 5614, 
  "税务局": 5615, 
  "时三十分": 5616, 
  "自主": 5617, 
  "集@@": 5618, 
  "池": 5619, 
  "与会": 5620, 
  "基督教": 5621, 
  "想象": 5622, 
  "完结": 5623, 
  "唐家璇": 5624, 
  "最初": 5625, 
  "二十七": 5626, 
  "教科书": 5627, 
  "作风": 5628, 
  "代表性": 5629, 
  "索偿": 5630, 
  "特别行政区": 5631, 
  "产@@": 5632, 
  "佣工": 5633, 
  "抱": 5634, 
  "依靠": 5635, 
  "演说": 5636, 
  "严@@": 5637, 
  "礼@@": 5638, 
  "简": 5639, 
  "衣@@": 5640, 
  "列车": 5641, 
  "公尺": 5642, 
  "回家": 5643, 
  "心中": 5644, 
  "72": 5645, 
  "雷": 5646, 
  "寓所": 5647, 
  "R": 5648, 
  "岗位": 5649, 
  "广@@": 5650, 
  "绝": 5651, 
  "痛苦": 5652, 
  "井": 5653, 
  "三十二": 5654, 
  "鸿": 5655, 
  "有资格": 5656, 
  "实习": 5657, 
  "语@@": 5658, 
  "舞@@": 5659, 
  "配额": 5660, 
  "忽视": 5661, 
  "装有": 5662, 
  "一百万": 5663, 
  "纺织品": 5664, 
  "游说": 5665, 
  "那是": 5666, 
  "移走": 5667, 
  "漆": 5668, 
  "核实": 5669, 
  "仙": 5670, 
  "九七": 5671, 
  "恶@@": 5672, 
  "3,@@": 5673, 
  "送@@": 5674, 
  "显得": 5675, 
  "乌@@": 5676, 
  "广阔": 5677, 
  "i": 5678, 
  "中止": 5679, 
  "每个人": 5680, 
  "颜色": 5681, 
  "升@@": 5682, 
  "动作": 5683, 
  "场合": 5684, 
  "误导": 5685, 
  "主流": 5686, 
  "渔民": 5687, 
  "凤": 5688, 
  "急症": 5689, 
  "臣": 5690, 
  "人工": 5691, 
  "并@@": 5692, 
  "临床": 5693, 
  "杂项": 5694, 
  "官兵": 5695, 
  "饭": 5696, 
  "备受": 5697, 
  "海报": 5698, 
  "一九九@@": 5699, 
  "缸": 5700, 
  "不必": 5701, 
  "不一定": 5702, 
  "之余": 5703, 
  "响": 5704, 
  "入学": 5705, 
  "渔农": 5706, 
  "四千": 5707, 
  "月三十一日": 5708, 
  "不容": 5709, 
  "零件": 5710, 
  "倘若": 5711, 
  "衡量": 5712, 
  "强制": 5713, 
  "危险品": 5714, 
  "寄": 5715, 
  "着手": 5716, 
  "原料": 5717, 
  "78": 5718, 
  "牵涉": 5719, 
  "皇后": 5720, 
  "瓦@@": 5721, 
  "举@@": 5722, 
  "学费": 5723, 
  "面前": 5724, 
  "黄宏发": 5725, 
  "击": 5726, 
  "普": 5727, 
  "北约": 5728, 
  "聆听": 5729, 
  "残@@": 5730, 
  "一九九四年": 5731, 
  "000个": 5732, 
  "III": 5733, 
  "三月三十一日": 5734, 
  "热带": 5735, 
  "七一": 5736, 
  "巡回": 5737, 
  "郑@@": 5738, 
  "印花税": 5739, 
  "直选": 5740, 
  "转口": 5741, 
  "等待": 5742, 
  "影@@": 5743, 
  "二八@@": 5744, 
  "调配": 5745, 
  "二三@@": 5746, 
  "奇@@": 5747, 
  "九月份": 5748, 
  "附加费": 5749, 
  "职权": 5750, 
  "党员": 5751, 
  "5亿": 5752, 
  "常委": 5753, 
  "三级": 5754, 
  "潜在": 5755, 
  "崭新": 5756, 
  "发觉": 5757, 
  "卷": 5758, 
  "太太": 5759, 
  "串": 5760, 
  "启@@": 5761, 
  "上月": 5762, 
  "客运": 5763, 
  "大批": 5764, 
  "流出": 5765, 
  "竟然": 5766, 
  "练习": 5767, 
  "地租": 5768, 
  "拖欠": 5769, 
  "容纳": 5770, 
  "这就是": 5771, 
  "u": 5772, 
  "48@@": 5773, 
  "不得不": 5774, 
  "郭": 5775, 
  "必将": 5776, 
  "酬金": 5777, 
  "打破": 5778, 
  "4月1日": 5779, 
  "播出": 5780, 
  "技": 5781, 
  "杨孝华": 5782, 
  "胶": 5783, 
  "分担": 5784, 
  "延误": 5785, 
  "佛@@": 5786, 
  "互@@": 5787, 
  "影视": 5788, 
  "传送": 5789, 
  "二00一年@@": 5790, 
  "黄大仙": 5791, 
  "药剂": 5792, 
  "二00二年@@": 5793, 
  "广州": 5794, 
  "94": 5795, 
  "替代": 5796, 
  "货@@": 5797, 
  "ol@@": 5798, 
  "翠": 5799, 
  "构造": 5800, 
  "称@@": 5801, 
  "家居": 5802, 
  "报纸": 5803, 
  "轻@@": 5804, 
  "领土": 5805, 
  "外商": 5806, 
  "跳": 5807, 
  "价值观": 5808, 
  "三时": 5809, 
  "一九九九年一@@": 5810, 
  "顶": 5811, 
  "疑犯": 5812, 
  "辩解": 5813, 
  "车费": 5814, 
  "一九九九年七@@": 5815, 
  "骨@@": 5816, 
  "罪犯": 5817, 
  "颁授": 5818, 
  "秒": 5819, 
  "限度": 5820, 
  "新来": 5821, 
  "辞职": 5822, 
  "炮": 5823, 
  "谭": 5824, 
  "整理": 5825, 
  "利得税": 5826, 
  "竹@@": 5827, 
  "柏": 5828, 
  "监": 5829, 
  "显": 5830, 
  "流量": 5831, 
  "四时": 5832, 
  "种植": 5833, 
  "反映出": 5834, 
  "便利": 5835, 
  "祝贺": 5836, 
  "争论": 5837, 
  "珠江三角洲": 5838, 
  "64": 5839, 
  "诚意": 5840, 
  "问卷": 5841, 
  "典": 5842, 
  "会不会": 5843, 
  "逮捕": 5844, 
  "三十五": 5845, 
  "百分之五": 5846, 
  "受欢迎": 5847, 
  "有趣": 5848, 
  "一道": 5849, 
  "定为": 5850, 
  "路向": 5851, 
  "必@@": 5852, 
  "四万@@": 5853, 
  "铺": 5854, 
  "一边": 5855, 
  "刘江华": 5856, 
  "年轻人": 5857, 
  "一生": 5858, 
  "及早": 5859, 
  "引导": 5860, 
  "足@@": 5861, 
  "外长": 5862, 
  "受访者": 5863, 
  "离婚": 5864, 
  "露": 5865, 
  "职级": 5866, 
  "误解": 5867, 
  "休息": 5868, 
  "郎": 5869, 
  "金融危机": 5870, 
  "早@@": 5871, 
  "表@@": 5872, 
  "保管": 5873, 
  "___": 5874, 
  "先前": 5875, 
  "适": 5876, 
  "有赖": 5877, 
  "商户": 5878, 
  "察": 5879, 
  "二十八": 5880, 
  "电子贸易": 5881, 
  "同等": 5882, 
  "三十四": 5883, 
  "目睹": 5884, 
  "炎": 5885, 
  "癌": 5886, 
  "操守": 5887, 
  "http://www.info.gov.hk/@@": 5888, 
  "轮@@": 5889, 
  "地震": 5890, 
  "96": 5891, 
  "三十三": 5892, 
  "挤塞": 5893, 
  "亭": 5894, 
  "四十二": 5895, 
  "指南": 5896, 
  "钱@@": 5897, 
  "强劲": 5898, 
  "建设性": 5899, 
  "造@@": 5900, 
  "深切": 5901, 
  "解放军": 5902, 
  "更具": 5903, 
  "煤气": 5904, 
  "喜@@": 5905, 
  "再者": 5906, 
  "历史上": 5907, 
  "分发": 5908, 
  "迹像": 5909, 
  "迈进": 5910, 
  "促": 5911, 
  "二七三四": 5912, 
  "二00三年@@": 5913, 
  "太@@": 5914, 
  "作好": 5915, 
  "提倡": 5916, 
  "品牌": 5917, 
  "全新": 5918, 
  "偏@@": 5919, 
  "别@@": 5920, 
  "深远": 5921, 
  "诸": 5922, 
  "八月份": 5923, 
  "乐意": 5924, 
  "单身": 5925, 
  "鼠": 5926, 
  "毋": 5927, 
  "年间": 5928, 
  "餐": 5929, 
  "发达": 5930, 
  "街头": 5931, 
  "女童": 5932, 
  "减薪": 5933, 
  "手令": 5934, 
  ".0@@": 5935, 
  "喷@@": 5936, 
  "射": 5937, 
  "一九九九年五@@": 5938, 
  "谈及": 5939, 
  "借@@": 5940, 
  "阻碍": 5941, 
  "末": 5942, 
  "实务": 5943, 
  "三十六": 5944, 
  "含量": 5945, 
  "ed@@": 5946, 
  "楼面": 5947, 
  "率领": 5948, 
  "表扬": 5949, 
  "戏剧": 5950, 
  "矿@@": 5951, 
  "今@@": 5952, 
  "迹": 5953, 
  "百分之九十@@": 5954, 
  "国民经济": 5955, 
  "川": 5956, 
  "改动": 5957, 
  "从中": 5958, 
  "出庭": 5959, 
  "刚刚": 5960, 
  "迷@@": 5961, 
  "也就是": 5962, 
  "质@@": 5963, 
  "敬": 5964, 
  "税款": 5965, 
  "彩": 5966, 
  "翻译": 5967, 
  "负荷": 5968, 
  "快@@": 5969, 
  "去@@": 5970, 
  "戒毒": 5971, 
  "啊": 5972, 
  "赵@@": 5973, 
  "学科": 5974, 
  "图@@": 5975, 
  "二000年一@@": 5976, 
  "相应的": 5977, 
  "出院": 5978, 
  "牙": 5979, 
  "目@@": 5980, 
  "出色": 5981, 
  "消失": 5982, 
  "纠正": 5983, 
  "超出": 5984, 
  "彩@@": 5985, 
  "报表": 5986, 
  "家具": 5987, 
  "农场": 5988, 
  "示威": 5989, 
  "开启": 5990, 
  "亏损": 5991, 
  "抗@@": 5992, 
  "79": 5993, 
  "踏": 5994, 
  "领有": 5995, 
  "答辩人": 5996, 
  "摇@@": 5997, 
  "希": 5998, 
  "渔船": 5999, 
  "ch@@": 6000, 
  "党中央": 6001, 
  "行劫": 6002, 
  "阅": 6003, 
  "300": 6004, 
  "动员": 6005, 
  "杜": 6006, 
  "徐": 6007, 
  "振@@": 6008, 
  "执政": 6009, 
  "贩卖": 6010, 
  "此@@": 6011, 
  "难免": 6012, 
  "交通部": 6013, 
  "73": 6014, 
  "强制执行": 6015, 
  "遵照": 6016, 
  "公诉": 6017, 
  "役": 6018, 
  "主要原因": 6019, 
  "债务人": 6020, 
  "脱": 6021, 
  "一九九九年二@@": 6022, 
  "洋@@": 6023, 
  "记@@": 6024, 
  "el@@": 6025, 
  "贺": 6026, 
  "天下": 6027, 
  "观@@": 6028, 
  "二十九": 6029, 
  "百分之六点@@": 6030, 
  "1977年": 6031, 
  "滨": 6032, 
  "灯@@": 6033, 
  "黑色": 6034, 
  "市场上": 6035, 
  "色@@": 6036, 
  "带@@": 6037, 
  "拨出": 6038, 
  "西北": 6039, 
  "统治": 6040, 
  "终身": 6041, 
  "才有": 6042, 
  "朝@@": 6043, 
  "高中": 6044, 
  "族群": 6045, 
  "私@@": 6046, 
  "似": 6047, 
  "on": 6048, 
  "一年": 6049, 
  "照明": 6050, 
  "绿色": 6051, 
  "时机": 6052, 
  "摩": 6053, 
  "盖印": 6054, 
  "材": 6055, 
  "教材": 6056, 
  "蒋": 6057, 
  "骗": 6058, 
  "票据": 6059, 
  "於今": 6060, 
  "丈夫": 6061, 
  "屏": 6062, 
  "单一": 6063, 
  "吸引力": 6064, 
  "怞": 6065, 
  "添": 6066, 
  "预料": 6067, 
  "士@@": 6068, 
  "估": 6069, 
  "善@@": 6070, 
  "87": 6071, 
  "局限": 6072, 
  "风气": 6073, 
  "每人": 6074, 
  "重整": 6075, 
  "the": 6076, 
  "猫": 6077, 
  "赞扬": 6078, 
  "吸收": 6079, 
  "优": 6080, 
  "储蓄": 6081, 
  "砖": 6082, 
  "只好": 6083, 
  "新西兰": 6084, 
  "换言之": 6085, 
  "欺诈": 6086, 
  "71": 6087, 
  "界线": 6088, 
  "调节": 6089, 
  "兄弟": 6090, 
  "N": 6091, 
  "提早": 6092, 
  "批发": 6093, 
  "消毒": 6094, 
  "二级": 6095, 
  "行走": 6096, 
  "旧@@": 6097, 
  "日趋": 6098, 
  "不错": 6099, 
  "三十一": 6100, 
  "廖成": 6101, 
  "保险公司": 6102, 
  "滋扰": 6103, 
  "轩": 6104, 
  "敢": 6105, 
  "实地": 6106, 
  "10%": 6107, 
  "调查组": 6108, 
  "干涉": 6109, 
  "最为": 6110, 
  "无论如何": 6111, 
  "公立": 6112, 
  "劲": 6113, 
  "设定": 6114, 
  "启动": 6115, 
  "美国人": 6116, 
  "那@@": 6117, 
  "一番": 6118, 
  "土木工程": 6119, 
  "芋": 6120, 
  "烟草": 6121, 
  "92": 6122, 
  "固": 6123, 
  "喝": 6124, 
  "历@@": 6125, 
  "抓住": 6126, 
  "禽流感": 6127, 
  "接到": 6128, 
  "宋": 6129, 
  "和谐": 6130, 
  "务实": 6131, 
  "软@@": 6132, 
  "申领": 6133, 
  "暨": 6134, 
  "科目": 6135, 
  "故障": 6136, 
  "外出": 6137, 
  "等@@": 6138, 
  "上市公司": 6139, 
  "滑@@": 6140, 
  "祝": 6141, 
  "延@@": 6142, 
  "削弱": 6143, 
  "击@@": 6144, 
  "致@@": 6145, 
  "暴雨": 6146, 
  "人民@@": 6147, 
  "回国": 6148, 
  "及第": 6149, 
  "冷": 6150, 
  "ro@@": 6151, 
  "配@@": 6152, 
  "困扰": 6153, 
  "显@@": 6154, 
  "地价": 6155, 
  "激@@": 6156, 
  "购物": 6157, 
  "鲁@@": 6158, 
  "亡": 6159, 
  "电信": 6160, 
  "为人": 6161, 
  "五月份": 6162, 
  "刻": 6163, 
  "书籍": 6164, 
  "坛": 6165, 
  "划@@": 6166, 
  "老板": 6167, 
  "亚太地区": 6168, 
  "房间": 6169, 
  "算@@": 6170, 
  "航程": 6171, 
  "人均": 6172, 
  "严峻": 6173, 
  "温@@": 6174, 
  "档案": 6175, 
  "警报": 6176, 
  "珍贵": 6177, 
  "直径": 6178, 
  "前后": 6179, 
  "b": 6180, 
  "煮": 6181, 
  "展览会": 6182, 
  "有力": 6183, 
  "没@@": 6184, 
  "国家主席": 6185, 
  "剧院": 6186, 
  "论点": 6187, 
  "23@@": 6188, 
  "秋": 6189, 
  "季度": 6190, 
  "电话号码": 6191, 
  "思维": 6192, 
  "雨@@": 6193, 
  "欢@@": 6194, 
  "参": 6195, 
  "理财": 6196, 
  "转换": 6197, 
  "藏@@": 6198, 
  "何钟泰": 6199, 
  "无意": 6200, 
  "浪": 6201, 
  "包@@": 6202, 
  "硬@@": 6203, 
  "四点@@": 6204, 
  "到期": 6205, 
  "每小时": 6206, 
  "固然": 6207, 
  "专线": 6208, 
  "彭": 6209, 
  "因@@": 6210, 
  "郑家富": 6211, 
  "图形": 6212, 
  "拆卸": 6213, 
  "降": 6214, 
  "w": 6215, 
  "月二十@@": 6216, 
  "体育馆": 6217, 
  "想到": 6218, 
  "认证": 6219, 
  "途": 6220, 
  "渣": 6221, 
  "一九七@@": 6222, 
  "掌": 6223, 
  "隐@@": 6224, 
  "评级": 6225, 
  "告示": 6226, 
  "赚": 6227, 
  "猪肉": 6228, 
  "货船": 6229, 
  "性@@": 6230, 
  "办事": 6231, 
  "七七": 6232, 
  "配套": 6233, 
  "偷": 6234, 
  "法援": 6235, 
  "字眼": 6236, 
  "三月份": 6237, 
  "粉": 6238, 
  "派出": 6239, 
  "渐": 6240, 
  "归属": 6241, 
  "汽油": 6242, 
  "1980年": 6243, 
  "蔬菜": 6244, 
  "第八": 6245, 
  "千万": 6246, 
  "登上": 6247, 
  "村民": 6248, 
  "折@@": 6249, 
  "泽": 6250, 
  "电子@@": 6251, 
  "中新社": 6252, 
  "六百": 6253, 
  "二百万": 6254, 
  "历": 6255, 
  "换句话说": 6256, 
  "路面": 6257, 
  "四十八": 6258, 
  "疏忽": 6259, 
  "测验": 6260, 
  "览": 6261, 
  "81": 6262, 
  "捡": 6263, 
  "82": 6264, 
  "稳": 6265, 
  "李家祥": 6266, 
  "南非": 6267, 
  "来往": 6268, 
  "潮流": 6269, 
  "南北": 6270, 
  "冠": 6271, 
  "新政府": 6272, 
  "光华": 6273, 
  "薪俸": 6274, 
  "窝": 6275, 
  "演艺": 6276, 
  "7月1日": 6277, 
  "呈": 6278, 
  "醒": 6279, 
  "每位": 6280, 
  "五点@@": 6281, 
  "百分之十": 6282, 
  "申办": 6283, 
  "绳": 6284, 
  "汤": 6285, 
  "n": 6286, 
  "传达": 6287, 
  "登@@": 6288, 
  "黄金": 6289, 
  "番": 6290, 
  "国际间": 6291, 
  "海面": 6292, 
  "累": 6293, 
  "销售处": 6294, 
  "融入": 6295, 
  "曲@@": 6296, 
  "外观": 6297, 
  "计@@": 6298, 
  "防治": 6299, 
  "劝": 6300, 
  "月一日至@@": 6301, 
  "(B)": 6302, 
  "宗@@": 6303, 
  "狮": 6304, 
  "电器": 6305, 
  "域": 6306, 
  "尊严": 6307, 
  "禽": 6308, 
  "入世": 6309, 
  "形@@": 6310, 
  "近来": 6311, 
  "迷": 6312, 
  "效": 6313, 
  "六千": 6314, 
  "手术": 6315, 
  "机舱": 6316, 
  "炮@@": 6317, 
  "图案": 6318, 
  "渡": 6319, 
  "85": 6320, 
  "拯救": 6321, 
  "柴湾": 6322, 
  "首@@": 6323, 
  "塞": 6324, 
  "走廊": 6325, 
  "es@@": 6326, 
  "推翻": 6327, 
  "隧": 6328, 
  "(j)": 6329, 
  "窄": 6330, 
  "耳": 6331, 
  "一九九九年四@@": 6332, 
  "电缆": 6333, 
  "银@@": 6334, 
  "晚上十一时": 6335, 
  "营造": 6336, 
  "1000": 6337, 
  "74": 6338, 
  "乐园": 6339, 
  "孙@@": 6340, 
  "奖项": 6341, 
  "损毁": 6342, 
  "好好": 6343, 
  "尽可能": 6344, 
  "印章": 6345, 
  "不懈": 6346, 
  "工作上": 6347, 
  "x@@": 6348, 
  "隔离": 6349, 
  "奖学金": 6350, 
  "会议厅": 6351, 
  "第九": 6352, 
  "麻@@": 6353, 
  "那时": 6354, 
  "第一@@": 6355, 
  "身高": 6356, 
  "转入": 6357, 
  "总站": 6358, 
  "人体": 6359, 
  "谨慎": 6360, 
  "根本利益": 6361, 
  "赋": 6362, 
  "京": 6363, 
  "成衣": 6364, 
  "V": 6365, 
  "0%": 6366, 
  "屋宇": 6367, 
  "背": 6368, 
  "2个": 6369, 
  "市长": 6370, 
  "圣诞": 6371, 
  "Ch@@": 6372, 
  "中间": 6373, 
  "技术性": 6374, 
  "二六@@": 6375, 
  "废": 6376, 
  "提案": 6377, 
  "毕": 6378, 
  "下半年": 6379, 
  "冷战": 6380, 
  "二000年三@@": 6381, 
  "众@@": 6382, 
  "抽": 6383, 
  "可以说是": 6384, 
  "消@@": 6385, 
  "雾": 6386, 
  "组成部分": 6387, 
  "介入": 6388, 
  "经济复苏": 6389, 
  "四十三": 6390, 
  "新市镇": 6391, 
  "借贷": 6392, 
  "不易": 6393, 
  "纯@@": 6394, 
  "IV": 6395, 
  "智@@": 6396, 
  "珍": 6397, 
  "本年度": 6398, 
  "南部": 6399, 
  "外贸": 6400, 
  "新一轮": 6401, 
  "协作": 6402, 
  "廉洁": 6403, 
  "音@@": 6404, 
  "原来的": 6405, 
  "边@@": 6406, 
  "假@@": 6407, 
  "ec@@": 6408, 
  "知名": 6409, 
  "民选": 6410, 
  "惠@@": 6411, 
  "当今": 6412, 
  "致谢": 6413, 
  "一八@@": 6414, 
  "何承天": 6415, 
  "兽医": 6416, 
  "纲领": 6417, 
  "备@@": 6418, 
  "过分": 6419, 
  "班@@": 6420, 
  "冠军": 6421, 
  "那样": 6422, 
  "工序": 6423, 
  "教导": 6424, 
  "年十二月": 6425, 
  "参照": 6426, 
  "研究院": 6427, 
  "整@@": 6428, 
  "谓": 6429, 
  "逾期": 6430, 
  "树木": 6431, 
  "懂得": 6432, 
  "接管": 6433, 
  "文娱": 6434, 
  "首相": 6435, 
  "鲜@@": 6436, 
  "载货": 6437, 
  "盆": 6438, 
  "限期": 6439, 
  "静@@": 6440, 
  "数十": 6441, 
  "踊跃": 6442, 
  "理性": 6443, 
  "爵士": 6444, 
  "回忆": 6445, 
  "密度": 6446, 
  "柯": 6447, 
  "睡": 6448, 
  "辟": 6449, 
  "招": 6450, 
  "碎": 6451, 
  "由于": 6452, 
  "堡": 6453, 
  "蔡素玉": 6454, 
  "释": 6455, 
  "信用": 6456, 
  "外界": 6457, 
  "改良": 6458, 
  "然@@": 6459, 
  "叶澍": 6460, 
  "二000年四@@": 6461, 
  "底@@": 6462, 
  "走出": 6463, 
  "博": 6464, 
  "拍卖": 6465, 
  "免受": 6466, 
  "下一个": 6467, 
  "纪": 6468, 
  "服务行业": 6469, 
  "完毕": 6470, 
  "咸": 6471, 
  "元@@": 6472, 
  "赠": 6473, 
  "抽@@": 6474, 
  "经济效益": 6475, 
  "身份证": 6476, 
  "二八": 6477, 
  "七年": 6478, 
  "说出": 6479, 
  "社会@@": 6480, 
  "温度": 6481, 
  "探@@": 6482, 
  "搞好": 6483, 
  "赶@@": 6484, 
  "这场": 6485, 
  "遗@@": 6486, 
  "不宜": 6487, 
  "玩@@": 6488, 
  "颜": 6489, 
  "不能够": 6490, 
  "上次": 6491, 
  "一股": 6492, 
  "困": 6493, 
  "一度": 6494, 
  "排除": 6495, 
  "海域": 6496, 
  "转达": 6497, 
  "四十四": 6498, 
  "费@@": 6499, 
  "婚@@": 6500, 
  "代理商": 6501, 
  "枪械": 6502, 
  "正视": 6503, 
  "歌曲": 6504, 
  "覆盖": 6505, 
  "开会": 6506, 
  "0年": 6507, 
  "漫画": 6508, 
  "伤@@": 6509, 
  "多半": 6510, 
  "普通话": 6511, 
  "脸": 6512, 
  "X@@": 6513, 
  "椒": 6514, 
  "极@@": 6515, 
  "廊": 6516, 
  "取缔": 6517, 
  "围绕": 6518, 
  "无限": 6519, 
  "一月份": 6520, 
  "某个": 6521, 
  "航机": 6522, 
  "税制": 6523, 
  "封@@": 6524, 
  "商务": 6525, 
  "朝鲜半岛": 6526, 
  "复本": 6527, 
  "厚@@": 6528, 
  "无效": 6529, 
  "再加上": 6530, 
  "判刑": 6531, 
  "一九五@@": 6532, 
  "后者": 6533, 
  "再@@": 6534, 
  "发达国家": 6535, 
  "炼": 6536, 
  "眼睛": 6537, 
  "三十九": 6538, 
  "十月": 6539, 
  "命运": 6540, 
  "洛@@": 6541, 
  "厕所": 6542, 
  "〈": 6543, 
  "决": 6544, 
  "塑胶": 6545, 
  "2002年": 6546, 
  "创@@": 6547, 
  "问@@": 6548, 
  "问候": 6549, 
  "保费": 6550, 
  "杨永强": 6551, 
  "鱼类": 6552, 
  "六点@@": 6553, 
  "九六年": 6554, 
  "内河": 6555, 
  "欺骗": 6556, 
  "统@@": 6557, 
  "因由": 6558, 
  "本质": 6559, 
  "陈荣灿": 6560, 
  "三日": 6561, 
  "境内": 6562, 
  "捕": 6563, 
  "跨部门": 6564, 
  "冬": 6565, 
  "抗": 6566, 
  "进食": 6567, 
  "婚": 6568, 
  "楚": 6569, 
  "东南": 6570, 
  "儿@@": 6571, 
  "防护": 6572, 
  "误": 6573, 
  "消防员": 6574, 
  "倾泻": 6575, 
  "规律": 6576, 
  "频繁": 6577, 
  "端@@": 6578, 
  "不治": 6579, 
  "构想": 6580, 
  "罗致光": 6581, 
  "巨@@": 6582, 
  "只须": 6583, 
  "外销": 6584, 
  "www.@@": 6585, 
  "邮政署": 6586, 
  "开幕典礼": 6587, 
  "倘": 6588, 
  "节@@": 6589, 
  "成文法": 6590, 
  "赚取": 6591, 
  "制服": 6592, 
  "败": 6593, 
  "打开": 6594, 
  "会场": 6595, 
  "李柱铭": 6596, 
  "赢": 6597, 
  "伍": 6598, 
  "专才": 6599, 
  "盛@@": 6600, 
  "筹办": 6601, 
  "+": 6602, 
  "二000年二@@": 6603, 
  "萨@@": 6604, 
  "ur@@": 6605, 
  "赏": 6606, 
  "鹰": 6607, 
  "构筑物": 6608, 
  "电脑系统": 6609, 
  "快乐": 6610, 
  "至为": 6611, 
  "杜@@": 6612, 
  "常见": 6613, 
  "雷达": 6614, 
  "国际@@": 6615, 
  "杂": 6616, 
  "比重": 6617, 
  "特惠": 6618, 
  "陆路": 6619, 
  "递": 6620, 
  "纸@@": 6621, 
  "事主": 6622, 
  "研究报告": 6623, 
  "趣": 6624, 
  "信用卡": 6625, 
  "预售": 6626, 
  "雪@@": 6627, 
  "一九九三年": 6628, 
  "燕": 6629, 
  "越@@": 6630, 
  "对于": 6631, 
  "商号": 6632, 
  "借口": 6633, 
  "细则": 6634, 
  "太平": 6635, 
  "唐@@": 6636, 
  "寄@@": 6637, 
  "果@@": 6638, 
  "愈来愈": 6639, 
  "幼": 6640, 
  "较少": 6641, 
  "蒙": 6642, 
  "服务队": 6643, 
  "划定": 6644, 
  "之所以": 6645, 
  "疑虑": 6646, 
  "空中": 6647, 
  "判@@": 6648, 
  "细@@": 6649, 
  "耳@@": 6650, 
  "ment": 6651, 
  "又要": 6652, 
  "支票": 6653, 
  "长久": 6654, 
  "哲学": 6655, 
  "概括": 6656, 
  "休@@": 6657, 
  "沉重": 6658, 
  "驾车": 6659, 
  "畜": 6660, 
  "大堂": 6661, 
  "行政院": 6662, 
  "雄@@": 6663, 
  "农产品": 6664, 
  "大桥": 6665, 
  "楼花": 6666, 
  "01": 6667, 
  "更@@": 6668, 
  "约束": 6669, 
  "日间": 6670, 
  "/96": 6671, 
  "由此可见": 6672, 
  "锦@@": 6673, 
  "挖": 6674, 
  "新疆": 6675, 
  "粒": 6676, 
  "2A": 6677, 
  "归@@": 6678, 
  "拒": 6679, 
  "市@@": 6680, 
  "董事会": 6681, 
  "全数": 6682, 
  "盐类": 6683, 
  "还@@": 6684, 
  "饲养": 6685, 
  "巧": 6686, 
  "浮": 6687, 
  "万个": 6688, 
  "偶": 6689, 
  "日渐": 6690, 
  "总局": 6691, 
  "五万@@": 6692, 
  "分销": 6693, 
  "匪": 6694, 
  "托@@": 6695, 
  "郊": 6696, 
  "饰": 6697, 
  "聚": 6698, 
  "经济活动": 6699, 
  "赵": 6700, 
  "由此": 6701, 
  "单程": 6702, 
  "降@@": 6703, 
  "帝": 6704, 
  "说是": 6705, 
  "被迫": 6706, 
  "事物": 6707, 
  "观看": 6708, 
  "霭": 6709, 
  "轴": 6710, 
  "过半数": 6711, 
  "傍晚": 6712, 
  "ig@@": 6713, 
  "舷": 6714, 
  "景@@": 6715, 
  "3A": 6716, 
  "速@@": 6717, 
  "91": 6718, 
  "屠宰": 6719, 
  "选@@": 6720, 
  "货值": 6721, 
  "考生": 6722, 
  "牌局": 6723, 
  "即@@": 6724, 
  "1972年": 6725, 
  "面向": 6726, 
  "退出": 6727, 
  "选定": 6728, 
  "三十七": 6729, 
  "桥梁": 6730, 
  "an": 6731, 
  "邱": 6732, 
  "路上": 6733, 
  "禁": 6734, 
  "灾": 6735, 
  "岩": 6736, 
  "赢得": 6737, 
  "分隔": 6738, 
  "志愿": 6739, 
  "物种": 6740, 
  "资料显示": 6741, 
  "梁锦": 6742, 
  "肠": 6743, 
  "港澳": 6744, 
  "团员": 6745, 
  "解散": 6746, 
  "体制改革": 6747, 
  "鼓@@": 6748, 
  "汲取": 6749, 
  "Mr": 6750, 
  "指令": 6751, 
  "八千": 6752, 
  "U@@": 6753, 
  "一百六十@@": 6754, 
  "直升机": 6755, 
  "跑马地": 6756, 
  "张文光": 6757, 
  "楼@@": 6758, 
  "﹚": 6759, 
  "扩散": 6760, 
  "患者": 6761, 
  "美术": 6762, 
  "淡": 6763, 
  "ou@@": 6764, 
  "二点@@": 6765, 
  "填补": 6766, 
  "手头": 6767, 
  "七点@@": 6768, 
  "四十一": 6769, 
  "逃犯": 6770, 
  "仓": 6771, 
  "西部地区": 6772, 
  "信件": 6773, 
  "招@@": 6774, 
  "运动员": 6775, 
  "第一届": 6776, 
  "绘画": 6777, 
  "上课": 6778, 
  "记忆": 6779, 
  "陶": 6780, 
  "支@@": 6781, 
  "貌": 6782, 
  "怪": 6783, 
  "一九九二年": 6784, 
  "招牌": 6785, 
  "得知": 6786, 
  "三万": 6787, 
  "阁": 6788, 
  "产地": 6789, 
  "卫@@": 6790, 
  "诊": 6791, 
  "电气": 6792, 
  "享用": 6793, 
  "上周": 6794, 
  "L": 6795, 
  "若@@": 6796, 
  "手册": 6797, 
  "正当": 6798, 
  "纳@@": 6799, 
  "口岸": 6800, 
  "某种": 6801, 
  "枚": 6802, 
  "销毁": 6803, 
  "简报": 6804, 
  "解雇": 6805, 
  "93": 6806, 
  "过来": 6807, 
  "诗@@": 6808, 
  "从此": 6809, 
  "意欲": 6810, 
  "80@@": 6811, 
  "书院": 6812, 
  "4个": 6813, 
  "偿": 6814, 
  "+@@": 6815, 
  "拖延": 6816, 
  "针": 6817, 
  "毒@@": 6818, 
  "修理": 6819, 
  "触@@": 6820, 
  "70@@": 6821, 
  "晚宴": 6822, 
  "俗": 6823, 
  "用品": 6824, 
  "补@@": 6825, 
  "融合": 6826, 
  "﹙": 6827, 
  "痛@@": 6828, 
  "执": 6829, 
  "弄": 6830, 
  "亲身": 6831, 
  "缓和": 6832, 
  "牵@@": 6833, 
  "潘": 6834, 
  "相似": 6835, 
  "脑": 6836, 
  "内政": 6837, 
  "扫@@": 6838, 
  "迫切": 6839, 
  "水库": 6840, 
  "企业家": 6841, 
  "其它": 6842, 
  "还可以": 6843, 
  "补选": 6844, 
  "驻军": 6845, 
  "复兴": 6846, 
  "奇怪": 6847, 
  "牺牲": 6848, 
  "人家": 6849, 
  "居留": 6850, 
  "汇票": 6851, 
  "鲁": 6852, 
  "过度": 6853, 
  "祖@@": 6854, 
  "百分之二": 6855, 
  "面貌": 6856, 
  "第三次": 6857, 
  "出去": 6858, 
  "种@@": 6859, 
  "车厢": 6860, 
  "人大常委会": 6861, 
  "铜": 6862, 
  "进出": 6863, 
  "版本": 6864, 
  "乡@@": 6865, 
  "簿": 6866, 
  "访客": 6867, 
  "指控": 6868, 
  "真确": 6869, 
  "恐怖": 6870, 
  "亲属": 6871, 
  "氯": 6872, 
  "研制": 6873, 
  "攻@@": 6874, 
  "临立会": 6875, 
  "官立": 6876, 
  "救生筏": 6877, 
  "忘": 6878, 
  "反华": 6879, 
  "齐@@": 6880, 
  "成员国": 6881, 
  "国旗": 6882, 
  "快捷": 6883, 
  "二零零二@@": 6884, 
  "讲述": 6885, 
  "二零零一@@": 6886, 
  "幼@@": 6887, 
  "徒": 6888, 
  "火车": 6889, 
  "数学": 6890, 
  "九五": 6891, 
  "成人": 6892, 
  "与否": 6893, 
  "回升": 6894, 
  "高技术": 6895, 
  "币": 6896, 
  "仍须": 6897, 
  "宇": 6898, 
  "旅@@": 6899, 
  "百分之一": 6900, 
  "^": 6901, 
  "尾@@": 6902, 
  "轨道": 6903, 
  "扶": 6904, 
  "规@@": 6905, 
  "笔@@": 6906, 
  "阳@@": 6907, 
  "欠缺": 6908, 
  "弹@@": 6909, 
  "自治区": 6910, 
  "航线": 6911, 
  "1亿": 6912, 
  "七日": 6913, 
  "专业知识": 6914, 
  "88": 6915, 
  "能@@": 6916, 
  "英雄": 6917, 
  "半价": 6918, 
  "大事": 6919, 
  "八百": 6920, 
  "王伟": 6921, 
  "洪@@": 6922, 
  "肩负": 6923, 
  "足球": 6924, 
  "一块": 6925, 
  "三分之一": 6926, 
  "年十二@@": 6927, 
  "办@@": 6928, 
  "三大": 6929, 
  "拟定": 6930, 
  "现今": 6931, 
  "地理": 6932, 
  "能为": 6933, 
  "翼": 6934, 
  "学徒": 6935, 
  "一百五十@@": 6936, 
  "价钱": 6937, 
  "智能": 6938, 
  "益": 6939, 
  "九八年@@": 6940, 
  "抽取": 6941, 
  "5000": 6942, 
  "桌": 6943, 
  "深受": 6944, 
  "下令": 6945, 
  "势头": 6946, 
  "穿梭": 6947, 
  "脱离": 6948, 
  "匙": 6949, 
  "贫困": 6950, 
  "奥@@": 6951, 
  "咪": 6952, 
  "羊": 6953, 
  "欧美": 6954, 
  "剧场": 6955, 
  "四月份": 6956, 
  "二月份": 6957, 
  "渔@@": 6958, 
  "来访": 6959, 
  "大师": 6960, 
  "日本人": 6961, 
  "邝其志": 6962, 
  "品@@": 6963, 
  "蒙@@": 6964, 
  "毕竟": 6965, 
  "无力": 6966, 
  "贫穷": 6967, 
  "刘千石": 6968, 
  "谋求": 6969, 
  "否定": 6970, 
  "晓": 6971, 
  "严肃": 6972, 
  "毗邻": 6973, 
  "淡@@": 6974, 
  "郭@@": 6975, 
  "观赏": 6976, 
  "步@@": 6977, 
  "突@@": 6978, 
  "侦察": 6979, 
  "苏联": 6980, 
  "解答": 6981, 
  "待@@": 6982, 
  "展@@": 6983, 
  "危": 6984, 
  "附录": 6985, 
  "出国": 6986, 
  "军人": 6987, 
  "纪@@": 6988, 
  "总体": 6989, 
  "波动": 6990, 
  "(C)": 6991, 
  "享": 6992, 
  "as@@": 6993, 
  "常会": 6994, 
  "国际组织": 6995, 
  "设法": 6996, 
  "or": 6997, 
  "录影带": 6998, 
  "m": 6999, 
  "美化": 7000, 
  "很高": 7001, 
  "六月三十日": 7002, 
  "可使用": 7003, 
  "缩减": 7004, 
  "密集": 7005, 
  "骗案": 7006, 
  "长达": 7007, 
  "试图": 7008, 
  "资产负债表": 7009, 
  "年十@@": 7010, 
  "〉": 7011, 
  "露天": 7012, 
  "火灾": 7013, 
  "之道": 7014, 
  "筹": 7015, 
  "新型": 7016, 
  "户外": 7017, 
  "床位": 7018, 
  "望@@": 7019, 
  "留学生": 7020, 
  "甘@@": 7021, 
  "不安": 7022, 
  "解放": 7023, 
  "康@@": 7024, 
  "捐": 7025, 
  "pl@@": 7026, 
  "瑝": 7027, 
  "曾@@": 7028, 
  "新闻处": 7029, 
  "按钮": 7030, 
  "补贴": 7031, 
  "元首": 7032, 
  "酒精": 7033, 
  "办学": 7034, 
  "导@@": 7035, 
  "家里": 7036, 
  "一亿@@": 7037, 
  "如是": 7038, 
  "奔@@": 7039, 
  "适@@": 7040, 
  "不只是": 7041, 
  "谅解": 7042, 
  "禁@@": 7043, 
  "镜": 7044, 
  "外劳": 7045, 
  "考@@": 7046, 
  "小姐": 7047, 
  "便@@": 7048, 
  "地球": 7049, 
  "标题": 7050, 
  "公元": 7051, 
  "为数": 7052, 
  "售票处": 7053, 
  "2003年": 7054, 
  "见面": 7055, 
  "酮": 7056, 
  "最@@": 7057, 
  "不对": 7058, 
  "2亿": 7059, 
  "容忍": 7060, 
  "意味": 7061, 
  "蛋": 7062, 
  "曾俊华": 7063, 
  "纹": 7064, 
  "视野": 7065, 
  "积@@": 7066, 
  "济": 7067, 
  "饮食业": 7068, 
  "申述": 7069, 
  "五亿": 7070, 
  "大自然": 7071, 
  "奥": 7072, 
  "1976年": 7073, 
  "服装": 7074, 
  "雕": 7075, 
  "携": 7076, 
  "优异": 7077, 
  "影响力": 7078, 
  "慧": 7079, 
  "携手": 7080, 
  "行列": 7081, 
  "应对": 7082, 
  "男@@": 7083, 
  "白色": 7084, 
  "杆": 7085, 
  "明朗": 7086, 
  "荣誉": 7087, 
  "曼": 7088, 
  "呼": 7089, 
  "便宜": 7090, 
  "岛内": 7091, 
  "领土完整": 7092, 
  "性能": 7093, 
  "筹款": 7094, 
  "辛@@": 7095, 
  "棋": 7096, 
  "术": 7097, 
  "慢慢": 7098, 
  "种族": 7099, 
  "家族": 7100, 
  "烧@@": 7101, 
  "em@@": 7102, 
  "路段": 7103, 
  "4月@@": 7104, 
  "收购": 7105, 
  "敬@@": 7106, 
  "尽速": 7107, 
  "酒会": 7108, 
  "树立": 7109, 
  "城@@": 7110, 
  "短暂": 7111, 
  "关税": 7112, 
  "相连": 7113, 
  "官@@": 7114, 
  "合力": 7115, 
  "通用": 7116, 
  "畅@@": 7117, 
  "暗@@": 7118, 
  "元素": 7119, 
  "脚@@": 7120, 
  "叫@@": 7121, 
  "海水": 7122, 
  "东盟": 7123, 
  "政局": 7124, 
  "衍生": 7125, 
  "太空": 7126, 
  "丽@@": 7127, 
  "高峰": 7128, 
  "侨": 7129, 
  "贫富": 7130, 
  "1至@@": 7131, 
  "缔约国": 7132, 
  "生长": 7133, 
  "产量": 7134, 
  "百分之五十@@": 7135, 
  "中央@@": 7136, 
  "着@@": 7137, 
  "全军": 7138, 
  "众所周知": 7139, 
  "当初": 7140, 
  "纪律处分": 7141, 
  "休会": 7142, 
  "景观": 7143, 
  "二十万": 7144, 
  "单独": 7145, 
  "客家": 7146, 
  "世界和平": 7147, 
  "am@@": 7148, 
  "其内": 7149, 
  "肉类": 7150, 
  "绿@@": 7151, 
  "10月": 7152, 
  "梁@@": 7153, 
  "很可能": 7154, 
  "槽": 7155, 
  "刊载": 7156, 
  "只限": 7157, 
  "83": 7158, 
  "蔓延": 7159, 
  "一九九五年@@": 7160, 
  "陷": 7161, 
  "剑": 7162, 
  "纪念封": 7163, 
  "锡": 7164, 
  "求助": 7165, 
  "tion": 7166, 
  "四十七": 7167, 
  "下午二时三十分": 7168, 
  "联邦": 7169, 
  "犬": 7170, 
  "远远": 7171, 
  "墨": 7172, 
  "瓜": 7173, 
  "北部": 7174, 
  "距": 7175, 
  "古代": 7176, 
  "蓝图": 7177, 
  "模拟": 7178, 
  "六十五": 7179, 
  "千年": 7180, 
  "环@@": 7181, 
  "应急": 7182, 
  "延迟": 7183, 
  "骂": 7184, 
  "客人": 7185, 
  "违规": 7186, 
  "意志": 7187, 
  "日至十@@": 7188, 
  "订购": 7189, 
  "宣扬": 7190, 
  "讲解": 7191, 
  "衡": 7192, 
  "每@@": 7193, 
  "夫妇": 7194, 
  "宾馆": 7195, 
  "寺": 7196, 
  "抢@@": 7197, 
  "十足": 7198, 
  "寿": 7199, 
  "工夫": 7200, 
  "电车": 7201, 
  "继@@": 7202, 
  "身材": 7203, 
  "致使": 7204, 
  "天地": 7205, 
  "论@@": 7206, 
  "In@@": 7207, 
  "冰@@": 7208, 
  "相继": 7209, 
  "收容": 7210, 
  "芵": 7211, 
  "杨森": 7212, 
  "百分之四点@@": 7213, 
  "新台币": 7214, 
  "休闲": 7215, 
  "前面": 7216, 
  "赶": 7217, 
  "程介南": 7218, 
  "获选": 7219, 
  "抢": 7220, 
  "厨房": 7221, 
  "400": 7222, 
  "裁员": 7223, 
  "展现": 7224, 
  "宣言": 7225, 
  "视@@": 7226, 
  "淫亵": 7227, 
  "疫": 7228, 
  "讯问": 7229, 
  "百分之八十@@": 7230, 
  "俊": 7231, 
  "金字": 7232, 
  "自豪": 7233, 
  "历来": 7234, 
  "工业@@": 7235, 
  "缺席": 7236, 
  "达赖": 7237, 
  "插@@": 7238, 
  "扩建": 7239, 
  "逻辑": 7240, 
  "纲要": 7241, 
  "邮@@": 7242, 
  "航天": 7243, 
  "慈": 7244, 
  "电视节目": 7245, 
  "监测": 7246, 
  "航@@": 7247, 
  "军方": 7248, 
  "百分之三": 7249, 
  "操": 7250, 
  "0000": 7251, 
  "效应": 7252, 
  "进取": 7253, 
  "谈论": 7254, 
  "帽": 7255, 
  "顶@@": 7256, 
  "依@@": 7257, 
  "居@@": 7258, 
  "一流": 7259, 
  "鲍威尔": 7260, 
  "邪教组织": 7261, 
  "校@@": 7262, 
  "外币": 7263, 
  "第十": 7264, 
  "五百万": 7265, 
  "孤@@": 7266, 
  "9月": 7267, 
  "J@@": 7268, 
  "占地": 7269, 
  "纵@@": 7270, 
  "题目": 7271, 
  "腾": 7272, 
  "忍": 7273, 
  "茂": 7274, 
  "月十@@": 7275, 
  "优@@": 7276, 
  "认知": 7277, 
  "戏@@": 7278, 
  "嘴": 7279, 
  "演练": 7280, 
  "航班": 7281, 
  "极端": 7282, 
  "陆@@": 7283, 
  "怀@@": 7284, 
  "跨国": 7285, 
  "女人": 7286, 
  "台海": 7287, 
  "寮": 7288, 
  "机密": 7289, 
  "阳光": 7290, 
  "执@@": 7291, 
  "行李": 7292, 
  "边界": 7293, 
  "请@@": 7294, 
  "尼亚": 7295, 
  "辛苦": 7296, 
  "零点二": 7297, 
  "勒索": 7298, 
  "时五十分": 7299, 
  "供@@": 7300, 
  "处处": 7301, 
  "历程": 7302, 
  "网@@": 7303, 
  "奥运": 7304, 
  "率先": 7305, 
  "收受": 7306, 
  "吹": 7307, 
  "养殖": 7308, 
  "闪@@": 7309, 
  "赚钱": 7310, 
  "窃": 7311, 
  "一九九九年@@": 7312, 
  "二四@@": 7313, 
  "无权": 7314, 
  "唱@@": 7315, 
  "三十万": 7316, 
  "强度": 7317, 
  "晋升": 7318, 
  "索@@": 7319, 
  "时四十分": 7320, 
  "百分之七点@@": 7321, 
  "莲": 7322, 
  "150": 7323, 
  "旗@@": 7324, 
  "副部长": 7325, 
  "亨": 7326, 
  "来年": 7327, 
  "案@@": 7328, 
  "地铁站": 7329, 
  "1978年": 7330, 
  "妇": 7331, 
  "记名": 7332, 
  "&": 7333, 
  "狂@@": 7334, 
  "遏止": 7335, 
  "改装": 7336, 
  "份子": 7337, 
  "缔约": 7338, 
  "升级": 7339, 
  "赛事": 7340, 
  "消": 7341, 
  "壮@@": 7342, 
  "张建": 7343, 
  "剥夺": 7344, 
  "何敏嘉": 7345, 
  "到场": 7346, 
  "86": 7347, 
  "每当": 7348, 
  "50%": 7349, 
  "民意调查": 7350, 
  "抵销": 7351, 
  "东部": 7352, 
  "聚@@": 7353, 
  "军售": 7354, 
  "资料库": 7355, 
  "摄氏": 7356, 
  "皮@@": 7357, 
  "研发": 7358, 
  "支柱": 7359, 
  "抓紧": 7360, 
  "母@@": 7361, 
  "罗祥国": 7362, 
  "互利": 7363, 
  "自付": 7364, 
  "特性": 7365, 
  "等级": 7366, 
  "巴黎": 7367, 
  "九九年": 7368, 
  "可观": 7369, 
  "百分率": 7370, 
  "将@@": 7371, 
  "从业员": 7372, 
  "钟@@": 7373, 
  "瓦": 7374, 
  "时报": 7375, 
  "制成": 7376, 
  "框架": 7377, 
  "热闹": 7378, 
  "完工": 7379, 
  "青年人": 7380, 
  "梅@@": 7381, 
  "常任": 7382, 
  "停牌": 7383, 
  "暴露": 7384, 
  "少@@": 7385, 
  "既有": 7386, 
  "文化@@": 7387, 
  "建议书": 7388, 
  "教育制度": 7389, 
  "根@@": 7390, 
  "新闻@@": 7391, 
  "硫": 7392, 
  "二零零零@@": 7393, 
  "延伸": 7394, 
  "熟": 7395, 
  "原定": 7396, 
  "还将": 7397, 
  "多久": 7398, 
  "着重": 7399, 
  "正正": 7400, 
  "原先": 7401, 
  "印@@": 7402, 
  "热烈欢迎": 7403, 
  "接待": 7404, 
  "ap@@": 7405, 
  "定下": 7406, 
  "无关": 7407, 
  "四年": 7408, 
  "下一代": 7409, 
  "民族@@": 7410, 
  "1974年": 7411, 
  "不需要": 7412, 
  "振兴": 7413, 
  "盈利": 7414, 
  "四十六": 7415, 
  "平稳": 7416, 
  "嘉@@": 7417, 
  "优点": 7418, 
  "注释": 7419, 
  "应是": 7420, 
  "扰": 7421, 
  "名列": 7422, 
  "半岛": 7423, 
  "塔@@": 7424, 
  "所示": 7425, 
  "移@@": 7426, 
  "湖@@": 7427, 
  "挖掘": 7428, 
  "昂贵": 7429, 
  "心灵": 7430, 
  "部落": 7431, 
  "ul@@": 7432, 
  "不法": 7433, 
  "碟": 7434, 
  "缆车": 7435, 
  "部@@": 7436, 
  "姓": 7437, 
  "据此": 7438, 
  "从小": 7439, 
  "频道": 7440, 
  "抛": 7441, 
  "滋生": 7442, 
  "良@@": 7443, 
  "花卉": 7444, 
  "荣@@": 7445, 
  "若要": 7446, 
  "戒": 7447, 
  "报关": 7448, 
  "保单": 7449, 
  "in": 7450, 
  "遴选": 7451, 
  "注入": 7452, 
  "跨越": 7453, 
  "法律上": 7454, 
  "摩@@": 7455, 
  "围@@": 7456, 
  "码": 7457, 
  "宣": 7458, 
  "抚恤金": 7459, 
  "班次": 7460, 
  "晚@@": 7461, 
  "裁断": 7462, 
  "ent@@": 7463, 
  "懂": 7464, 
  "六十六": 7465, 
  "战场": 7466, 
  "生活方式": 7467, 
  "冒": 7468, 
  "短缺": 7469, 
  "记载": 7470, 
  "per@@": 7471, 
  "阴@@": 7472, 
  "同业": 7473, 
  "可谓": 7474, 
  "g": 7475, 
  "师资": 7476, 
  "大门": 7477, 
  "怡": 7478, 
  "24小时": 7479, 
  "JP": 7480, 
  "支线": 7481, 
  "两会": 7482, 
  "一共": 7483, 
  "q": 7484, 
  "勋": 7485, 
  "申请表": 7486, 
  "一九九九": 7487, 
  "2001年@@": 7488, 
  "迄今": 7489, 
  "3亿": 7490, 
  "父": 7491, 
  "卸": 7492, 
  "韩@@": 7493, 
  "肯": 7494, 
  "水密": 7495, 
  "公用": 7496, 
  "开创": 7497, 
  "浮@@": 7498, 
  "伴": 7499, 
  "梨": 7500, 
  "磨@@": 7501, 
  "僭": 7502, 
  "过后": 7503, 
  "颁布": 7504, 
  "蓬勃": 7505, 
  "动工": 7506, 
  "交通@@": 7507, 
  "务@@": 7508, 
  "埃": 7509, 
  "侵略": 7510, 
  "无数": 7511, 
  "百分之": 7512, 
  "简称": 7513, 
  "温和": 7514, 
  "三讲": 7515, 
  "候@@": 7516, 
  "真诚": 7517, 
  "伊@@": 7518, 
  "洁净": 7519, 
  "难得": 7520, 
  "十二个": 7521, 
  "力求": 7522, 
  "长洲": 7523, 
  "感@@": 7524, 
  "21世纪": 7525, 
  "违@@": 7526, 
  "焕": 7527, 
  "用具": 7528, 
  "通信": 7529, 
  "时二十分": 7530, 
  "高出": 7531, 
  "声誉": 7532, 
  "一九九八": 7533, 
  "走上": 7534, 
  "欠佳": 7535, 
  "临@@": 7536, 
  "七成": 7537, 
  "外国人": 7538, 
  "荫": 7539, 
  "掌管": 7540, 
  "朱邦造": 7541, 
  "哈": 7542, 
  "国际标准": 7543, 
  "飞行员": 7544, 
  "富裕": 7545, 
  "辩护": 7546, 
  "教育学院": 7547, 
  "纲": 7548, 
  "几位": 7549, 
  "孩子们": 7550, 
  "祝愿": 7551, 
  "空调": 7552, 
  "振": 7553, 
  "涂": 7554, 
  "宣@@": 7555, 
  "象是": 7556, 
  "通则": 7557, 
  "缺@@": 7558, 
  "下月": 7559, 
  "麻": 7560, 
  "筲箕湾": 7561, 
  "关于": 7562, 
  "迎@@": 7563, 
  "处@@": 7564, 
  "中介": 7565, 
  "修复": 7566, 
  "读@@": 7567, 
  "久@@": 7568, 
  "采@@": 7569, 
  "混合": 7570, 
  "悟": 7571, 
  "吸纳": 7572, 
  "喻": 7573, 
  "中巴": 7574, 
  "新兴": 7575, 
  "大选": 7576, 
  "匪徒": 7577, 
  "奋@@": 7578, 
  "学术界": 7579, 
  "案情": 7580, 
  "住宿": 7581, 
  "阶级": 7582, 
  "日至@@": 7583, 
  "村@@": 7584, 
  "意大利": 7585, 
  "板@@": 7586, 
  "知会": 7587, 
  "国防部长": 7588, 
  "收支": 7589, 
  "塞@@": 7590, 
  "造型": 7591, 
  "th@@": 7592, 
  "安全@@": 7593, 
  "盐": 7594, 
  "献@@": 7595, 
  "血液": 7596, 
  "三年": 7597, 
  "新闻稿": 7598, 
  "VII": 7599, 
  "程式": 7600, 
  "周德熙": 7601, 
  "节日": 7602, 
  "4亿": 7603, 
  "地上": 7604, 
  "特遣队": 7605, 
  "刻意": 7606, 
  "短片": 7607, 
  "弹药": 7608, 
  "东北": 7609, 
  "史@@": 7610, 
  "雨水": 7611, 
  "五四": 7612, 
  "森林": 7613, 
  "逃": 7614, 
  "自觉": 7615, 
  "保守": 7616, 
  "实事求是": 7617, 
  "拔": 7618, 
  "说到": 7619, 
  "辐射": 7620, 
  "全国人民代表大会": 7621, 
  "我自己": 7622, 
  "35@@": 7623, 
  "动机": 7624, 
  "延展": 7625, 
  "翻": 7626, 
  "葬": 7627, 
  "当代": 7628, 
  "判定": 7629, 
  "壮": 7630, 
  "愉快": 7631, 
  "运输业": 7632, 
  "多大": 7633, 
  "舒适": 7634, 
  "零点@@": 7635, 
  "原意": 7636, 
  "陷入": 7637, 
  "W": 7638, 
  "浓度": 7639, 
  "住院": 7640, 
  "视觉": 7641, 
  "偷渡": 7642, 
  "延期": 7643, 
  "第二十三": 7644, 
  "增添": 7645, 
  "违背": 7646, 
  "出路": 7647, 
  "有意义": 7648, 
  "缩": 7649, 
  "om@@": 7650, 
  "华裔": 7651, 
  "既是": 7652, 
  "年会": 7653, 
  "诉求": 7654, 
  "198@@": 7655, 
  "驶入": 7656, 
  "免除": 7657, 
  "奎": 7658, 
  "球@@": 7659, 
  "古物": 7660, 
  "体会": 7661, 
  "拘留": 7662, 
  "套@@": 7663, 
  "迟浩田": 7664, 
  "希@@": 7665, 
  "权限": 7666, 
  "慎": 7667, 
  "七百": 7668, 
  "外面": 7669, 
  "菜@@": 7670, 
  "之路": 7671, 
  "缔造": 7672, 
  "行之有效": 7673, 
  "si@@": 7674, 
  "建筑师": 7675, 
  "1979年": 7676, 
  "爷": 7677, 
  "取决": 7678, 
  "公厕": 7679, 
  "预告": 7680, 
  "and": 7681, 
  "向来": 7682, 
  "胜@@": 7683, 
  "总面积": 7684, 
  "烧腊": 7685, 
  "总共": 7686, 
  "逼": 7687, 
  "严谨": 7688, 
  "生产@@": 7689, 
  "社群": 7690, 
  "摊": 7691, 
  "不稳定": 7692, 
  "险": 7693, 
  "爸爸": 7694, 
  "填@@": 7695, 
  "脑@@": 7696, 
  "一般来说": 7697, 
  "筹划": 7698, 
  "3月@@": 7699, 
  "中央军委": 7700, 
  "最早": 7701, 
  "拖@@": 7702, 
  "见证": 7703, 
  "教育界": 7704, 
  "方的": 7705, 
  "福建": 7706, 
  "谈一谈": 7707, 
  "裔": 7708, 
  "日至二十@@": 7709, 
  "明知": 7710, 
  "外围": 7711, 
  "第一步": 7712, 
  "譬如": 7713, 
  "菌": 7714, 
  "旅馆": 7715, 
  "绝大部分": 7716, 
  "十一月": 7717, 
  "首都": 7718, 
  "6月@@": 7719, 
  "90@@": 7720, 
  "7日": 7721, 
  "国庆": 7722, 
  "剧团": 7723, 
  "侨@@": 7724, 
  "6月": 7725, 
  "1996年@@": 7726, 
  "45@@": 7727, 
  "实际情况": 7728, 
  "一九四@@": 7729, 
  "司法人员": 7730, 
  "梳": 7731, 
  "收藏": 7732, 
  "才@@": 7733, 
  "四十九": 7734, 
  "寒@@": 7735, 
  "仓库": 7736, 
  "坐@@": 7737, 
  "奥运会": 7738, 
  "政治权利": 7739, 
  "hk": 7740, 
  "散@@": 7741, 
  "礁": 7742, 
  "龟": 7743, 
  "盛事": 7744, 
  "认@@": 7745, 
  "唐英": 7746, 
  "7月@@": 7747, 
  "特质": 7748, 
  "簿册": 7749, 
  "政治局": 7750, 
  "图书": 7751, 
  "股本": 7752, 
  "衣服": 7753, 
  "楼梯": 7754, 
  "腐@@": 7755, 
  "卢@@": 7756, 
  "得不到": 7757, 
  "习": 7758, 
  "月刊": 7759, 
  "高级人员": 7760, 
  "舱室": 7761, 
  "士气": 7762, 
  "审判": 7763, 
  "事后": 7764, 
  "均衡": 7765, 
  "鲜": 7766, 
  "运行": 7767, 
  "副局长": 7768, 
  "孝": 7769, 
  "嘉许": 7770, 
  "八点@@": 7771, 
  "存档": 7772, 
  "本报": 7773, 
  "欺@@": 7774, 
  "几天": 7775, 
  "摊档": 7776, 
  "将对": 7777, 
  "年十一@@": 7778, 
  "眼光": 7779, 
  "倾@@": 7780, 
  "交响乐团": 7781, 
  "巴基斯坦": 7782, 
  "告@@": 7783, 
  "气温": 7784, 
  "2001": 7785, 
  "房子": 7786, 
  "意向": 7787, 
  "作证": 7788, 
  "不肯": 7789, 
  "蓄": 7790, 
  "夏@@": 7791, 
  "涨": 7792, 
  "实验室": 7793, 
  "修葺": 7794, 
  "赫": 7795, 
  "制成品": 7796, 
  "厦门": 7797, 
  "头部": 7798, 
  "看不到": 7799, 
  "雅@@": 7800, 
  "共产党": 7801, 
  "了解到": 7802, 
  "一律": 7803, 
  "个@@": 7804, 
  "未曾": 7805, 
  "法定人数": 7806, 
  "百分之四": 7807, 
  "发还": 7808, 
  "权威": 7809, 
  "透": 7810, 
  "对外开放": 7811, 
  "国内外": 7812, 
  "发动": 7813, 
  "点名": 7814, 
  "一百五十": 7815, 
  "五至@@": 7816, 
  "博览": 7817, 
  "兑换": 7818, 
  "无行为能力": 7819, 
  "应邀": 7820, 
  "无需": 7821, 
  "默@@": 7822, 
  "不见": 7823, 
  "认识到": 7824, 
  "辩": 7825, 
  "确有": 7826, 
  "黄色": 7827, 
  "一篇": 7828, 
  "1970年": 7829, 
  "终结": 7830, 
  "20%": 7831, 
  "韦": 7832, 
  "宾": 7833, 
  "帆": 7834, 
  "商议": 7835, 
  "前所未有": 7836, 
  "辈": 7837, 
  "岁月": 7838, 
  "不合": 7839, 
  "港台": 7840, 
  "和解": 7841, 
  "回避": 7842, 
  "震": 7843, 
  "席位": 7844, 
  "卫生@@": 7845, 
  "婴": 7846, 
  "五十五": 7847, 
  "南韩": 7848, 
  "裕": 7849, 
  "移植": 7850, 
  "贩": 7851, 
  "已达": 7852, 
  "私有化": 7853, 
  "朴": 7854, 
  "七千": 7855, 
  "紫@@": 7856, 
  "兵@@": 7857, 
  "瑞士": 7858, 
  "棵": 7859, 
  "诈骗": 7860, 
  "后勤": 7861, 
  "防范": 7862, 
  "看过": 7863, 
  "下午@@": 7864, 
  "素@@": 7865, 
  "灵活性": 7866, 
  "通行证": 7867, 
  "内在": 7868, 
  "骑": 7869, 
  "榄": 7870, 
  "答应": 7871, 
  "1973年": 7872, 
  "兹": 7873, 
  "细菌": 7874, 
  "(k)": 7875, 
  "不及": 7876, 
  "所长": 7877, 
  "10000": 7878, 
  "枢纽": 7879, 
  "锁": 7880, 
  "最后的": 7881, 
  "蒙受": 7882, 
  "拍@@": 7883, 
  "老化": 7884, 
  "良多": 7885, 
  "杀@@": 7886, 
  "强迫": 7887, 
  "绝大多数": 7888, 
  "那种": 7889, 
  "文凭": 7890, 
  "命@@": 7891, 
  "认购": 7892, 
  "好转": 7893, 
  "联网": 7894, 
  "国语": 7895, 
  "违纪": 7896, 
  "贞": 7897, 
  "昂": 7898, 
  "立委": 7899, 
  "侦察机": 7900, 
  "与@@": 7901, 
  "连串": 7902, 
  "扫荡": 7903, 
  "搬迁": 7904, 
  "传说": 7905, 
  "日常生活": 7906, 
  "交还": 7907, 
  "奉@@": 7908, 
  "倡议": 7909, 
  "墨西哥": 7910, 
  "审计署": 7911, 
  "不算": 7912, 
  "这@@": 7913, 
  "避@@": 7914, 
  "梦想": 7915, 
  "缓@@": 7916, 
  "癌症": 7917, 
  "诚实": 7918, 
  "骆": 7919, 
  "吨位": 7920, 
  "吁请": 7921, 
  "法律界": 7922, 
  "目击": 7923, 
  "历史性": 7924, 
  "扩充": 7925, 
  "部长级": 7926, 
  "浅": 7927, 
  "特快专递": 7928, 
  "想要": 7929, 
  "往@@": 7930, 
  "沿用": 7931, 
  "导师": 7932, 
  "大浪湾": 7933, 
  "升学": 7934, 
  "极其": 7935, 
  "7月": 7936, 
  "豪": 7937, 
  "沿海": 7938, 
  "撤@@": 7939, 
  "遍": 7940, 
  "凯": 7941, 
  "局部": 7942, 
  "意念": 7943, 
  "单方面": 7944, 
  "到处": 7945, 
  "九九年@@": 7946, 
  "1975年": 7947, 
  "灰": 7948, 
  "如期": 7949, 
  "丰@@": 7950, 
  "多媒体": 7951, 
  "一九九七@@": 7952, 
  "函": 7953, 
  "21@@": 7954, 
  "600": 7955, 
  "同日": 7956, 
  "研究中心": 7957, 
  "奠定": 7958, 
  "鸣": 7959, 
  "只@@": 7960, 
  "七十五": 7961, 
  "顾@@": 7962, 
  "6亿": 7963, 
  "也好": 7964, 
  "九点@@": 7965, 
  "眼前": 7966, 
  "巷": 7967, 
  "订下": 7968, 
  "演@@": 7969, 
  "翁": 7970, 
  "肉@@": 7971, 
  "长大": 7972, 
  "世界卫生组织": 7973, 
  "ity": 7974, 
  "六年": 7975, 
  "15分钟": 7976, 
  "获@@": 7977, 
  "睦邻": 7978, 
  "插": 7979, 
  "珍惜": 7980, 
  "充份": 7981, 
  "念@@": 7982, 
  "淡水": 7983, 
  "妥当": 7984, 
  "轻易": 7985, 
  "订出": 7986, 
  "1月1日": 7987, 
  "大局": 7988, 
  "乌": 7989, 
  "超速": 7990, 
  "正义": 7991, 
  "章@@": 7992, 
  "刻@@": 7993, 
  "稳妥": 7994, 
  "怎样的": 7995, 
  "不出": 7996, 
  "马上": 7997, 
  "大使馆": 7998, 
  "午餐会": 7999, 
  "管理处": 8000, 
  "植": 8001, 
  "原告": 8002, 
  "六十四": 8003, 
  "加重": 8004, 
  "肺": 8005, 
  "违法行为": 8006, 
  "惟": 8007, 
  "扬@@": 8008, 
  "中午": 8009, 
  "意见书": 8010, 
  "载@@": 8011, 
  "公民权利": 8012, 
  "标@@": 8013, 
  "表现出": 8014, 
  "公务": 8015, 
  "供求": 8016, 
  "席上": 8017, 
  "息息相关": 8018, 
  "此后": 8019, 
  "成因": 8020, 
  "读书": 8021, 
  "挂@@": 8022, 
  "不顾": 8023, 
  "报到": 8024, 
  "梁爱诗": 8025, 
  "挑选": 8026, 
  "货舱": 8027, 
  "看待": 8028, 
  "三三": 8029, 
  "监护人": 8030, 
  "戴@@": 8031, 
  "扑灭": 8032, 
  "九年": 8033, 
  "啦": 8034, 
  "4月": 8035, 
  "莱": 8036, 
  "夫妻": 8037, 
  "精英": 8038, 
  "长沙": 8039, 
  "ra@@": 8040, 
  "党派": 8041, 
  "邮寄": 8042, 
  "主人": 8043, 
  "低收入": 8044, 
  "ir@@": 8045, 
  "不致": 8046, 
  "难题": 8047, 
  "辉煌": 8048, 
  "麻烦": 8049, 
  "二一@@": 8050, 
  "另加": 8051, 
  "300@@": 8052, 
  "其间": 8053, 
  "饼": 8054, 
  "另行": 8055, 
  "二万": 8056, 
  "十二月": 8057, 
  "比利时": 8058, 
  "游乐": 8059, 
  "征@@": 8060, 
  "八达通": 8061, 
  "况": 8062, 
  "浓@@": 8063, 
  "推定": 8064, 
  "人身": 8065, 
  "六十八": 8066, 
  "周末": 8067, 
  "传递": 8068, 
  "供电": 8069, 
  "热线电话": 8070, 
  "剧@@": 8071, 
  "上任": 8072, 
  "上文": 8073, 
  "投注": 8074, 
  "乃至": 8075, 
  "渐渐": 8076, 
  "条@@": 8077, 
  "话题": 8078, 
  "忠告": 8079, 
  "剩余": 8080, 
  "男人": 8081, 
  "一九九八年十二@@": 8082, 
  "来了": 8083, 
  "单纯": 8084, 
  "何处": 8085, 
  "杨耀忠": 8086, 
  "生机": 8087, 
  "国防部": 8088, 
  "BS": 8089, 
  "论据": 8090, 
  "倒退": 8091, 
  "厘米": 8092, 
  "票@@": 8093, 
  "国务卿": 8094, 
  "28日": 8095, 
  "中位数": 8096, 
  "警司": 8097, 
  "夜间": 8098, 
  "兴奋": 8099, 
  "董事长": 8100, 
  "月15日": 8101, 
  "七万@@": 8102, 
  "威尔斯": 8103, 
  "瞩目": 8104, 
  "暖": 8105, 
  "钢@@": 8106, 
  "朱幼麟": 8107, 
  "胺": 8108, 
  "非正式": 8109, 
  "带有": 8110, 
  "开口": 8111, 
  "若是": 8112, 
  "泡": 8113, 
  "全省": 8114, 
  "贝@@": 8115, 
  "慎重": 8116, 
  "年青": 8117, 
  "鹿": 8118, 
  "教会": 8119, 
  "受害者": 8120, 
  "博彩": 8121, 
  "抵押": 8122, 
  "周围": 8123, 
  "有时候": 8124, 
  "按月": 8125, 
  "练兵": 8126, 
  "驱@@": 8127, 
  "监视": 8128, 
  "恩@@": 8129, 
  "咖啡": 8130, 
  "个性": 8131, 
  "喊": 8132, 
  "国际货币基金": 8133, 
  "4,@@": 8134, 
  "皇家": 8135, 
  "谱": 8136, 
  "勤@@": 8137, 
  "港进联": 8138, 
  "转向": 8139, 
  "安理会": 8140, 
  "十月份": 8141, 
  "预约": 8142, 
  "源@@": 8143, 
  "麟": 8144, 
  "吹@@": 8145, 
  "迁@@": 8146, 
  "况且": 8147, 
  "中午十二时": 8148, 
  "佩": 8149, 
  "轻松": 8150, 
  "各行各业": 8151, 
  "荣幸": 8152, 
  "业绩": 8153, 
  "一至@@": 8154, 
  "自然@@": 8155, 
  "囚": 8156, 
  "军用": 8157, 
  "钢琴": 8158, 
  "本国": 8159, 
  "年纪": 8160, 
  "脏": 8161, 
  "欣@@": 8162, 
  "更正": 8163, 
  "百分之六": 8164, 
  "找寻": 8165, 
  "两点": 8166, 
  "幸福": 8167, 
  "尝": 8168, 
  "折扣": 8169, 
  "处境": 8170, 
  "退还": 8171, 
  "害怕": 8172, 
  "学系": 8173, 
  "右@@": 8174, 
  "完税": 8175, 
  "惨@@": 8176, 
  "购置": 8177, 
  "深感": 8178, 
  "潜@@": 8179, 
  "不一样": 8180, 
  "放映": 8181, 
  "曾钰成": 8182, 
  "夏季": 8183, 
  "显示出": 8184, 
  "歌@@": 8185, 
  "作答": 8186, 
  "科学馆": 8187, 
  "只需": 8188, 
  "提前": 8189, 
  "月3日": 8190, 
  "早上@@": 8191, 
  "贮": 8192, 
  "加紧": 8193, 
  "卜": 8194, 
  "3月": 8195, 
  "兴起": 8196, 
  "一把": 8197, 
  "电池": 8198, 
  "gov": 8199, 
  "舵": 8200, 
  "尊@@": 8201, 
  "陆上": 8202, 
  "耕": 8203, 
  "看出": 8204, 
  "us@@": 8205, 
  "夹": 8206, 
  "分行": 8207, 
  "之行": 8208, 
  "敌@@": 8209, 
  "确": 8210, 
  "先行": 8211, 
  "荡": 8212, 
  "杠杆": 8213, 
  "阵@@": 8214, 
  "三亿": 8215, 
  "潭": 8216, 
  "一百八十@@": 8217, 
  "夫@@": 8218, 
  "亮@@": 8219, 
  "记者招待会": 8220, 
  "山顶": 8221, 
  "间@@": 8222, 
  "大幅度": 8223, 
  "开辟": 8224, 
  "五年": 8225, 
  "20日": 8226, 
  "嫌": 8227, 
  "输@@": 8228, 
  "一世纪": 8229, 
  "蓝鸿震": 8230, 
  "贷": 8231, 
  "输送": 8232, 
  "祭": 8233, 
  "缴费": 8234, 
  "心里": 8235, 
  "上载": 8236, 
  "有过": 8237, 
  "同情": 8238, 
  "000@@": 8239, 
  "量@@": 8240, 
  "配件": 8241, 
  "摆脱": 8242, 
  "工作@@": 8243, 
  "蛇": 8244, 
  "84": 8245, 
  "颇为": 8246, 
  "吴荣": 8247, 
  "燃烧": 8248, 
  "闹": 8249, 
  "喜爱": 8250, 
  "救护": 8251, 
  "数百": 8252, 
  "第三者": 8253, 
  "功夫": 8254, 
  "一般性": 8255, 
  "嘉利": 8256, 
  "平方": 8257, 
  "国情": 8258, 
  "内外": 8259, 
  "遭遇": 8260, 
  "急救": 8261, 
  "无奈": 8262, 
  "流失": 8263, 
  "混@@": 8264, 
  "较小": 8265, 
  "整顿": 8266, 
  "ate": 8267, 
  "戒@@": 8268, 
  "佩@@": 8269, 
  "凉": 8270, 
  "人口普查": 8271, 
  "有线电视": 8272, 
  "薛": 8273, 
  "用水": 8274, 
  "党委": 8275, 
  "名下": 8276, 
  "边缘": 8277, 
  "衣物": 8278, 
  "立法院": 8279, 
  "交谈": 8280, 
  "受聘": 8281, 
  "盗窃": 8282, 
  "佣金": 8283, 
  "诞生": 8284, 
  "左@@": 8285, 
  "接着": 8286, 
  "通报": 8287, 
  "/97": 8288, 
  "把@@": 8289, 
  "牟利": 8290, 
  "<": 8291, 
  "要约": 8292, 
  "产权": 8293, 
  "中外": 8294, 
  "用心": 8295, 
  "稳定性": 8296, 
  "科学家": 8297, 
  "有着": 8298, 
  "遥@@": 8299, 
  "对策": 8300, 
  "据说": 8301, 
  "群@@": 8302, 
  "大专院校": 8303, 
  "工地": 8304, 
  "何况": 8305, 
  "一零@@": 8306, 
  "障": 8307, 
  "领事馆": 8308, 
  "住所": 8309, 
  "弱势": 8310, 
  "列表": 8311, 
  "秀@@": 8312, 
  "校董": 8313, 
  "人心": 8314, 
  "灭火器": 8315, 
  "变更": 8316, 
  "竭尽": 8317, 
  "期满": 8318, 
  "拜@@": 8319, 
  "工艺": 8320, 
  "领先": 8321, 
  "禁制": 8322, 
  "战斗力": 8323, 
  "缺": 8324, 
  "任@@": 8325, 
  "往返": 8326, 
  "一九九一年": 8327, 
  "射@@": 8328, 
  "疲弱": 8329, 
  "东道": 8330, 
  "忧@@": 8331, 
  "出境": 8332, 
  "欧@@": 8333, 
  "四亿@@": 8334, 
  "蚊子": 8335, 
  "天主教": 8336, 
  "聚集": 8337, 
  "滥@@": 8338, 
  "132": 8339, 
  "一层": 8340, 
  "科学技术": 8341, 
  "台中": 8342, 
  "约束力": 8343, 
  "鱲": 8344, 
  "课本": 8345, 
  "人和": 8346, 
  "隶属": 8347, 
  "熟食": 8348, 
  "濒危": 8349, 
  "登记处": 8350, 
  "八日": 8351, 
  "抢修": 8352, 
  "服务@@": 8353, 
  "被@@": 8354, 
  "丝@@": 8355, 
  "变为": 8356, 
  "哲": 8357, 
  "时三十分至@@": 8358, 
  "迎": 8359, 
  "194@@": 8360, 
  "找不到": 8361, 
  "拿@@": 8362, 
  "深表": 8363, 
  "中断": 8364, 
  "教务": 8365, 
  "五一": 8366, 
  "违": 8367, 
  "伞": 8368, 
  "专业人员": 8369, 
  "ent": 8370, 
  "等人": 8371, 
  "800": 8372, 
  "弃权": 8373, 
  "桂": 8374, 
  "育@@": 8375, 
  "国中": 8376, 
  "冷静": 8377, 
  "巧@@": 8378, 
  "灭火": 8379, 
  "持久": 8380, 
  "遇上": 8381, 
  "刑事检": 8382, 
  "Limited": 8383, 
  "瞱": 8384, 
  "102": 8385, 
  "嫁": 8386, 
  "坦": 8387, 
  "爱国": 8388, 
  "不支持": 8389, 
  "多边": 8390, 
  "乐趣": 8391, 
  "港湾": 8392, 
  "管理层": 8393, 
  "年满": 8394, 
  "遏制": 8395, 
  "毅": 8396, 
  "艰难": 8397, 
  "灾难": 8398, 
  "推选": 8399, 
  "物理": 8400, 
  "价@@": 8401, 
  "教员": 8402, 
  "媒介": 8403, 
  "大法官": 8404, 
  "深深": 8405, 
  "笑@@": 8406, 
  "纸张": 8407, 
  "蓝色": 8408, 
  "反腐败": 8409, 
  "税@@": 8410, 
  "47@@": 8411, 
  "喂": 8412, 
  "染": 8413, 
  "冒牌货": 8414, 
  "传入": 8415, 
  "唯": 8416, 
  "监护": 8417, 
  "误@@": 8418, 
  "动摇": 8419, 
  "预备": 8420, 
  "不免": 8421, 
  "信徒": 8422, 
  "廷": 8423, 
  "阐释": 8424, 
  "军事@@": 8425, 
  "上下": 8426, 
  "加州": 8427, 
  "纽西兰": 8428, 
  "古巴": 8429, 
  "决@@": 8430, 
  "补助": 8431, 
  "感动": 8432, 
  "五十二": 8433, 
  "美中": 8434, 
  "蒸汽": 8435, 
  "苯": 8436, 
  "六个": 8437, 
  "大赛": 8438, 
  "收生": 8439, 
  "有条件": 8440, 
  "上班": 8441, 
  "忠@@": 8442, 
  "枪@@": 8443, 
  "本刊": 8444, 
  "疫苗": 8445, 
  "同年": 8446, 
  "液体": 8447, 
  "致函": 8448, 
  "di@@": 8449, 
  "刑事诉讼": 8450, 
  "有益": 8451, 
  "5个": 8452, 
  "患有": 8453, 
  "营养": 8454, 
  "参与者": 8455, 
  "黑社会": 8456, 
  "检疫": 8457, 
  "胎": 8458, 
  "这才": 8459, 
  "测": 8460, 
  "长期以来": 8461, 
  "12月@@": 8462, 
  "OO": 8463, 
  "不住": 8464, 
  "李岚清": 8465, 
  "生活水平": 8466, 
  "不上": 8467, 
  "祖先": 8468, 
  "深厚": 8469, 
  "卖淫": 8470, 
  "题材": 8471, 
  "人道": 8472, 
  "博@@": 8473, 
  "有害": 8474, 
  "浩": 8475, 
  "界限": 8476, 
  "尊": 8477, 
  "精彩": 8478, 
  "半数": 8479, 
  "盈": 8480, 
  "乡镇": 8481, 
  "装配": 8482, 
  "运动会": 8483, 
  "禽鸟": 8484, 
  "军官": 8485, 
  "栋": 8486, 
  "伟@@": 8487, 
  "剪@@": 8488, 
  "﹞": 8489, 
  "小学生": 8490, 
  "电力公司": 8491, 
  "商用": 8492, 
  "孙明扬": 8493, 
  "竞赛": 8494, 
  "繁殖": 8495, 
  "1/@@": 8496, 
  "扇": 8497, 
  "v": 8498, 
  "靖": 8499, 
  "差@@": 8500, 
  "翔": 8501, 
  "载客": 8502, 
  "里面": 8503, 
  "谋杀": 8504, 
  "泥@@": 8505, 
  "不禁": 8506, 
  "操控": 8507, 
  "10日": 8508, 
  "马路": 8509, 
  "大为": 8510, 
  "携手合作": 8511, 
  "车上": 8512, 
  "资历": 8513, 
  "四项": 8514, 
  "外汇储备": 8515, 
  "凤@@": 8516, 
  "飘@@": 8517, 
  "对不起": 8518, 
  "坚@@": 8519, 
  "救生衣": 8520, 
  "支路": 8521, 
  "再说": 8522, 
  "荔枝角": 8523, 
  "逊": 8524, 
  "经常性": 8525, 
  "自由化": 8526, 
  "复制": 8527, 
  "山地": 8528, 
  "调高": 8529, 
  "失效": 8530, 
  "完@@": 8531, 
  "短短": 8532, 
  "邓兆棠": 8533, 
  "写作": 8534, 
  "聚会": 8535, 
  "(vi)": 8536, 
  "全职": 8537, 
  "会说": 8538, 
  "来电": 8539, 
  "敷设": 8540, 
  "30日": 8541, 
  "卡拉": 8542, 
  "1994年@@": 8543, 
  "失责": 8544, 
  "危@@": 8545, 
  "随之": 8546, 
  "结构性": 8547, 
  "跃@@": 8548, 
  "坚守": 8549, 
  "生涯": 8550, 
  "订@@": 8551, 
  "公道": 8552, 
  "却又": 8553, 
  "高级官员": 8554, 
  "李瑞环": 8555, 
  "失误": 8556, 
  "口号": 8557, 
  "赴@@": 8558, 
  "结业": 8559, 
  "效能": 8560, 
  "容@@": 8561, 
  "鼓吹": 8562, 
  "害@@": 8563, 
  "回归祖国": 8564, 
  "文艺": 8565, 
  "酗": 8566, 
  "贵@@": 8567, 
  "诉": 8568, 
  "复制品": 8569, 
  "呼吸": 8570, 
  "说服": 8571, 
  "偷运": 8572, 
  "预定": 8573, 
  "露出": 8574, 
  "漏洞": 8575, 
  "大学生": 8576, 
  "海区": 8577, 
  "侦查": 8578, 
  "穆@@": 8579, 
  "锋": 8580, 
  "制备": 8581, 
  "引述": 8582, 
  "标书": 8583, 
  "回去": 8584, 
  "拟订": 8585, 
  "企": 8586, 
  "隔@@": 8587, 
  "崇高": 8588, 
  "全日": 8589, 
  "阶": 8590, 
  "彭定康": 8591, 
  "陶@@": 8592, 
  "酒@@": 8593, 
  "房地产": 8594, 
  "700": 8595, 
  "依循": 8596, 
  "贺@@": 8597, 
  "冒牌": 8598, 
  "con@@": 8599, 
  "百分之七十@@": 8600, 
  "低迷": 8601, 
  "选手": 8602, 
  "有一天": 8603, 
  "够": 8604, 
  "小型张": 8605, 
  "书店": 8606, 
  "房@@": 8607, 
  "鲜明": 8608, 
  "洗@@": 8609, 
  "这就": 8610, 
  "蒸@@": 8611, 
  "赤@@": 8612, 
  "哪个": 8613, 
  "私营化": 8614, 
  "平日": 8615, 
  "庆@@": 8616, 
  "维多利亚港": 8617, 
  "伪@@": 8618, 
  "竣工": 8619, 
  "烈@@": 8620, 
  "罐": 8621, 
  "不象": 8622, 
  "王国": 8623, 
  "r": 8624, 
  "霸权主义": 8625, 
  "评议": 8626, 
  "筒": 8627, 
  "恐吓": 8628, 
  "体验": 8629, 
  "传染": 8630, 
  "废料": 8631, 
  "璁": 8632, 
  "5月@@": 8633, 
  "兼顾": 8634, 
  "调动": 8635, 
  "贬值": 8636, 
  "酒楼": 8637, 
  "招募": 8638, 
  "轨": 8639, 
  "得来": 8640, 
  "发电": 8641, 
  "电子邮件": 8642, 
  "流行性感冒": 8643, 
  "每周": 8644, 
  "第二届": 8645, 
  "批@@": 8646, 
  "一对": 8647, 
  "不小": 8648, 
  "单靠": 8649, 
  "三成": 8650, 
  "妥协": 8651, 
  "亲友": 8652, 
  "循序渐进": 8653, 
  "奖券": 8654, 
  "500@@": 8655, 
  "d.gov.hk": 8656, 
  "制约": 8657, 
  "北京市": 8658, 
  "减税": 8659, 
  "桶": 8660, 
  "105": 8661, 
  "自动化": 8662, 
  "勇气": 8663, 
  "庄@@": 8664, 
  "月廿@@": 8665, 
  "水果": 8666, 
  "几个月": 8667, 
  "除此之外": 8668, 
  "深度": 8669, 
  "继承": 8670, 
  "那就是": 8671, 
  "周边": 8672, 
  "物体": 8673, 
  "虐待": 8674, 
  "中介人": 8675, 
  "担忧": 8676, 
  "一路": 8677, 
  "偷@@": 8678, 
  "值班": 8679, 
  "上星期": 8680, 
  "五十一": 8681, 
  "普选": 8682, 
  "123": 8683, 
  "荷@@": 8684, 
  "际": 8685, 
  "三十日": 8686, 
  "@@@": 8687, 
  "机组": 8688, 
  "舍@@": 8689, 
  "基本原则": 8690, 
  "八万@@": 8691, 
  "将近": 8692, 
  "Y@@": 8693, 
  "49@@": 8694, 
  "上星期六": 8695, 
  "战机": 8696, 
  "手中": 8697, 
  "2002": 8698, 
  "戏院": 8699, 
  "受过": 8700, 
  "敌人": 8701, 
  "截@@": 8702, 
  "收支平衡": 8703, 
  "三百万": 8704, 
  "捕鱼": 8705, 
  "发扬": 8706, 
  "世人": 8707, 
  "整合": 8708, 
  "抽样": 8709, 
  "六日": 8710, 
  "艺术节": 8711, 
  "地域": 8712, 
  "惊人": 8713, 
  "注资": 8714, 
  "翻新": 8715, 
  "早就": 8716, 
  "与会者": 8717, 
  "上网": 8718, 
  "净@@": 8719, 
  "巡@@": 8720, 
  "认定": 8721, 
  "帮忙": 8722, 
  "秀莲": 8723, 
  "邻": 8724, 
  "谭耀宗": 8725, 
  "艰巨": 8726, 
  "不让": 8727, 
  "一手": 8728, 
  "败@@": 8729, 
  "ww.info.gov.hk": 8730, 
  "扶@@": 8731, 
  "碧": 8732, 
  "刘汉铨": 8733, 
  "暂@@": 8734, 
  "内阁": 8735, 
  "从前": 8736, 
  "交界处": 8737, 
  "究": 8738, 
  "军区": 8739, 
  "25日": 8740, 
  "抑或": 8741, 
  "休": 8742, 
  "镇@@": 8743, 
  "坡": 8744, 
  "西班牙": 8745, 
  "饬令": 8746, 
  "承租": 8747, 
  "有秩序": 8748, 
  "磨": 8749, 
  "拆除": 8750, 
  "成功地": 8751, 
  "甸": 8752, 
  "尺寸": 8753, 
  "置@@": 8754, 
  "无线": 8755, 
  "相符": 8756, 
  "仙@@": 8757, 
  "国际化": 8758, 
  "学士学位": 8759, 
  "财@@": 8760, 
  "错@@": 8761, 
  "有别": 8762, 
  "分散": 8763, 
  "控股": 8764, 
  "共和党": 8765, 
  "宁@@": 8766, 
  "报警": 8767, 
  "不只": 8768, 
  "一类": 8769, 
  "心理学": 8770, 
  "加剧": 8771, 
  "侦破": 8772, 
  "事前": 8773, 
  "充裕": 8774, 
  "研究员": 8775, 
  "核对": 8776, 
  "执政党": 8777, 
  "持@@": 8778, 
  "6,@@": 8779, 
  "几十": 8780, 
  "荒@@": 8781, 
  "异常": 8782, 
  "共用": 8783, 
  "魽": 8784, 
  "﹝": 8785, 
  "现状": 8786, 
  "一九九八年十一@@": 8787, 
  "警惕": 8788, 
  "优美": 8789, 
  "排名": 8790, 
  "侯": 8791, 
  "乱@@": 8792, 
  "受训": 8793, 
  "拿出": 8794, 
  "月16日": 8795, 
  "议定书": 8796, 
  "坚定不移": 8797, 
  "信息化": 8798, 
  "零年": 8799, 
  "豆": 8800, 
  "太阳": 8801, 
  "此时": 8802, 
  "光荣": 8803, 
  "硬币": 8804, 
  "一九九八年十@@": 8805, 
  "燃": 8806, 
  "播@@": 8807, 
  "群岛": 8808, 
  "逐": 8809, 
  "明星": 8810, 
  "人文": 8811, 
  "将就": 8812, 
  "远洋": 8813, 
  "电影节": 8814, 
  "谋杀案": 8815, 
  "ar": 8816, 
  "画面": 8817, 
  "开出": 8818, 
  "半个": 8819, 
  "htm": 8820, 
  "组@@": 8821, 
  "混凝土": 8822, 
  "汇@@": 8823, 
  "频率": 8824, 
  "捍卫": 8825, 
  "谈@@": 8826, 
  "编入": 8827, 
  "链": 8828, 
  "a)": 8829, 
  "校本": 8830, 
  "选拔": 8831, 
  "淘汰": 8832, 
  "蔡@@": 8833, 
  "十六@@": 8834, 
  "清单": 8835, 
  "家务": 8836, 
  "鞥": 8837, 
  "区@@": 8838, 
  "现代人": 8839, 
  "总括": 8840, 
  "12日": 8841, 
  "存有": 8842, 
  "日报": 8843, 
  "国立": 8844, 
  "字样": 8845, 
  "罢工": 8846, 
  "粮": 8847, 
  "吸@@": 8848, 
  "防空": 8849, 
  "一三二点@@": 8850, 
  "可达": 8851, 
  "值@@": 8852, 
  "感兴趣": 8853, 
  "蓬勃发展": 8854, 
  "清晨": 8855, 
  "配备": 8856, 
  "粗@@": 8857, 
  "亚欧": 8858, 
  "前者": 8859, 
  "装载": 8860, 
  "吴亮星": 8861, 
  "巴西": 8862, 
  "六万@@": 8863, 
  "据了解": 8864, 
  "大有": 8865, 
  "制造厂": 8866, 
  "抗辩": 8867, 
  "污@@": 8868, 
  "事发": 8869, 
  "源头": 8870, 
  "惊": 8871, 
  "ut@@": 8872, 
  "领事": 8873, 
  "剔除": 8874, 
  "滑": 8875, 
  "商铺": 8876, 
  "属@@": 8877, 
  "港商": 8878, 
  "迈": 8879, 
  "制止": 8880, 
  "五日": 8881, 
  "六月底": 8882, 
  "效用": 8883, 
  "富有": 8884, 
  "逃避": 8885, 
  "题为": 8886, 
  "高效率": 8887, 
  "诠释": 8888, 
  "负@@": 8889, 
  "同步": 8890, 
  "彷": 8891, 
  "百分之二十": 8892, 
  "回报率": 8893, 
  "过高": 8894, 
  "对手": 8895, 
  "带给": 8896, 
  "降至": 8897, 
  "腿": 8898, 
  "#": 8899, 
  "臂": 8900, 
  "百分之八点@@": 8901, 
  "4日": 8902, 
  "委派": 8903, 
  "小额": 8904, 
  "起步": 8905, 
  "教育部": 8906, 
  "上午@@": 8907, 
  "劳动力": 8908, 
  "课@@": 8909, 
  "审@@": 8910, 
  "战斗": 8911, 
  "勒": 8912, 
  "装修": 8913, 
  "童@@": 8914, 
  "京@@": 8915, 
  "耗资": 8916, 
  "囊": 8917, 
  "仿@@": 8918, 
  "神圣": 8919, 
  "议长": 8920, 
  "致以": 8921, 
  "险@@": 8922, 
  "秘密": 8923, 
  "捐款": 8924, 
  "02": 8925, 
  "尘": 8926, 
  "不懂": 8927, 
  "投诉人": 8928, 
  "人间": 8929, 
  "麦@@": 8930, 
  "滚": 8931, 
  "纪念品": 8932, 
  "试点": 8933, 
  "一周": 8934, 
  "防疫": 8935, 
  "再一次": 8936, 
  "十多年": 8937, 
  "繁@@": 8938, 
  "11月@@": 8939, 
  "在此间": 8940, 
  "邮品": 8941, 
  "预订": 8942, 
  "商店": 8943, 
  "法律顾问": 8944, 
  "见习": 8945, 
  "考量": 8946, 
  "各族": 8947, 
  "首日封": 8948, 
  "展品": 8949, 
  "龙头": 8950, 
  "全都": 8951, 
  "古老": 8952, 
  "划一": 8953, 
  "电力供应": 8954, 
  "吸入": 8955, 
  "偿债": 8956, 
  "污染物": 8957, 
  "豪@@": 8958, 
  "相处": 8959, 
  "拆@@": 8960, 
  "攻": 8961, 
  "升降": 8962, 
  "使馆": 8963, 
  "道歉": 8964, 
  "乘@@": 8965, 
  "格局": 8966, 
  "这时": 8967, 
  "铃": 8968, 
  "贫@@": 8969, 
  "悠久": 8970, 
  "内涵": 8971, 
  "站@@": 8972, 
  "奏": 8973, 
  "生活环境": 8974, 
  "桃": 8975, 
  "恨": 8976, 
  "脚步": 8977, 
  "爆裂": 8978, 
  "巴勒斯坦": 8979, 
  "驾驶者": 8980, 
  "反省": 8981, 
  "缴税": 8982, 
  "极具": 8983, 
  "弄@@": 8984, 
  "有所不同": 8985, 
  "偏远": 8986, 
  "午@@": 8987, 
  "流感": 8988, 
  "赛@@": 8989, 
  "缝": 8990, 
  "派遣": 8991, 
  "夺": 8992, 
  "模型": 8993, 
  "of@@": 8994, 
  "中小学": 8995, 
  "走过": 8996, 
  "水泥": 8997, 
  "霞": 8998, 
  "住@@": 8999, 
  "艺术馆": 9000, 
  "八一": 9001, 
  "四日": 9002, 
  "调派": 9003, 
  "融": 9004, 
  "外部": 9005, 
  "颂": 9006, 
  "虐": 9007, 
  "演变": 9008, 
  "de@@": 9009, 
  "泄": 9010, 
  "架空": 9011, 
  "比起": 9012, 
  "不可或缺": 9013, 
  "耀@@": 9014, 
  "住址": 9015, 
  "主角": 9016, 
  "殖民": 9017, 
  "钜": 9018, 
  "副主任": 9019, 
  "自主权": 9020, 
  "宽@@": 9021, 
  "十八@@": 9022, 
  "作法": 9023, 
  "萍": 9024, 
  "族人": 9025, 
  "千年虫": 9026, 
  "访问团": 9027, 
  "收益率": 9028, 
  "5日": 9029, 
  "映": 9030, 
  "j@@": 9031, 
  "指责": 9032, 
  "垂@@": 9033, 
  "三角": 9034, 
  "百分之八": 9035, 
  "取向": 9036, 
  "化学品": 9037, 
  "绅士": 9038, 
  "招股": 9039, 
  "九日": 9040, 
  "歌手": 9041, 
  "酒后": 9042, 
  "九月三十日": 9043, 
  "服@@": 9044, 
  "醇": 9045, 
  "六十三": 9046, 
  "就职": 9047, 
  "会考": 9048, 
  "百分之五十": 9049, 
  "充实": 9050, 
  "闭幕": 9051, 
  "趁": 9052, 
  "(l)": 9053, 
  "急剧": 9054, 
  "陈词": 9055, 
  "大地": 9056, 
  "胸@@": 9057, 
  "度过": 9058, 
  "甄选": 9059, 
  "山区": 9060, 
  "教育@@": 9061, 
  "时十分": 9062, 
  "公升": 9063, 
  "幻": 9064, 
  "师生": 9065, 
  "高速": 9066, 
  "内幕": 9067, 
  "艳": 9068, 
  "现存": 9069, 
  "崇": 9070, 
  "野生动物": 9071, 
  "佑": 9072, 
  "百货公司": 9073, 
  "学界": 9074, 
  "展翅": 9075, 
  "河道": 9076, 
  "颈": 9077, 
  "22@@": 9078, 
  "耐@@": 9079, 
  "友@@": 9080, 
  "细心": 9081, 
  "奇迹": 9082, 
  "秋@@": 9083, 
  "热心": 9084, 
  "退回": 9085, 
  "变迁": 9086, 
  "绩": 9087, 
  "报酬": 9088, 
  "牌@@": 9089, 
  "193@@": 9090, 
  "犯@@": 9091, 
  "是@@": 9092, 
  "ag@@": 9093, 
  "录取": 9094, 
  "带头": 9095, 
  "第三@@": 9096, 
  "潜艇": 9097, 
  "一幢": 9098, 
  "不明": 9099, 
  "情势": 9100, 
  "St@@": 9101, 
  "新中国": 9102, 
  "自由市场": 9103, 
  "颠覆": 9104, 
  "刀@@": 9105, 
  "工作量": 9106, 
  "z@@": 9107, 
  "保健": 9108, 
  "冒@@": 9109, 
  "几次": 9110, 
  "1911年": 9111, 
  "5,@@": 9112, 
  "上面": 9113, 
  "何在": 9114, 
  "能不能": 9115, 
  "起飞": 9116, 
  "游戏机": 9117, 
  "管理@@": 9118, 
  "民主@@": 9119, 
  "四周": 9120, 
  "分工": 9121, 
  "陆军": 9122, 
  "通车": 9123, 
  "跟随": 9124, 
  "二百一@@": 9125, 
  "尚@@": 9126, 
  "求诊": 9127, 
  "物业管理": 9128, 
  "骄傲": 9129, 
  "佐": 9130, 
  "涉@@": 9131, 
  "自由@@": 9132, 
  "挥@@": 9133, 
  "教唆": 9134, 
  "一体化": 9135, 
  "始@@": 9136, 
  "推介": 9137, 
  "高新技术": 9138, 
  "公认": 9139, 
  "途中": 9140, 
  "假若": 9141, 
  "ad@@": 9142, 
  "年月日": 9143, 
  "留意到": 9144, 
  "传奇": 9145, 
  "三至@@": 9146, 
  "播": 9147, 
  "层@@": 9148, 
  "及@@": 9149, 
  "脉": 9150, 
  "腹": 9151, 
  "以求": 9152, 
  "初级": 9153, 
  "自信": 9154, 
  "叹": 9155, 
  "感受到": 9156, 
  "为首": 9157, 
  "遵循": 9158, 
  "模": 9159, 
  "参拜": 9160, 
  "穿@@": 9161, 
  "皮肤": 9162, 
  "六十九": 9163, 
  "暑假": 9164, 
  "新竹": 9165, 
  "下水": 9166, 
  "检察": 9167, 
  "吴清辉": 9168, 
  "遇@@": 9169, 
  "0亿": 9170, 
  "增多": 9171, 
  "二00一年十二@@": 9172, 
  "宜@@": 9173, 
  "手上": 9174, 
  "重重": 9175, 
  "六一": 9176, 
  "变通": 9177, 
  "恐": 9178, 
  "竖立": 9179, 
  "温暖": 9180, 
  "恳请": 9181, 
  "骗@@": 9182, 
  "三月底": 9183, 
  "迫@@": 9184, 
  "八年": 9185, 
  "闲@@": 9186, 
  "征求": 9187, 
  "大业": 9188, 
  "出入": 9189, 
  "之旅": 9190, 
  "高峰期": 9191, 
  "生死": 9192, 
  "夺@@": 9193, 
  "宴": 9194, 
  "做事": 9195, 
  "弥补": 9196, 
  "聪明": 9197, 
  "息率": 9198, 
  "不遗余力": 9199, 
  "促成": 9200, 
  "不尽": 9201, 
  "过剩": 9202, 
  "莫大": 9203, 
  "肥": 9204, 
  "合唱团": 9205, 
  "马逢国": 9206, 
  "诚信": 9207, 
  "15%": 9208, 
  "115": 9209, 
  "2月@@": 9210, 
  "祭@@": 9211, 
  "指挥官": 9212, 
  "妈祖": 9213, 
  "中立": 9214, 
  "ary": 9215, 
  ">": 9216, 
  "4A": 9217, 
  "伙": 9218, 
  "优越": 9219, 
  "紧迫": 9220, 
  "没想到": 9221, 
  "曹": 9222, 
  "互访": 9223, 
  "老道": 9224, 
  "盒": 9225, 
  "丧@@": 9226, 
  "内向": 9227, 
  "神社": 9228, 
  "滴": 9229, 
  "el": 9230, 
  "中型": 9231, 
  "退税": 9232, 
  "敦促": 9233, 
  "等同": 9234, 
  "百分之七": 9235, 
  "十月一日": 9236, 
  "问及": 9237, 
  "9月@@": 9238, 
  "情感": 9239, 
  "颗": 9240, 
  "炸弹": 9241, 
  "二年": 9242, 
  "衷": 9243, 
  "超级": 9244, 
  "宋@@": 9245, 
  "病征": 9246, 
  "揭幕": 9247, 
  "技工": 9248, 
  "判罚": 9249, 
  "以防": 9250, 
  "一百四十@@": 9251, 
  "出访": 9252, 
  "去年十一月": 9253, 
  "总计": 9254, 
  "钧": 9255, 
  "园区": 9256, 
  "城镇": 9257, 
  "处罚": 9258, 
  "250": 9259, 
  "签名": 9260, 
  "热门": 9261, 
  "拳": 9262, 
  "瓷": 9263, 
  "理工": 9264, 
  "街上": 9265, 
  "岗": 9266, 
  "县@@": 9267, 
  "沿岸": 9268, 
  "舟": 9269, 
  "家乡": 9270, 
  "二00二年十二@@": 9271, 
  "19日": 9272, 
  "讨@@": 9273, 
  "五年@@": 9274, 
  "OK": 9275, 
  "赈灾": 9276, 
  "酸@@": 9277, 
  "年份": 9278, 
  "高企": 9279, 
  "现年": 9280, 
  "ww": 9281, 
  "离职": 9282, 
  "一九九六@@": 9283, 
  "房产": 9284, 
  "由@@": 9285, 
  "少女": 9286, 
  "各阶层": 9287, 
  "浩@@": 9288, 
  "沙头角": 9289, 
  "不高": 9290, 
  "五月三十一日": 9291, 
  "公报": 9292, 
  "鸡@@": 9293, 
  "斗@@": 9294, 
  "更好地": 9295, 
  "九五年": 9296, 
  "程序表": 9297, 
  "煽动": 9298, 
  "九月一日": 9299, 
  "基石": 9300, 
  "诊疗所": 9301, 
  "月2日": 9302, 
  "献": 9303, 
  "外科": 9304, 
  "买家": 9305, 
  "%至@@": 9306, 
  "国际性": 9307, 
  "毫不": 9308, 
  "一亿": 9309, 
  "百分之九点@@": 9310, 
  "演唱": 9311, 
  "x": 9312, 
  "扩张": 9313, 
  "五十四": 9314, 
  "利亚": 9315, 
  "五十三": 9316, 
  "外经贸": 9317, 
  "摄@@": 9318, 
  "卑": 9319, 
  "畅顺": 9320, 
  "附上": 9321, 
  "一组": 9322, 
  "要点": 9323, 
  "措辞": 9324, 
  "保护区": 9325, 
  "联合王国": 9326, 
  "只得": 9327, 
  "ic": 9328, 
  "病床": 9329, 
  "先进国家": 9330, 
  "既要": 9331, 
  "倚赖": 9332, 
  "8亿": 9333, 
  "第一位": 9334, 
  "雨量": 9335, 
  "陈伟": 9336, 
  "珠宝": 9337, 
  "月21日": 9338, 
  "1月@@": 9339, 
  "全会": 9340, 
  "令@@": 9341, 
  "国际贸易": 9342, 
  "不过是": 9343, 
  "听众": 9344, 
  "粒子": 9345, 
  "忧": 9346, 
  "泰@@": 9347, 
  "体力": 9348, 
  "筑": 9349, 
  "熟@@": 9350, 
  "五十八": 9351, 
  "型号": 9352, 
  "晚上@@": 9353, 
  "测绘": 9354, 
  "易@@": 9355, 
  "蒂@@": 9356, 
  "教育委员会": 9357, 
  "白皮书": 9358, 
  "早年": 9359, 
  "此间": 9360, 
  "贫": 9361, 
  "5月": 9362, 
  "摆@@": 9363, 
  "销@@": 9364, 
  "模糊": 9365, 
  "1/2": 9366, 
  "晓@@": 9367, 
  "电话@@": 9368, 
  "盾": 9369, 
  "盘@@": 9370, 
  "除@@": 9371, 
  "乘坐": 9372, 
  "任教": 9373, 
  "郁": 9374, 
  "二000年六@@": 9375, 
  "专访": 9376, 
  "8月": 9377, 
  "排队": 9378, 
  "载重": 9379, 
  "启德机场": 9380, 
  "全局": 9381, 
  "次@@": 9382, 
  "逃@@": 9383, 
  "进而": 9384, 
  "花费": 9385, 
  "灰@@": 9386, 
  "待续": 9387, 
  "不适": 9388, 
  "密码": 9389, 
  "参议院": 9390, 
  "附@@": 9391, 
  "主持人": 9392, 
  "不去": 9393, 
  "行径": 9394, 
  "pro@@": 9395, 
  "九七年@@": 9396, 
  "司@@": 9397, 
  "9日": 9398, 
  "停留": 9399, 
  "稳步": 9400, 
  "墟": 9401, 
  "璊": 9402, 
  "二00三年一@@": 9403, 
  "罪@@": 9404, 
  "付@@": 9405, 
  "牙医": 9406, 
  "想起": 9407, 
  "译": 9408, 
  "十七@@": 9409, 
  "欣慰": 9410, 
  "电子商务": 9411, 
  "过渡期": 9412, 
  "思路": 9413, 
  "计算机": 9414, 
  "动植物": 9415, 
  "欢乐": 9416, 
  "纾解": 9417, 
  "此行": 9418, 
  "ex@@": 9419, 
  "导向": 9420, 
  "羁押": 9421, 
  "台南": 9422, 
  "纸币": 9423, 
  "彰": 9424, 
  "兆@@": 9425, 
  "看似": 9426, 
  "幸@@": 9427, 
  "说明书": 9428, 
  "诸多": 9429, 
  "不曾": 9430, 
  "到来": 9431, 
  "利害": 9432, 
  "四万": 9433, 
  "医药": 9434, 
  "下落": 9435, 
  "派@@": 9436, 
  "辖区": 9437, 
  "要项": 9438, 
  "旅行社": 9439, 
  "眠": 9440, 
  "漫@@": 9441, 
  "氟": 9442, 
  "莫斯科": 9443, 
  "搜索": 9444, 
  "典范": 9445, 
  "遣": 9446, 
  "凝聚": 9447, 
  "飞弹": 9448, 
  "qu@@": 9449, 
  "灾害": 9450, 
  "票站": 9451, 
  "何秀兰": 9452, 
  "艰苦": 9453, 
  "股票市场": 9454, 
  "安宁": 9455, 
  "针@@": 9456, 
  "三个": 9457, 
  "教练": 9458, 
  "泡沫": 9459, 
  "Hong": 9460, 
  "线@@": 9461, 
  "显眼": 9462, 
  "兽": 9463, 
  "故@@": 9464, 
  "每隔": 9465, 
  "模范": 9466, 
  "年率": 9467, 
  "一九八九年": 9468, 
  "歌仔戏": 9469, 
  "五亿@@": 9470, 
  "透@@": 9471, 
  "震惊": 9472, 
  "VIII": 9473, 
  "符": 9474, 
  "获奖": 9475, 
  "俗@@": 9476, 
  "普罗": 9477, 
  "搜寻": 9478, 
  "缴纳": 9479, 
  "追究": 9480, 
  "坏@@": 9481, 
  "行政管理": 9482, 
  "怎能": 9483, 
  "样@@": 9484, 
  "罩": 9485, 
  "霸": 9486, 
  "饭店": 9487, 
  "缓慢": 9488, 
  "尽管如此": 9489, 
  "惯例": 9490, 
  "日内瓦": 9491, 
  "天堂": 9492, 
  "oo@@": 9493, 
  "范@@": 9494, 
  "伪": 9495, 
  "艾": 9496, 
  "对立": 9497, 
  "旁边": 9498, 
  "工业区": 9499, 
  "续@@": 9500, 
  "审阅": 9501, 
  "教室": 9502, 
  "迁移": 9503, 
  "一百七十@@": 9504, 
  "10月@@": 9505, 
  "犯人": 9506, 
  "祗": 9507, 
  "im@@": 9508, 
  "7亿": 9509, 
  "借出": 9510, 
  "参展": 9511, 
  "期@@": 9512, 
  "共享": 9513, 
  "山坡": 9514, 
  "一来": 9515, 
  "碗": 9516, 
  "狱": 9517, 
  "植@@": 9518, 
  "倾倒": 9519, 
  "挡": 9520, 
  "遗失": 9521, 
  "里程碑": 9522, 
  "不难": 9523, 
  "创立": 9524, 
  "/98": 9525, 
  "工作会议": 9526, 
  "五十六": 9527, 
  "论述": 9528, 
  "悲剧": 9529, 
  "中央银行": 9530, 
  "响应": 9531, 
  "批注": 9532, 
  "杜绝": 9533, 
  "百年": 9534, 
  "寻@@": 9535, 
  "左转": 9536, 
  "卿": 9537, 
  "八成": 9538, 
  "屈@@": 9539, 
  "闸": 9540, 
  "随意": 9541, 
  "钉": 9542, 
  "任志刚": 9543, 
  "Kong": 9544, 
  "团长": 9545, 
  "埋": 9546, 
  "不喜欢": 9547, 
  "熊": 9548, 
  "爱情": 9549, 
  "上午十一@@": 9550, 
  "医学院": 9551, 
  "公用事业": 9552, 
  "开征": 9553, 
  "虾": 9554, 
  "四处": 9555, 
  "性格": 9556, 
  "旋": 9557, 
  "推向": 9558, 
  "全党": 9559, 
  "尘埃": 9560, 
  "不停": 9561, 
  "碰到": 9562, 
  "电动": 9563, 
  "药品": 9564, 
  "佳@@": 9565, 
  "装饰": 9566, 
  "积极性": 9567, 
  "末@@": 9568, 
  "工作报告": 9569, 
  "填上": 9570, 
  "103": 9571, 
  "处分": 9572, 
  "毫克": 9573, 
  "汽@@": 9574, 
  "注视": 9575, 
  "战术": 9576, 
  "社会工作者": 9577, 
  "组织@@": 9578, 
  "寻常": 9579, 
  "挑@@": 9580, 
  "十一月份": 9581, 
  "叙": 9582, 
  "恐怖主义": 9583, 
  "渗透": 9584, 
  "5万": 9585, 
  "惰性气体": 9586, 
  "多年前": 9587, 
  "互惠": 9588, 
  "甘": 9589, 
  "安全措施": 9590, 
  "消耗": 9591, 
  "说的是": 9592, 
  "维多利亚公园": 9593, 
  "国际市场": 9594, 
  "涵": 9595, 
  "1971年": 9596, 
  "犹@@": 9597, 
  "6个": 9598, 
  "脸@@": 9599, 
  "卓": 9600, 
  "校监": 9601, 
  "讲求": 9602, 
  "每一位": 9603, 
  "打工仔": 9604, 
  "最小": 9605, 
  "说来": 9606, 
  "团队": 9607, 
  "贿赂": 9608, 
  "超级市场": 9609, 
  "分期": 9610, 
  "负起": 9611, 
  "阿根廷": 9612, 
  "理应": 9613, 
  "见解": 9614, 
  "豁免权": 9615, 
  "排水渠": 9616, 
  "精力": 9617, 
  "有利于": 9618, 
  "迫使": 9619, 
  "钦": 9620, 
  "器件": 9621, 
  "悉": 9622, 
  "1个": 9623, 
  "批发市场": 9624, 
  "源自": 9625, 
  "毛泽东": 9626, 
  "宣告": 9627, 
  "旧区": 9628, 
  "应予": 9629, 
  "f": 9630, 
  "雀": 9631, 
  "关系到": 9632, 
  "五十九": 9633, 
  "精神文明": 9634, 
  "亚运会": 9635, 
  "六十二": 9636, 
  "温家宝": 9637, 
  "二五二七": 9638, 
  "远离": 9639, 
  "猛@@": 9640, 
  "儿女": 9641, 
  "根本上": 9642, 
  "按@@": 9643, 
  "发起": 9644, 
  "本地区": 9645, 
  "镜头": 9646, 
  "监控": 9647, 
  "平时": 9648, 
  "无形": 9649, 
  "人潮": 9650, 
  "过量": 9651, 
  "新生": 9652, 
  "铺设": 9653, 
  "en": 9654, 
  "授权书": 9655, 
  "殿": 9656, 
  "好奇": 9657, 
  "制衡": 9658, 
  "真理": 9659, 
  "防洪": 9660, 
  "有一套": 9661, 
  "魂": 9662, 
  "南方": 9663, 
  "二日": 9664, 
  "孔@@": 9665, 
  "用语": 9666, 
  "行销": 9667, 
  "技术@@": 9668, 
  "欣": 9669, 
  "矿": 9670, 
  "民俗": 9671, 
  "充公": 9672, 
  "度@@": 9673, 
  "荒": 9674, 
  "堂@@": 9675, 
  "家园": 9676, 
  "374": 9677, 
  "财团": 9678, 
  "标志着": 9679, 
  "三分之二": 9680, 
  "运输系统": 9681, 
  "整套": 9682, 
  "一千零@@": 9683, 
  "海鲜": 9684, 
  "如果说": 9685, 
  "个百分点": 9686, 
  "一千五百@@": 9687, 
  "竞争能力": 9688, 
  "8日": 9689, 
  "九百": 9690, 
  "喝@@": 9691, 
  "一百二十": 9692, 
  "果然": 9693, 
  "涛": 9694, 
  "祸": 9695, 
  "航海": 9696, 
  "经典": 9697, 
  "话@@": 9698, 
  "百分之三点@@": 9699, 
  "汀": 9700, 
  "缆": 9701, 
  "美国国会": 9702, 
  "哥@@": 9703, 
  "======": 9704, 
  "曾多次": 9705, 
  "怀孕": 9706, 
  "女生": 9707, 
  "消委会": 9708, 
  "偏离": 9709, 
  "改建": 9710, 
  "安全带": 9711, 
  "商业银行": 9712, 
  "日星期三": 9713, 
  "手枪": 9714, 
  "英勇": 9715, 
  "陪审团": 9716, 
  "排出": 9717, 
  "花莲": 9718, 
  "国土": 9719, 
  "为限": 9720, 
  "健@@": 9721, 
  "旗帜": 9722, 
  "势@@": 9723, 
  "改行": 9724, 
  "二00二年一@@": 9725, 
  "誉": 9726, 
  "姿态": 9727, 
  "研究生": 9728, 
  "织": 9729, 
  "香港岛": 9730, 
  "每星期": 9731, 
  "设在": 9732, 
  "验证": 9733, 
  "时常": 9734, 
  "防卫": 9735, 
  "可取": 9736, 
  "光明": 9737, 
  "占有": 9738, 
  "货站": 9739, 
  "饮品": 9740, 
  "屋@@": 9741, 
  "氯@@": 9742, 
  "跑@@": 9743, 
  "肃@@": 9744, 
  "劳动@@": 9745, 
  "差别": 9746, 
  "矿场": 9747, 
  "报刊": 9748, 
  "勿": 9749, 
  "娜": 9750, 
  "说起": 9751, 
  "10.@@": 9752, 
  "新时期": 9753, 
  "角@@": 9754, 
  "六万": 9755, 
  "月29日": 9756, 
  "哪@@": 9757, 
  "info": 9758, 
  "屡": 9759, 
  "起居": 9760, 
  "詹培忠": 9761, 
  "高昂": 9762, 
  "社会主义@@": 9763, 
  "宣读": 9764, 
  "呼@@": 9765, 
  "5至@@": 9766, 
  "尺": 9767, 
  "缺点": 9768, 
  "景点": 9769, 
  "硕士": 9770, 
  "好了": 9771, 
  "灾民": 9772, 
  "上来": 9773, 
  "图谋": 9774, 
  "猛": 9775, 
  "简短": 9776, 
  "0万": 9777, 
  "前夕": 9778, 
  "中学生": 9779, 
  "重型": 9780, 
  "入院": 9781, 
  "/99": 9782, 
  "老年": 9783, 
  "去年十月": 9784, 
  "踪": 9785, 
  "推销": 9786, 
  "不惜": 9787, 
  "地基": 9788, 
  "判令": 9789, 
  "大胆": 9790, 
  "澎湖": 9791, 
  "刚@@": 9792, 
  "第二点": 9793, 
  "透明": 9794, 
  "埋@@": 9795, 
  "搬@@": 9796, 
  "阻塞": 9797, 
  "抢救": 9798, 
  "自焚": 9799, 
  "以南": 9800, 
  "基础教育": 9801, 
  "一月至@@": 9802, 
  "亲王": 9803, 
  "放心": 9804, 
  "普查": 9805, 
  "例行": 9806, 
  "炒@@": 9807, 
  "驻华": 9808, 
  "浅@@": 9809, 
  "减免": 9810, 
  "一千四百@@": 9811, 
  "39@@": 9812, 
  "当晚": 9813, 
  "科学@@": 9814, 
  "寿@@": 9815, 
  "120": 9816, 
  "身心": 9817, 
  "不能不": 9818, 
  "据@@": 9819, 
  "鲤鱼门": 9820, 
  "皇@@": 9821, 
  "拗": 9822, 
  "料@@": 9823, 
  "战略性": 9824, 
  "出身": 9825, 
  "评@@": 9826, 
  "核武器": 9827, 
  "片@@": 9828, 
  "味@@": 9829, 
  "好事": 9830, 
  "id@@": 9831, 
  "一九九七": 9832, 
  "研习": 9833, 
  "猪只": 9834, 
  "25%": 9835, 
  "有机": 9836, 
  "水资源": 9837, 
  "紫荆": 9838, 
  "附注": 9839, 
  "城乡": 9840, 
  "宅": 9841, 
  "一小时": 9842, 
  "自律": 9843, 
  "荷": 9844, 
  "收据": 9845, 
  "校务": 9846, 
  "一句话": 9847, 
  "博览会": 9848, 
  "刺": 9849, 
  "严密": 9850, 
  "暑期": 9851, 
  "铺@@": 9852, 
  "团@@": 9853, 
  "死刑": 9854, 
  "姆": 9855, 
  "抗拒": 9856, 
  "桂@@": 9857, 
  "姆@@": 9858, 
  "表态": 9859, 
  "付给": 9860, 
  "大人": 9861, 
  "走进": 9862, 
  "撰写": 9863, 
  "8月@@": 9864, 
  "纱": 9865, 
  "提出来": 9866, 
  "失当": 9867, 
  "使@@": 9868, 
  "特有": 9869, 
  "亲人": 9870, 
  "不久前": 9871, 
  "易燃": 9872, 
  "粉@@": 9873, 
  "十一个": 9874, 
  "处方": 9875, 
  "职@@": 9876, 
  "上一次": 9877, 
  "伏": 9878, 
  "痴迷": 9879, 
  "少量": 9880, 
  "月26日": 9881, 
  "资本主义": 9882, 
  "潮@@": 9883, 
  "宽免": 9884, 
  "甫": 9885, 
  "唯有": 9886, 
  "老鼠": 9887, 
  "谋@@": 9888, 
  "凌晨@@": 9889, 
  "倒闭": 9890, 
  "暗": 9891, 
  "过海": 9892, 
  "供养": 9893, 
  "抓@@": 9894, 
  "要是": 9895, 
  "季节": 9896, 
  "愈@@": 9897, 
  "搬": 9898, 
  "气旋": 9899, 
  "草地": 9900, 
  "午餐": 9901, 
  "一百三十@@": 9902, 
  "真相": 9903, 
  "殷切": 9904, 
  "六十七": 9905, 
  "政界": 9906, 
  "迎合": 9907, 
  "月18日": 9908, 
  "废纸": 9909, 
  "伪钞": 9910, 
  "决不": 9911, 
  "扶贫": 9912, 
  "丸": 9913, 
  "固@@": 9914, 
  "新一代": 9915, 
  "性别歧视": 9916, 
  "污": 9917, 
  "无可@@": 9918, 
  "缩小": 9919, 
  "契机": 9920, 
  "绕": 9921, 
  "幸运": 9922, 
  "俗称": 9923, 
  "姊": 9924, 
  "ard": 9925, 
  "热潮": 9926, 
  "婷": 9927, 
  "白宫": 9928, 
  "虎@@": 9929, 
  "锅": 9930, 
  "少数民族": 9931, 
  "后面": 9932, 
  "南京": 9933, 
  "蒋@@": 9934, 
  "议决": 9935, 
  "救护车": 9936, 
  "生产者": 9937, 
  "七十六": 9938, 
  "湿": 9939, 
  "百分之十一点@@": 9940, 
  "社交": 9941, 
  "绑": 9942, 
  "阿拉伯": 9943, 
  "6日": 9944, 
  "悬殊": 9945, 
  "台湾省": 9946, 
  "科索沃": 9947, 
  "冯@@": 9948, 
  "游泳池": 9949, 
  "薇": 9950, 
  "润": 9951, 
  "谷@@": 9952, 
  "劣": 9953, 
  "录音": 9954, 
  "感化": 9955, 
  "新村": 9956, 
  "慰问": 9957, 
  "六百万": 9958, 
  "拼@@": 9959, 
  "善意": 9960, 
  "清楚地": 9961, 
  "移转": 9962, 
  "妹": 9963, 
  "诊断": 9964, 
  "悬浮": 9965, 
  "平常": 9966, 
  "下星期一": 9967, 
  "拥护": 9968, 
  "宫@@": 9969, 
  "免@@": 9970, 
  "耗@@": 9971, 
  "二000年五@@": 9972, 
  "合作社": 9973, 
  "二00二年十一@@": 9974, 
  "查处": 9975, 
  "海内外": 9976, 
  "服务期": 9977, 
  "演奏会": 9978, 
  "去年十二月": 9979, 
  "贩运": 9980, 
  "经济衰退": 9981, 
  "邓@@": 9982, 
  "这一切": 9983, 
  "扣减": 9984, 
  "景气": 9985, 
  "急速": 9986, 
  "椅": 9987, 
  "朝着": 9988, 
  "艺人": 9989, 
  "双语": 9990, 
  "欠薪": 9991, 
  "社区服务": 9992, 
  "影响到": 9993, 
  "怪@@": 9994, 
  "公证人": 9995, 
  "悉尼": 9996, 
  "七十八": 9997, 
  "脉@@": 9998, 
  "仁@@": 9999, 
  "活泼": 10000, 
  "憸": 10001, 
  "吸": 10002, 
  "收紧": 10003, 
  "激励": 10004, 
  "1-@@": 10005, 
  "8,@@": 10006, 
  "心目": 10007, 
  "在家": 10008, 
  "浓厚": 10009, 
  "宣称": 10010, 
  "曼@@": 10011, 
  "催@@": 10012, 
  "盟": 10013, 
  "百分之十点@@": 10014, 
  "相机": 10015, 
  "恐惧": 10016, 
  "一般而言": 10017, 
  "大专": 10018, 
  "挫折": 10019, 
  "何世柱": 10020, 
  "鉴定": 10021, 
  "二000年十二@@": 10022, 
  "二00二年六@@": 10023, 
  "心得": 10024, 
  "专注": 10025, 
  "副总统": 10026, 
  "1969年": 10027, 
  "电子政府": 10028, 
  "通力合作": 10029, 
  "沙滩": 10030, 
  "简直": 10031, 
  "二00二年四@@": 10032, 
  "敢@@": 10033, 
  "二00一年三@@": 10034, 
  "欠款": 10035, 
  "首位": 10036, 
  "火箭": 10037, 
  "一千二百@@": 10038, 
  "胆@@": 10039, 
  "慕": 10040, 
  "疏": 10041, 
  "三方": 10042, 
  "张永森": 10043, 
  "相较": 10044, 
  "梦@@": 10045, 
  "继而": 10046, 
  "风筝": 10047, 
  "获益": 10048, 
  "并进": 10049, 
  "二00二年十@@": 10050, 
  "七十二": 10051, 
  "热水": 10052, 
  "搞@@": 10053, 
  "赞@@": 10054, 
  "弯": 10055, 
  "桃@@": 10056, 
  "韵": 10057, 
  "征税": 10058, 
  "娘": 10059, 
  "拜访": 10060, 
  "各级党委": 10061, 
  "不下": 10062, 
  "发掘": 10063, 
  "运往": 10064, 
  "波斯": 10065, 
  "光复": 10066, 
  "全名": 10067, 
  "玉玺": 10068, 
  "分流": 10069, 
  "晋": 10070, 
  "将要": 10071, 
  "留学": 10072, 
  "自由贸易": 10073, 
  "跨国公司": 10074, 
  "ma@@": 10075, 
  "司法制度": 10076, 
  "常识": 10077, 
  "十四@@": 10078, 
  "1997年7月1日": 10079, 
  "帆船": 10080, 
  "古人": 10081, 
  "课堂": 10082, 
  "天空": 10083, 
  "接纳为": 10084, 
  "古典": 10085, 
  "乐器": 10086, 
  "分割": 10087, 
  "悦": 10088, 
  "不景气": 10089, 
  "航道": 10090, 
  "地道": 10091, 
  "搭@@": 10092, 
  "起到": 10093, 
  "福祉": 10094, 
  "残障": 10095, 
  "棉": 10096, 
  "院士": 10097, 
  "医@@": 10098, 
  "赫@@": 10099, 
  "不相同": 10100, 
  "存入": 10101, 
  "工作效率": 10102, 
  "单是": 10103, 
  "尧": 10104, 
  "裨益": 10105, 
  "人民法院": 10106, 
  "库@@": 10107, 
  "球赛": 10108, 
  "三百三十三": 10109, 
  "进军": 10110, 
  "心声": 10111, 
  "爆竹": 10112, 
  "惊讶": 10113, 
  "第二十@@": 10114, 
  "溺": 10115, 
  "同乐": 10116, 
  "打赢": 10117, 
  "强硬": 10118, 
  "多达": 10119, 
  "裂": 10120, 
  "优化": 10121, 
  "丝毫": 10122, 
  "加路连山": 10123, 
  "艺术@@": 10124, 
  "掩盖": 10125, 
  "联合会": 10126, 
  "宽松": 10127, 
  "出外": 10128, 
  "授课": 10129, 
  "代为": 10130, 
  "相类": 10131, 
  "碰撞": 10132, 
  "30%": 10133, 
  "推算": 10134, 
  "等到": 10135, 
  "九千": 10136, 
  "恋": 10137, 
  "赞": 10138, 
  "受害": 10139, 
  "扭转": 10140, 
  "清醒": 10141, 
  "中西": 10142, 
  "七十一": 10143, 
  "百分之十五": 10144, 
  "妻": 10145, 
  "露@@": 10146, 
  "遗址": 10147, 
  "贴@@": 10148, 
  "秉": 10149, 
  "一站式": 10150, 
  "姊妹": 10151, 
  "股权": 10152, 
  "教职员": 10153, 
  "生日": 10154, 
  "讲究": 10155, 
  "父@@": 10156, 
  "＄": 10157, 
  "中国人民解放军": 10158, 
  "体重": 10159, 
  "擦": 10160, 
  "髍": 10161, 
  "悲@@": 10162, 
  "磁@@": 10163, 
  "盐@@": 10164, 
  "危及": 10165, 
  "司徒华": 10166, 
  "邻近地区": 10167, 
  "月13日": 10168, 
  "杰@@": 10169, 
  "一堂": 10170, 
  "11月": 10171, 
  "风景": 10172, 
  "辩@@": 10173, 
  "一九九七年七月一日": 10174, 
  "冬@@": 10175, 
  "提取": 10176, 
  "救生": 10177, 
  "壹": 10178, 
  "信息技术": 10179, 
  "氧": 10180, 
  "度假": 10181, 
  "车速": 10182, 
  "二00一年一@@": 10183, 
  "辛": 10184, 
  "津": 10185, 
  "壶": 10186, 
  "脊": 10187, 
  "峰会": 10188, 
  "武装": 10189, 
  "平安": 10190, 
  "搁置": 10191, 
  "学业": 10192, 
  "测漏": 10193, 
  "高山": 10194, 
  "整治": 10195, 
  "流动资金": 10196, 
  "拦截": 10197, 
  "势必": 10198, 
  "夹@@": 10199, 
  "加倍": 10200, 
  "泥土": 10201, 
  "区分": 10202, 
  "法改会": 10203, 
  "火葬场": 10204, 
  "何文田": 10205, 
  "协@@": 10206, 
  "五项": 10207, 
  "乔@@": 10208, 
  "球队": 10209, 
  "过多": 10210, 
  "一样的": 10211, 
  "减幅": 10212, 
  "护卫": 10213, 
  "面值": 10214, 
  "陶瓷": 10215, 
  "潜能": 10216, 
  "吃饭": 10217, 
  "小标题": 10218, 
  "总量": 10219, 
  "回落": 10220, 
  "该校": 10221, 
  "极度": 10222, 
  "完备": 10223, 
  "寿命": 10224, 
  "山火": 10225, 
  "鸟类": 10226, 
  "攀@@": 10227, 
  "济@@": 10228, 
  "国际收支": 10229, 
  "其一": 10230, 
  "冻": 10231, 
  "拉票": 10232, 
  "汁": 10233, 
  "燃@@": 10234, 
  "虚报": 10235, 
  "意识形态": 10236, 
  "八万": 10237, 
  "ot@@": 10238, 
  "新世界": 10239, 
  "接见": 10240, 
  "瓦解": 10241, 
  "师傅": 10242, 
  "批判": 10243, 
  "是非": 10244, 
  "2-@@": 10245, 
  "使之": 10246, 
  "逐一": 10247, 
  "境界": 10248, 
  "芭蕾舞": 10249, 
  "进出口贸易": 10250, 
  "肥@@": 10251, 
  "一千三百@@": 10252, 
  "行政@@": 10253, 
  "二00一年六@@": 10254, 
  "辑": 10255, 
  "列举": 10256, 
  "国力": 10257, 
  "庙宇": 10258, 
  "五十七": 10259, 
  "揭开": 10260, 
  "救治": 10261, 
  "妇@@": 10262, 
  "牛头角": 10263, 
  "0.0@@": 10264, 
  "异议": 10265, 
  "移居": 10266, 
  "腰": 10267, 
  "铜@@": 10268, 
  "娤": 10269, 
  "决定权": 10270, 
  "漂亮": 10271, 
  "二00一年四@@": 10272, 
  "刑": 10273, 
  "叠": 10274, 
  "带到": 10275, 
  "免责": 10276, 
  "怨": 10277, 
  "公分": 10278, 
  "总统府": 10279, 
  "7,@@": 10280, 
  "庭@@": 10281, 
  "婆": 10282, 
  "113": 10283, 
  "磅": 10284, 
  "犯法": 10285, 
  "钓": 10286, 
  "摸": 10287, 
  "戈尔": 10288, 
  "国际法": 10289, 
  "凭@@": 10290, 
  "进来": 10291, 
  "即日": 10292, 
  "四成": 10293, 
  "佐证": 10294, 
  "水道": 10295, 
  "今年三月": 10296, 
  "稀@@": 10297, 
  "气压": 10298, 
  "愤怒": 10299, 
  "月17日": 10300, 
  "闭@@": 10301, 
  "par@@": 10302, 
  "扁": 10303, 
  "盖@@": 10304, 
  "向上": 10305, 
  "评选": 10306, 
  "军国主义": 10307, 
  "扫黄": 10308, 
  "变革": 10309, 
  "预": 10310, 
  "归还": 10311, 
  "本届": 10312, 
  "糖@@": 10313, 
  "四十万": 10314, 
  "压载": 10315, 
  "大臣": 10316, 
  "不予": 10317, 
  "二00一年二@@": 10318, 
  "合同": 10319, 
  "华南": 10320, 
  "1988": 10321, 
  "缤纷": 10322, 
  "书写": 10323, 
  "探亲": 10324, 
  "标明": 10325, 
  "墨@@": 10326, 
  "据报道": 10327, 
  "欢": 10328, 
  "业@@": 10329, 
  "精神@@": 10330, 
  "尤为": 10331, 
  "细胞": 10332, 
  "贵国": 10333, 
  "黄伟": 10334, 
  "泄@@": 10335, 
  "抛@@": 10336, 
  "工业界": 10337, 
  "彬": 10338, 
  "通路": 10339, 
  "洞@@": 10340, 
  "各人": 10341, 
  "自制": 10342, 
  "宽限": 10343, 
  "漏": 10344, 
  "出版社": 10345, 
  "习@@": 10346, 
  "跨@@": 10347, 
  "新任": 10348, 
  "不分": 10349, 
  "抽签": 10350, 
  "专项": 10351, 
  "理所当然": 10352, 
  "热爱": 10353, 
  "下午二@@": 10354, 
  "更进一步": 10355, 
  "巨": 10356, 
  "南斯拉夫": 10357, 
  "跌@@": 10358, 
  "疏@@": 10359, 
  "找@@": 10360, 
  "硬件": 10361, 
  "路口": 10362, 
  "病房": 10363, 
  "腹@@": 10364, 
  "旋@@": 10365, 
  "悬赏": 10366, 
  "勒@@": 10367, 
  "报税表": 10368, 
  "过关": 10369, 
  "母乳": 10370, 
  "桩": 10371, 
  "受屈": 10372, 
  "款待": 10373, 
  "月23日": 10374, 
  "掀起": 10375, 
  "裤": 10376, 
  "银行界": 10377, 
  "饮用": 10378, 
  "八个": 10379, 
  "改用": 10380, 
  "操纵": 10381, 
  "竞争对手": 10382, 
  "咀": 10383, 
  "玉山": 10384, 
  "毛病": 10385, 
  "几项": 10386, 
  "俩": 10387, 
  "1995年@@": 10388, 
  "研@@": 10389, 
  "半导体": 10390, 
  "全社会": 10391, 
  "智利": 10392, 
  "胞": 10393, 
  "通缉": 10394, 
  "嘛": 10395, 
  "个小时": 10396, 
  "译本": 10397, 
  "彦": 10398, 
  ":@@": 10399, 
  "俞": 10400, 
  "106": 10401, 
  "我@@": 10402, 
  "拟@@": 10403, 
  "呀": 10404, 
  "证券交易所": 10405, 
  "百分之十一": 10406, 
  "八亿": 10407, 
  "二00一年十@@": 10408, 
  "九龙湾": 10409, 
  "轮船": 10410, 
  "楼市": 10411, 
  "书包": 10412, 
  "邻居": 10413, 
  "ant": 10414, 
  "探测": 10415, 
  "逝": 10416, 
  "洒": 10417, 
  "生命力": 10418, 
  "监@@": 10419, 
  "企业界": 10420, 
  "金正日": 10421, 
  "转化": 10422, 
  "收获": 10423, 
  "摧毁": 10424, 
  "专员公署": 10425, 
  "仲": 10426, 
  "首批": 10427, 
  "今年四月": 10428, 
  "线路": 10429, 
  "随便": 10430, 
  "会期": 10431, 
  "继光": 10432, 
  "女皇": 10433, 
  "同心协力": 10434, 
  "先进性": 10435, 
  "小童": 10436, 
  "逼@@": 10437, 
  "est@@": 10438, 
  "坚强": 10439, 
  "较好": 10440, 
  "步行": 10441, 
  "企业@@": 10442, 
  "鸟@@": 10443, 
  "体积": 10444, 
  "秀茂坪": 10445, 
  "华语": 10446, 
  "5,000": 10447, 
  "七亿": 10448, 
  "多极化": 10449, 
  "11日": 10450, 
  "不起": 10451, 
  "先例": 10452, 
  "工伤": 10453, 
  "截获": 10454, 
  "之多": 10455, 
  "一百二十@@": 10456, 
  "精心": 10457, 
  "1950年": 10458, 
  "陪": 10459, 
  "一九九五@@": 10460, 
  "时半": 10461, 
  "案例": 10462, 
  "氧化@@": 10463, 
  "12月": 10464, 
  "人民日报": 10465, 
  "单单": 10466, 
  "魅力": 10467, 
  "避风塘": 10468, 
  "剩下": 10469, 
  "昭": 10470, 
  "数千": 10471, 
  "模@@": 10472, 
  "适时": 10473, 
  "阮": 10474, 
  "六十一": 10475, 
  "上学": 10476, 
  "兼@@": 10477, 
  "隆重": 10478, 
  "乙@@": 10479, 
  "填报": 10480, 
  "114": 10481, 
  "如同": 10482, 
  "商谈": 10483, 
  "12.@@": 10484, 
  "原始": 10485, 
  "暴": 10486, 
  "岭南": 10487, 
  "战后": 10488, 
  "多处": 10489, 
  "宾@@": 10490, 
  "添@@": 10491, 
  "冬季": 10492, 
  "匠": 10493, 
  "大力支持": 10494, 
  "交接": 10495, 
  "大雨": 10496, 
  "密封": 10497, 
  "赎回": 10498, 
  "SARS": 10499, 
  "醉": 10500, 
  "上帝": 10501, 
  "企@@": 10502, 
  "梁刘": 10503, 
  "邻@@": 10504, 
  "柔芬": 10505, 
  "勤奋": 10506, 
  "申@@": 10507, 
  "9,@@": 10508, 
  "降落": 10509, 
  "撑": 10510, 
  "骚扰": 10511, 
  "络": 10512, 
  "动态": 10513, 
  "联席会议": 10514, 
  "脂": 10515, 
  "牙科": 10516, 
  "使用费": 10517, 
  "包裹": 10518, 
  "北方": 10519, 
  "园@@": 10520, 
  "化合物": 10521, 
  "援助计划": 10522, 
  "二00二年八@@": 10523, 
  "启德": 10524, 
  "遥远": 10525, 
  "建基": 10526, 
  "蝴蝶": 10527, 
  "展览厅": 10528, 
  "钻@@": 10529, 
  "六十万": 10530, 
  "吐": 10531, 
  "想想": 10532, 
  "烂": 10533, 
  "罕见": 10534, 
  "此地": 10535, 
  "仅@@": 10536, 
  "七十三": 10537, 
  "人性": 10538, 
  "八十年代": 10539, 
  "较@@": 10540, 
  "莉": 10541, 
  "亏": 10542, 
  "增拨": 10543, 
  "申报表": 10544, 
  "针对性": 10545, 
  "螺@@": 10546, 
  "导航": 10547, 
  "斑": 10548, 
  "吊@@": 10549, 
  "乐队": 10550, 
  "来得": 10551, 
  "旁@@": 10552, 
  "生物@@": 10553, 
  "生动": 10554, 
  "级@@": 10555, 
  "右翼": 10556, 
  "畜@@": 10557, 
  "放入": 10558, 
  "春天": 10559, 
  "银行@@": 10560, 
  "林明": 10561, 
  "昭@@": 10562, 
  "新建": 10563, 
  "幻@@": 10564, 
  "牧@@": 10565, 
  "逆@@": 10566, 
  "风潮": 10567, 
  "愉": 10568, 
  "旧式": 10569, 
  "饮料": 10570, 
  "盖上": 10571, 
  "演绎": 10572, 
  "描绘": 10573, 
  "天然气": 10574, 
  "岂@@": 10575, 
  "总之": 10576, 
  "社会工作": 10577, 
  "细小": 10578, 
  "赐": 10579, 
  "一九九八至九九年": 10580, 
  "启发": 10581, 
  "灌": 10582, 
  "七十九": 10583, 
  "南海": 10584, 
  "一九九八年四@@": 10585, 
  "论文": 10586, 
  "港@@": 10587, 
  "更生": 10588, 
  "教堂": 10589, 
  "赏@@": 10590, 
  "陈智思": 10591, 
  "四至": 10592, 
  "东江": 10593, 
  "四亿": 10594, 
  "二000年十一@@": 10595, 
  "开心": 10596, 
  "诫": 10597, 
  "拔@@": 10598, 
  "的@@": 10599, 
  "门口": 10600, 
  "录@@": 10601, 
  "砭": 10602, 
  "岸@@": 10603, 
  "备用": 10604, 
  "驳回": 10605, 
  "倒是": 10606, 
  "参赛者": 10607, 
  "月14日": 10608, 
  "愈来愈多": 10609, 
  "近代": 10610, 
  "灵魂": 10611, 
  "号@@": 10612, 
  "支撑": 10613, 
  "下面": 10614, 
  "天天": 10615, 
  "宏@@": 10616, 
  "炸": 10617, 
  "弱@@": 10618, 
  "单元": 10619, 
  "艺@@": 10620, 
  "上环": 10621, 
  "职守": 10622, 
  "孝@@": 10623, 
  "彼@@": 10624, 
  "2月": 10625, 
  "半小时": 10626, 
  "脱困": 10627, 
  "渴望": 10628, 
  "佣": 10629, 
  "木材": 10630, 
  "名誉": 10631, 
  "垂直": 10632, 
  "预见": 10633, 
  "革新": 10634, 
  "二00一年七@@": 10635, 
  "爬@@": 10636, 
  "ing@@": 10637, 
  "诺@@": 10638, 
  "侨胞": 10639, 
  "蒙古": 10640, 
  "优质服务": 10641, 
  "装卸区": 10642, 
  "稍为": 10643, 
  "高官": 10644, 
  "凶杀案": 10645, 
  "惯常": 10646, 
  "二百八十@@": 10647, 
  "难怪": 10648, 
  "停课": 10649, 
  "极高": 10650, 
  "信箱": 10651, 
  "七十四": 10652, 
  "毫无疑问": 10653, 
  "禾": 10654, 
  "惑": 10655, 
  "还能": 10656, 
  "女孩": 10657, 
  "名词": 10658, 
  "火车站": 10659, 
  "全国人民": 10660, 
  "泪": 10661, 
  "一波": 10662, 
  "井@@": 10663, 
  "狄": 10664, 
  "弱智": 10665, 
  "拍照": 10666, 
  "野生": 10667, 
  "谢意": 10668, 
  "挂号": 10669, 
  "魔": 10670, 
  "音乐学院": 10671, 
  "银线": 10672, 
  "转用": 10673, 
  "袁@@": 10674, 
  "舞弊": 10675, 
  "各地区": 10676, 
  "肩": 10677, 
  "七十七": 10678, 
  "场面": 10679, 
  "分离": 10680, 
  "阁下": 10681, 
  "相隔": 10682, 
  "处事": 10683, 
  "产值": 10684, 
  "萎缩": 10685, 
  "搭建": 10686, 
  "火力": 10687, 
  "1,000": 10688, 
  "养鱼": 10689, 
  "电视广播": 10690, 
  "津@@": 10691, 
  "下午三@@": 10692, 
  "能量": 10693, 
  "石广生": 10694, 
  "一九九八年六@@": 10695, 
  "均@@": 10696, 
  "仗": 10697, 
  "基本@@": 10698, 
  "贯": 10699, 
  "有毒": 10700, 
  "有心": 10701, 
  "筏": 10702, 
  "选用": 10703, 
  "浴室": 10704, 
  "op@@": 10705, 
  "告发": 10706, 
  "110": 10707, 
  "辰": 10708, 
  "尿": 10709, 
  "将军": 10710, 
  "百分之三十": 10711, 
  "副教授": 10712, 
  "垫@@": 10713, 
  "排放量": 10714, 
  "军备竞赛": 10715, 
  "有形": 10716, 
  "人流": 10717, 
  "止@@": 10718, 
  "地方@@": 10719, 
  "不符": 10720, 
  "群体": 10721, 
  "这几年": 10722, 
  "理会": 10723, 
  "112": 10724, 
  "二000年九@@": 10725, 
  "无私": 10726, 
  "整天": 10727, 
  "极力": 10728, 
  "3月31日": 10729, 
  "订票": 10730, 
  "产物": 10731, 
  "淑@@": 10732, 
  "九万@@": 10733, 
  "瑞典": 10734, 
  "确@@": 10735, 
  "大麻": 10736, 
  "物色": 10737, 
  "交通管制": 10738, 
  "分成": 10739, 
  "选购": 10740, 
  "司法独立": 10741, 
  "含@@": 10742, 
  "取录": 10743, 
  "刑期": 10744, 
  "二九@@": 10745, 
  "租@@": 10746, 
  "考古": 10747, 
  "鲸": 10748, 
  "布局": 10749, 
  "出发点": 10750, 
  "负有": 10751, 
  "起点": 10752, 
  "菊": 10753, 
  "翻查": 10754, 
  "丹@@": 10755, 
  "不作为": 10756, 
  "超额": 10757, 
  "剧本": 10758, 
  "宏观": 10759, 
  "烷": 10760, 
  "户@@": 10761, 
  "帕@@": 10762, 
  "数值": 10763, 
  "衍": 10764, 
  "借鉴": 10765, 
  "表述": 10766, 
  "准予": 10767, 
  "空前": 10768, 
  "炸@@": 10769, 
  "优胜": 10770, 
  "傅": 10771, 
  "动荡": 10772, 
  "伤人": 10773, 
  "扶持": 10774, 
  "有一点": 10775, 
  "精致": 10776, 
  "分段": 10777, 
  "上午十@@": 10778, 
  "人民大会堂": 10779, 
  "网络@@": 10780, 
  "纪念@@": 10781, 
  "九个": 10782, 
  "贪": 10783, 
  "誓言": 10784, 
  "故宫": 10785, 
  "河运": 10786, 
  "三峡": 10787, 
  "11.@@": 10788, 
  "雕刻": 10789, 
  "拒@@": 10790, 
  "敲@@": 10791, 
  "警长": 10792, 
  "一九九八年五@@": 10793, 
  "期权": 10794, 
  "灌输": 10795, 
  "风光": 10796, 
  "夏天": 10797, 
  "割": 10798, 
  "池@@": 10799, 
  "根源": 10800, 
  "外人": 10801, 
  "革命@@": 10802, 
  "放松": 10803, 
  "励": 10804, 
  "1月": 10805, 
  "垦": 10806, 
  "金融界": 10807, 
  "逃生": 10808, 
  "构@@": 10809, 
  "外交部长": 10810, 
  "凡是": 10811, 
  "堤": 10812, 
  "虚": 10813, 
  "海豚": 10814, 
  "束": 10815, 
  "安心": 10816, 
  "疗法": 10817, 
  "90%": 10818, 
  "泉@@": 10819, 
  "渡@@": 10820, 
  "从严": 10821, 
  "有关单位": 10822, 
  "藻": 10823, 
  "卷@@": 10824, 
  "油轮": 10825, 
  "午夜": 10826, 
  "正规": 10827, 
  "月31日": 10828, 
  "沪": 10829, 
  "奉": 10830, 
  "追查": 10831, 
  "宇宙": 10832, 
  "腔": 10833, 
  "亦即": 10834, 
  "援@@": 10835, 
  "二00二年七@@": 10836, 
  "混淆": 10837, 
  "录影": 10838, 
  "绕道": 10839, 
  "爱尔兰": 10840, 
  "摘录": 10841, 
  "益@@": 10842, 
  "世界@@": 10843, 
  "信赖": 10844, 
  "误会": 10845, 
  "禀": 10846, 
  "棚": 10847, 
  "之地": 10848, 
  "无所@@": 10849, 
  "po@@": 10850, 
  "标示": 10851, 
  "果断": 10852, 
  "二00二年五@@": 10853, 
  "tr@@": 10854, 
  "工业化": 10855, 
  "新蒲岗": 10856, 
  "猪@@": 10857, 
  "猎": 10858, 
  "建筑@@": 10859, 
  "age": 10860, 
  "陕": 10861, 
  "二00二年三@@": 10862, 
  "扎": 10863, 
  "美金": 10864, 
  "诺夫": 10865, 
  "仑": 10866, 
  "何谓": 10867, 
  "民主化": 10868, 
  "芝": 10869, 
  "结核病": 10870, 
  "设计师": 10871, 
  "理事": 10872, 
  "逆转": 10873, 
  "二00三年二@@": 10874, 
  "定时": 10875, 
  "明智": 10876, 
  "齰": 10877, 
  "姑@@": 10878, 
  "不断地": 10879, 
  "第二天": 10880, 
  "精美": 10881, 
  "架@@": 10882, 
  "炒": 10883, 
  "二00一年五@@": 10884, 
  "六成": 10885, 
  "呼声": 10886, 
  "购票": 10887, 
  "反弹": 10888, 
  "接手": 10889, 
  "文人": 10890, 
  "来华": 10891, 
  "神秘": 10892, 
  "组件": 10893, 
  "心脏病": 10894, 
  "文献": 10895, 
  "总和": 10896, 
  "编码": 10897, 
  "子孙": 10898, 
  "各行业": 10899, 
  "历时": 10900, 
  "医学界": 10901, 
  "偿付": 10902, 
  "珍@@": 10903, 
  "一千万": 10904, 
  "趋向": 10905, 
  "涌@@": 10906, 
  "百分之九": 10907, 
  "工友": 10908, 
  "难度": 10909, 
  "03": 10910, 
  "于@@": 10911, 
  "音乐厅": 10912, 
  "山道": 10913, 
  "掌声": 10914, 
  "前任": 10915, 
  "科技@@": 10916, 
  "视听": 10917, 
  "烟雾": 10918, 
  "做过": 10919, 
  "56@@": 10920, 
  "阻挠": 10921, 
  "亚运": 10922, 
  "引渡": 10923, 
  "蜡": 10924, 
  "干舷": 10925, 
  "混": 10926, 
  "排斥": 10927, 
  "体内": 10928, 
  "9亿": 10929, 
  "受理": 10930, 
  "零点三": 10931, 
  "薄@@": 10932, 
  "肇": 10933, 
  "头脑": 10934, 
  "诊治": 10935, 
  "技术人员": 10936, 
  "一千六百@@": 10937, 
  "一九九零年": 10938, 
  "勋章": 10939, 
  "旁听": 10940, 
  "上午七@@": 10941, 
  "染@@": 10942, 
  "三国": 10943, 
  "外墙": 10944, 
  "联手": 10945, 
  "耗": 10946, 
  "0个": 10947, 
  "州@@": 10948, 
  "按摩": 10949, 
  "县市": 10950, 
  "柄": 10951, 
  "跃": 10952, 
  "选配": 10953, 
  "原理": 10954, 
  "十二月份": 10955, 
  "八百万": 10956, 
  "消极": 10957, 
  "漏@@": 10958, 
  "铸@@": 10959, 
  "13.@@": 10960, 
  "熄": 10961, 
  "下旬": 10962, 
  "拾": 10963, 
  "二亿@@": 10964, 
  "美食": 10965, 
  "分数": 10966, 
  "有计划": 10967, 
  "遣散费": 10968, 
  "射击": 10969, 
  "凶": 10970, 
  "竭力": 10971, 
  "5A": 10972, 
  "渡过": 10973, 
  "1929": 10974, 
  "球员": 10975, 
  "沿@@": 10976, 
  "抉择": 10977, 
  "跑道": 10978, 
  "电梯": 10979, 
  "前年": 10980, 
  "沉降": 10981, 
  "洛杉矶": 10982, 
  "不怕": 10983, 
  "资@@": 10984, 
  "六亿": 10985, 
  "上午六@@": 10986, 
  "科学研究": 10987, 
  "视学": 10988, 
  "通行": 10989, 
  "原诉": 10990, 
  "二00一年十一@@": 10991, 
  "斌": 10992, 
  "遗骸": 10993, 
  "翻版": 10994, 
  "复原": 10995, 
  "植树": 10996, 
  "百分之八十": 10997, 
  "榜": 10998, 
  "空袭": 10999, 
  "印花": 11000, 
  "框": 11001, 
  "碍": 11002, 
  "晚会": 11003, 
  "2至@@": 11004, 
  "现@@": 11005, 
  "定案": 11006, 
  "投放": 11007, 
  "孟": 11008, 
  "听说": 11009, 
  "寄往": 11010, 
  "八月一日": 11011, 
  "出台": 11012, 
  "地质": 11013, 
  "现况": 11014, 
  "疏导": 11015, 
  "后备": 11016, 
  "鼻": 11017, 
  "高速公路": 11018, 
  "如曾": 11019, 
  "心脏": 11020, 
  "毁坏": 11021, 
  "筹备委员会": 11022, 
  "错过": 11023, 
  "缉@@": 11024, 
  "贾@@": 11025, 
  "菇": 11026, 
  "救助": 11027, 
  "颇有": 11028, 
  "以内": 11029, 
  "身边": 11030, 
  "称赞": 11031, 
  "投身": 11032, 
  "无线电话": 11033, 
  "鹏": 11034, 
  "充气": 11035, 
  "首届": 11036, 
  "oc@@": 11037, 
  "所有权": 11038, 
  "祈@@": 11039, 
  "盲目": 11040, 
  "闭路电视": 11041, 
  "回旋": 11042, 
  "捷": 11043, 
  "李启明": 11044, 
  "航空器": 11045, 
  "总干事": 11046, 
  "科技界": 11047, 
  "子弟": 11048, 
  "校方": 11049, 
  "业余": 11050, 
  "补助金": 11051, 
  "传出": 11052, 
  "除害": 11053, 
  "登陆": 11054, 
  "大奖": 11055, 
  "一架": 11056, 
  "别国": 11057, 
  "牙@@": 11058, 
  "编写": 11059, 
  "有罪": 11060, 
  "优待": 11061, 
  "九成": 11062, 
  "卖方": 11063, 
  "打电话": 11064, 
  "执行@@": 11065, 
  "曹@@": 11066, 
  "昌@@": 11067, 
  "皇帝": 11068, 
  "拿到": 11069, 
  "离去": 11070, 
  "出动": 11071, 
  "地步": 11072, 
  "转运站": 11073, 
  "灯光": 11074, 
  "美术馆": 11075, 
  "宏伟": 11076, 
  "屡次": 11077, 
  "体育@@": 11078, 
  "财政部": 11079, 
  "相近": 11080, 
  "召集人": 11081, 
  "考核": 11082, 
  "扩@@": 11083, 
  "治国": 11084, 
  "英国人": 11085, 
  "架次": 11086, 
  "石头": 11087, 
  "丑@@": 11088, 
  "屠场": 11089, 
  "服从": 11090, 
  "坝": 11091, 
  "比如": 11092, 
  "偶然": 11093, 
  "Con@@": 11094, 
  "平面": 11095, 
  "高水平": 11096, 
  "今年一月": 11097, 
  "坚实": 11098, 
  "敌对": 11099, 
  "改组": 11100, 
  "总人数": 11101, 
  "重心": 11102, 
  "溪@@": 11103, 
  "百分之十二点@@": 11104, 
  "第十一": 11105, 
  "一元": 11106, 
  "出版@@": 11107, 
  "一九八八年": 11108, 
  "陌生": 11109, 
  "商业中心": 11110, 
  "沟": 11111, 
  "sp@@": 11112, 
  "恰@@": 11113, 
  "和谈": 11114, 
  "机票": 11115, 
  "风雨": 11116, 
  "事态": 11117, 
  "浓": 11118, 
  "共通": 11119, 
  "彼此的": 11120, 
  "后期": 11121, 
  "闭": 11122, 
  "摇": 11123, 
  "禅": 11124, 
  "邮资": 11125, 
  "li@@": 11126, 
  "过渡性": 11127, 
  "矽": 11128, 
  "心愿": 11129, 
  "部件": 11130, 
  "坦@@": 11131, 
  "编排": 11132, 
  "环球": 11133, 
  "五千万": 11134, 
  "时才": 11135, 
  "勇@@": 11136, 
  "不一": 11137, 
  "(vii)": 11138, 
  "(m)": 11139, 
  "勘察": 11140, 
  "下次": 11141, 
  "恤": 11142, 
  "积累": 11143, 
  "起重": 11144, 
  "海滨": 11145, 
  "非官方": 11146, 
  "有目共睹": 11147, 
  "下午五@@": 11148, 
  "盛会": 11149, 
  "当场": 11150, 
  "石硖尾": 11151, 
  "八十八": 11152, 
  "手表": 11153, 
  "领馆": 11154, 
  "柏林": 11155, 
  "丁@@": 11156, 
  "ISO": 11157, 
  "畅": 11158, 
  "对比": 11159, 
  "属实": 11160, 
  "伸@@": 11161, 
  "财力": 11162, 
  "皆@@": 11163, 
  "三百一@@": 11164, 
  "包围": 11165, 
  "设想": 11166, 
  "殊": 11167, 
  "Y": 11168, 
  "vi@@": 11169, 
  "游人": 11170, 
  "盟国": 11171, 
  "失控": 11172, 
  "忘@@": 11173, 
  "常设": 11174, 
  "人命": 11175, 
  "中式": 11176, 
  "得主": 11177, 
  "党组织": 11178, 
  "繁重": 11179, 
  "衰退": 11180, 
  "角落": 11181, 
  "访美": 11182, 
  "二000年十@@": 11183, 
  "意味着": 11184, 
  "初中": 11185, 
  "尉健行": 11186, 
  "掷": 11187, 
  "湿地": 11188, 
  "同季": 11189, 
  "测@@": 11190, 
  "lo@@": 11191, 
  "积水": 11192, 
  "司法@@": 11193, 
  "国债": 11194, 
  "境@@": 11195, 
  "娱乐场所": 11196, 
  "一百九十@@": 11197, 
  "北面": 11198, 
  "不然": 11199, 
  "造就": 11200, 
  "热诚": 11201, 
  "浆": 11202, 
  "十九@@": 11203, 
  "千里": 11204, 
  "旅程": 11205, 
  "泛": 11206, 
  "月27日": 11207, 
  "昔日": 11208, 
  "对照": 11209, 
  "投寄": 11210, 
  "七十年代": 11211, 
  "功课": 11212, 
  "多姿": 11213, 
  "上空": 11214, 
  "铅": 11215, 
  "物资": 11216, 
  "蓄意": 11217, 
  "爱丁堡": 11218, 
  "众议院": 11219, 
  "法理": 11220, 
  "劝@@": 11221, 
  "实质上": 11222, 
  "一九八七年": 11223, 
  "客船": 11224, 
  "伐": 11225, 
  "衔": 11226, 
  "有钱": 11227, 
  "四川": 11228, 
  "水污染": 11229, 
  "陵": 11230, 
  "百分之四十@@": 11231, 
  "一九九八年七@@": 11232, 
  "1998-99": 11233, 
  "举措": 11234, 
  "界面": 11235, 
  "ta@@": 11236, 
  "英文版": 11237, 
  "累@@": 11238, 
  "无比": 11239, 
  "俞宗怡": 11240, 
  "给@@": 11241, 
  "麻疹": 11242, 
  "封面": 11243, 
  "月24日": 11244, 
  "琼": 11245, 
  "南面": 11246, 
  "四百万": 11247, 
  "下星期": 11248, 
  "种族歧视": 11249, 
  "坎@@": 11250, 
  "经济援助": 11251, 
  "樽": 11252, 
  "频频": 11253, 
  "常用": 11254, 
  "一体": 11255, 
  "吴仪": 11256, 
  "尸": 11257, 
  "评分": 11258, 
  "指摘": 11259, 
  "命名": 11260, 
  "胆": 11261, 
  "不须": 11262, 
  "侵@@": 11263, 
  "深水埗区": 11264, 
  "九月底": 11265, 
  "盗": 11266, 
  "斤": 11267, 
  "忌": 11268, 
  "欠妥": 11269, 
  "0年@@": 11270, 
  "周期": 11271, 
  "吕@@": 11272, 
  "暂缓": 11273, 
  "桥@@": 11274, 
  "去年底": 11275, 
  "佩英": 11276, 
  "成交": 11277, 
  "穷": 11278, 
  "一九九四年@@": 11279, 
  "疑@@": 11280, 
  "入侵": 11281, 
  "绘": 11282, 
  "大企业": 11283, 
  "刑@@": 11284, 
  "俱乐部": 11285, 
  "靠@@": 11286, 
  "法律效力": 11287, 
  "战区": 11288, 
  "end@@": 11289, 
  "召集": 11290, 
  "有名": 11291, 
  "上演": 11292, 
  "受益": 11293, 
  "责任感": 11294, 
  "甚@@": 11295, 
  "重伤": 11296, 
  "事务所": 11297, 
  "伊朗": 11298, 
  "歌唱": 11299, 
  "两旁": 11300, 
  "坚信": 11301, 
  "枣": 11302, 
  "奉献": 11303, 
  "多边贸易": 11304, 
  "会堂": 11305, 
  "二000年七@@": 11306, 
  "46@@": 11307, 
  "疾": 11308, 
  "软体": 11309, 
  "一连": 11310, 
  "50万": 11311, 
  "乳@@": 11312, 
  "多伦多": 11313, 
  "失聪": 11314, 
  "字母": 11315, 
  "庇护": 11316, 
  "着眼": 11317, 
  "关切": 11318, 
  "历经": 11319, 
  "哭": 11320, 
  "地形": 11321, 
  "固体": 11322, 
  "旱": 11323, 
  "最高法院": 11324, 
  "不止": 11325, 
  "膜": 11326, 
  "序幕": 11327, 
  "担@@": 11328, 
  "国家公园": 11329, 
  "拘": 11330, 
  "塑": 11331, 
  "损@@": 11332, 
  "喝酒": 11333, 
  "四年@@": 11334, 
  "涂@@": 11335, 
  "拖车": 11336, 
  "搜@@": 11337, 
  "歌声": 11338, 
  "绝非": 11339, 
  "钻": 11340, 
  "教育程度": 11341, 
  "中部": 11342, 
  "揭@@": 11343, 
  "重任": 11344, 
  "口味": 11345, 
  "中秋节": 11346, 
  "厝": 11347, 
  "直播": 11348, 
  "绍": 11349, 
  "社@@": 11350, 
  "6月30日": 11351, 
  "信息@@": 11352, 
  "厂房": 11353, 
  "神话": 11354, 
  "堕": 11355, 
  "反之": 11356, 
  "二十四@@": 11357, 
  "滚@@": 11358, 
  "世代": 11359, 
  "疲@@": 11360, 
  "巢": 11361, 
  "酒吧": 11362, 
  "珊瑚": 11363, 
  "比赛中": 11364, 
  "繁复": 11365, 
  "之列": 11366, 
  "昔": 11367, 
  "从速": 11368, 
  "意识到": 11369, 
  "察觉": 11370, 
  "ci@@": 11371, 
  "减省": 11372, 
  "样子": 11373, 
  "公信力": 11374, 
  "一三四点@@": 11375, 
  "昆虫": 11376, 
  "园林": 11377, 
  "高潮": 11378, 
  "脷": 11379, 
  "四个": 11380, 
  "警讯": 11381, 
  "蒂": 11382, 
  "茂@@": 11383, 
  "奈": 11384, 
  "又可": 11385, 
  "Ⅱ": 11386, 
  "李鹏飞": 11387, 
  "藤": 11388, 
  "隐藏": 11389, 
  "趣味": 11390, 
  "政治@@": 11391, 
  "提供者": 11392, 
  "少许": 11393, 
  "管弦乐团": 11394, 
  "氮": 11395, 
  "幸": 11396, 
  "省长": 11397, 
  "挤@@": 11398, 
  "肺@@": 11399, 
  "书法": 11400, 
  "问答": 11401, 
  "邪": 11402, 
  "强行": 11403, 
  "疫情": 11404, 
  "柬埔寨": 11405, 
  "全方位": 11406, 
  "10万": 11407, 
  "1998@@": 11408, 
  "西南": 11409, 
  "坦白": 11410, 
  "厚度": 11411, 
  "琳": 11412, 
  "af@@": 11413, 
  "外币存款": 11414, 
  "单亲": 11415, 
  "枯@@": 11416, 
  "毁灭": 11417, 
  "灭@@": 11418, 
  "熙": 11419, 
  "眼镜": 11420, 
  "深圳市": 11421, 
  "风貌": 11422, 
  "闻名": 11423, 
  "00万": 11424, 
  "功率": 11425, 
  "就算": 11426, 
  "加盖": 11427, 
  "埋伏": 11428, 
  "目录": 11429, 
  "配置": 11430, 
  "大前提": 11431, 
  "et": 11432, 
  "人造": 11433, 
  "按下": 11434, 
  "会见时": 11435, 
  "全球性": 11436, 
  "已知": 11437, 
  "有数": 11438, 
  "教徒": 11439, 
  "垫款": 11440, 
  "瑜": 11441, 
  "礼物": 11442, 
  "垫": 11443, 
  "腺": 11444, 
  "如常": 11445, 
  "煞": 11446, 
  "暗示": 11447, 
  "流传": 11448, 
  "坑道": 11449, 
  "市中心": 11450, 
  "在外": 11451, 
  "序": 11452, 
  "张万年": 11453, 
  "查核": 11454, 
  "幽@@": 11455, 
  "形状": 11456, 
  "检定": 11457, 
  "二00二年九@@": 11458, 
  "相结合": 11459, 
  "内心": 11460, 
  "比喻": 11461, 
  "中午十二@@": 11462, 
  "箭": 11463, 
  "闲": 11464, 
  "场馆": 11465, 
  "销售@@": 11466, 
  "碇": 11467, 
  "过时": 11468, 
  "不行": 11469, 
  "集资": 11470, 
  "一九九八年八@@": 11471, 
  "饭@@": 11472, 
  "百分之十二": 11473, 
  "服刑": 11474, 
  "一轮": 11475, 
  "储@@": 11476, 
  "兰花": 11477, 
  "甚或": 11478, 
  "俊@@": 11479, 
  "保证金": 11480, 
  "梯@@": 11481, 
  "借用": 11482, 
  "发挥作用": 11483, 
  "漫长": 11484, 
  "位@@": 11485, 
  "瑞麟": 11486, 
  "月22日": 11487, 
  "轰炸": 11488, 
  "动向": 11489, 
  "购@@": 11490, 
  "姜": 11491, 
  "宗教界": 11492, 
  "反导条约": 11493, 
  "一九九八年九@@": 11494, 
  "第十二": 11495, 
  "干脆": 11496, 
  "交通灯": 11497, 
  "(x@@": 11498, 
  "几点": 11499, 
  "原油": 11500, 
  "本着": 11501, 
  "二00一年九@@": 11502, 
  "if@@": 11503, 
  "准@@": 11504, 
  "纪律委员会": 11505, 
  "洲@@": 11506, 
  "高空": 11507, 
  "牢固": 11508, 
  "文锦渡": 11509, 
  "倾": 11510, 
  "一九@@": 11511, 
  "充": 11512, 
  "抢劫": 11513, 
  "搏": 11514, 
  "H5N1": 11515, 
  "国王": 11516, 
  "小提琴": 11517, 
  "59@@": 11518, 
  "以东": 11519, 
  "耐心": 11520, 
  "入伙": 11521, 
  "竞逐": 11522, 
  "经济基础": 11523, 
  "升至": 11524, 
  "12月31日": 11525, 
  "璅": 11526, 
  "晶": 11527, 
  "司法机关": 11528, 
  "鬼@@": 11529, 
  "现职": 11530, 
  "每逢": 11531, 
  "绣": 11532, 
  "浦": 11533, 
  "赠@@": 11534, 
  "刺@@": 11535, 
  "这座": 11536, 
  "灰色": 11537, 
  "监理": 11538, 
  "逃走": 11539, 
  "顺应": 11540, 
  "药剂师": 11541, 
  "四分之一": 11542, 
  "走到": 11543, 
  "电路": 11544, 
  "陷井": 11545, 
  "检视": 11546, 
  "柔@@": 11547, 
  "本次": 11548, 
  "季军": 11549, 
  "晶片": 11550, 
  "可循": 11551, 
  "伸": 11552, 
  "弊": 11553, 
  "宴会": 11554, 
  "碎@@": 11555, 
  "水源": 11556, 
  "主因": 11557, 
  "迟@@": 11558, 
  "庸": 11559, 
  "定价": 11560, 
  "下午六@@": 11561, 
  "守法": 11562, 
  "四月@@": 11563, 
  "割@@": 11564, 
  "菁": 11565, 
  "诞": 11566, 
  "混合物": 11567, 
  "青春": 11568, 
  "前身": 11569, 
  "篷": 11570, 
  "疾@@": 11571, 
  "会后": 11572, 
  "逐@@": 11573, 
  "焦": 11574, 
  "从不": 11575, 
  "起码": 11576, 
  "层楼": 11577, 
  "车票": 11578, 
  "钻石山": 11579, 
  "新产品": 11580, 
  "濂": 11581, 
  "阴影": 11582, 
  "澳大利亚": 11583, 
  "诱": 11584, 
  "时零@@": 11585, 
  "仅有": 11586, 
  "可爱": 11587, 
  "od@@": 11588, 
  "二00四年": 11589, 
  "浪潮": 11590, 
  "数列": 11591, 
  "炯": 11592, 
  "春节": 11593, 
  "留待": 11594, 
  "笛": 11595, 
  "签@@": 11596, 
  "荒谬": 11597, 
  "土壤": 11598, 
  "穷@@": 11599, 
  "40%": 11600, 
  "徒@@": 11601, 
  "三七": 11602, 
  "操@@": 11603, 
  "变现": 11604, 
  "四大": 11605, 
  "骨干": 11606, 
  "and@@": 11607, 
  "故乡": 11608, 
  "除夕": 11609, 
  "二00三年六@@": 11610, 
  "建立起": 11611, 
  "种子": 11612, 
  "带出": 11613, 
  "手持": 11614, 
  "°": 11615, 
  "甜@@": 11616, 
  "节流": 11617, 
  "贵宾": 11618, 
  "幕@@": 11619, 
  "渊": 11620, 
  "弘": 11621, 
  "50000": 11622, 
  "聘任": 11623, 
  "购入": 11624, 
  "另类": 11625, 
  "出海": 11626, 
  "耕@@": 11627, 
  "豆腐": 11628, 
  "立足": 11629, 
  "废水": 11630, 
  "个位": 11631, 
  "蓝@@": 11632, 
  "正本": 11633, 
  "联合公报": 11634, 
  "棒球": 11635, 
  "转业": 11636, 
  "华文": 11637, 
  "激增": 11638, 
  "忠诚": 11639, 
  "百分点": 11640, 
  "完美": 11641, 
  "桌@@": 11642, 
  "遍及": 11643, 
  "东面": 11644, 
  "重庆": 11645, 
  "太空馆": 11646, 
  "院所": 11647, 
  "32@@": 11648, 
  "索引": 11649, 
  "192@@": 11650, 
  "电费": 11651, 
  "地区性": 11652, 
  "金大中": 11653, 
  "剥削": 11654, 
  "学家": 11655, 
  "二00三年十@@": 11656, 
  "时分": 11657, 
  "紧紧": 11658, 
  "7A": 11659, 
  "八四": 11660, 
  "不妨": 11661, 
  "侮辱": 11662, 
  "传闻": 11663, 
  "百姓": 11664, 
  "巡": 11665, 
  "榜样": 11666, 
  "玛丽": 11667, 
  "夺得": 11668, 
  "中小": 11669, 
  "痕迹": 11670, 
  "腾@@": 11671, 
  "居然": 11672, 
  "创办": 11673, 
  "让步": 11674, 
  "新党": 11675, 
  "ve": 11676, 
  "秦": 11677, 
  "小泉": 11678, 
  "破获": 11679, 
  "台东": 11680, 
  "惠及": 11681, 
  "根基": 11682, 
  "眉@@": 11683, 
  "挫": 11684, 
  "节约": 11685, 
  "益处": 11686, 
  "搜救": 11687, 
  "衔接": 11688, 
  "官僚": 11689, 
  "世界银行": 11690, 
  "钩": 11691, 
  "130": 11692, 
  "相撞": 11693, 
  "多条": 11694, 
  "味道": 11695, 
  "二000年八@@": 11696, 
  "午宴": 11697, 
  "六至@@": 11698, 
  "晚间": 11699, 
  "棠": 11700, 
  "还需要": 11701, 
  "犯案": 11702, 
  "举足轻重": 11703, 
  "现出": 11704, 
  "年十二月份": 11705, 
  "寺庙": 11706, 
  "放下": 11707, 
  "第十三": 11708, 
  "有一次": 11709, 
  "凌驾": 11710, 
  "特首": 11711, 
  "104": 11712, 
  "形态": 11713, 
  "精神病": 11714, 
  "ence": 11715, 
  "饮@@": 11716, 
  "璃": 11717, 
  "栽培": 11718, 
  "代表@@": 11719, 
  "当事": 11720, 
  "托运": 11721, 
  "穿上": 11722, 
  "吴邦国": 11723, 
  "燕@@": 11724, 
  "凝聚力": 11725, 
  "格外": 11726, 
  "武术": 11727, 
  "窃案": 11728, 
  "鹅": 11729, 
  "邮购": 11730, 
  "连战": 11731, 
  "香港礼宾府": 11732, 
  "成克杰": 11733, 
  "爱心": 11734, 
  "姿": 11735, 
  "责@@": 11736, 
  "ov@@": 11737, 
  "向下": 11738, 
  "佳绩": 11739, 
  "大都": 11740, 
  "提请": 11741, 
  "去年九月": 11742, 
  "海龟": 11743, 
  "本期": 11744, 
  "拘@@": 11745, 
  "织@@": 11746, 
  "恪守": 11747, 
  "驾驶人": 11748, 
  "欧元": 11749, 
  "虞": 11750, 
  "做生意": 11751, 
  "平静": 11752, 
  "全国性": 11753, 
  "不见得": 11754, 
  "专辑": 11755, 
  "一身": 11756, 
  "分界": 11757, 
  "财政赤字": 11758, 
  "佐敦": 11759, 
  "课室": 11760, 
  "难关": 11761, 
  "蝙蝠": 11762, 
  "略去": 11763, 
  "0.5%": 11764, 
  "金牌": 11765, 
  "一阵": 11766, 
  "同行": 11767, 
  "双数": 11768, 
  "00个": 11769, 
  "十三个": 11770, 
  "胸": 11771, 
  "时空": 11772, 
  "百分之七十": 11773, 
  "通关": 11774, 
  "愁": 11775, 
  "歌星": 11776, 
  "售@@": 11777, 
  "接替": 11778, 
  "良性": 11779, 
  "灾@@": 11780, 
  "桑@@": 11781, 
  "定论": 11782, 
  "著作": 11783, 
  "董@@": 11784, 
  "纤维": 11785, 
  "膨胀": 11786, 
  "煤": 11787, 
  "不理": 11788, 
  "第十四": 11789, 
  "刚好": 11790, 
  "诱因": 11791, 
  "消灭": 11792, 
  "两千": 11793, 
  "领养": 11794, 
  "送到": 11795, 
  "贪@@": 11796, 
  "鼎": 11797, 
  "停留在": 11798, 
  "第一点": 11799, 
  "在于": 11800, 
  "电视@@": 11801, 
  "80%": 11802, 
  "全体会议": 11803, 
  "公益": 11804, 
  "绵@@": 11805, 
  "城门": 11806, 
  "时四十@@": 11807, 
  "二00二年二@@": 11808, 
  "二00三年四@@": 11809, 
  "蓄@@": 11810, 
  "充@@": 11811, 
  "摄影@@": 11812, 
  "剪": 11813, 
  "农村经济": 11814, 
  "督": 11815, 
  "重返": 11816, 
  "觅": 11817, 
  "面试": 11818, 
  "艾@@": 11819, 
  "有影响": 11820, 
  "糕": 11821, 
  "霜": 11822, 
  "丘": 11823, 
  "另有所指": 11824, 
  "高素质": 11825, 
  "特设": 11826, 
  "何志平": 11827, 
  "不佳": 11828, 
  "百分之十三": 11829, 
  "南丫岛": 11830, 
  "九十年代": 11831, 
  "无穷": 11832, 
  "合宜": 11833, 
  "比亚": 11834, 
  "休市": 11835, 
  "一百六十": 11836, 
  "百分之十四": 11837, 
  "五月二十四日": 11838, 
  "买方": 11839, 
  "抗生素": 11840, 
  "捕捉": 11841, 
  "瘾": 11842, 
  "精采": 11843, 
  "作废": 11844, 
  "保护@@": 11845, 
  "有如": 11846, 
  "广为": 11847, 
  "***": 11848, 
  "二00@@": 11849, 
  "国企": 11850, 
  "第二十四": 11851, 
  "{": 11852, 
  "自然环境": 11853, 
  "一百三十": 11854, 
  "101": 11855, 
  "旦": 11856, 
  "依归": 11857, 
  "老百姓": 11858, 
  "关键性": 11859, 
  "增长速度": 11860, 
  "供应量": 11861, 
  "33@@": 11862, 
  "专长": 11863, 
  "牢": 11864, 
  "辨认": 11865, 
  "七万": 11866, 
  "类@@": 11867, 
  "拥": 11868, 
  "犹": 11869, 
  "六月二十六日": 11870, 
  "ww.@@": 11871, 
  "晚上十一@@": 11872, 
  "餐馆": 11873, 
  "雷射": 11874, 
  "4至@@": 11875, 
  "台上": 11876, 
  "不可分割": 11877, 
  "权责": 11878, 
  "希腊": 11879, 
  "111": 11880, 
  "二00一年八@@": 11881, 
  "第一年": 11882, 
  "天文": 11883, 
  "西医": 11884, 
  "公安局": 11885, 
  "魔@@": 11886, 
  "ep@@": 11887, 
  "台阶": 11888, 
  "炸药": 11889, 
  "领空": 11890, 
  "走在": 11891, 
  "二00三年七@@": 11892, 
  "回头": 11893, 
  "北美": 11894, 
  "做起": 11895, 
  "珠@@": 11896, 
  "俱": 11897, 
  "逸": 11898, 
  "溢": 11899, 
  "词句": 11900, 
  "百分之九十": 11901, 
  "公主": 11902, 
  "列席": 11903, 
  "十大": 11904, 
  "创下": 11905, 
  "ay": 11906, 
  "1997@@": 11907, 
  "生殖": 11908, 
  "滤": 11909, 
  "诱@@": 11910, 
  "新经济": 11911, 
  "5分钟": 11912, 
  "光辉": 11913, 
  "自修": 11914, 
  "酒类": 11915, 
  "十一时": 11916, 
  "睹": 11917, 
  "街@@": 11918, 
  "不断的": 11919, 
  "羊@@": 11920, 
  "股息": 11921, 
  "单数": 11922, 
  "睡@@": 11923, 
  "纵使": 11924, 
  "陛下": 11925, 
  "上午九@@": 11926, 
  "车队": 11927, 
  "建国": 11928, 
  "会计@@": 11929, 
  "碰@@": 11930, 
  "ter@@": 11931, 
  "近几年": 11932, 
  "配制": 11933, 
  "依旧": 11934, 
  "座@@": 11935, 
  "芽": 11936, 
  "风险管理": 11937, 
  "吐露": 11938, 
  "概述": 11939, 
  "阻@@": 11940, 
  "逐年": 11941, 
  "不需": 11942, 
  "东欧": 11943, 
  "瘦": 11944, 
  "指挥@@": 11945, 
  "婉": 11946, 
  "奥林匹克": 11947, 
  "民营": 11948, 
  "收缩": 11949, 
  "放眼": 11950, 
  "122": 11951, 
  "一九九七至九八年": 11952, 
  "外在": 11953, 
  "据点": 11954, 
  "字句": 11955, 
  "九四年": 11956, 
  "服务处": 11957, 
  "九亿": 11958, 
  "酬@@": 11959, 
  "我本人": 11960, 
  "十亿": 11961, 
  "扶助": 11962, 
  "不管是": 11963, 
  "农业@@": 11964, 
  "完整性": 11965, 
  "十二点@@": 11966, 
  "闹@@": 11967, 
  "纵": 11968, 
  "垒": 11969, 
  "贸易额": 11970, 
  "贸易@@": 11971, 
  "潜": 11972, 
  "至关重要": 11973, 
  "仅仅": 11974, 
  "甜": 11975, 
  "水费": 11976, 
  "学问": 11977, 
  "转化为": 11978, 
  "器@@": 11979, 
  "个人电脑": 11980, 
  "二00三年三@@": 11981, 
  "今年六月": 11982, 
  "分量": 11983, 
  "不例外": 11984, 
  "信息产业": 11985, 
  "反倒": 11986, 
  "重叠": 11987, 
  "排列": 11988, 
  "形式主义": 11989, 
  "当成": 11990, 
  "缩@@": 11991, 
  "观光客": 11992, 
  "七十万": 11993, 
  "掘": 11994, 
  "流动性": 11995, 
  "再三": 11996, 
  "代用": 11997, 
  "辞去": 11998, 
  "严重性": 11999, 
  "残": 12000, 
  "诗人": 12001, 
  "世纪@@": 12002, 
  "通胀率": 12003, 
  "中欧": 12004, 
  "不信任": 12005, 
  "新人": 12006, 
  "李丽娟": 12007, 
  "晚上七时三十分": 12008, 
  "看不出": 12009, 
  "起重机": 12010, 
  "欲@@": 12011, 
  "实体": 12012, 
  "3-@@": 12013, 
  "迈出": 12014, 
  "呈@@": 12015, 
  "株": 12016, 
  "漠视": 12017, 
  "婚礼": 12018, 
  "园艺": 12019, 
  "高层次": 12020, 
  "可说": 12021, 
  "扎实": 12022, 
  "后海湾": 12023, 
  "崇拜": 12024, 
  "标本": 12025, 
  "锋@@": 12026, 
  "160": 12027, 
  "蝶": 12028, 
  "确是": 12029, 
  "七时三十分": 12030, 
  "敦@@": 12031, 
  "长裤": 12032, 
  "成年": 12033, 
  "二氧化氮": 12034, 
  "阐明": 12035, 
  "应用研究": 12036, 
  "牛肉": 12037, 
  "八十五": 12038, 
  "1967年": 12039, 
  "叛@@": 12040, 
  "时光": 12041, 
  "狭窄": 12042, 
  "凭着": 12043, 
  "重播": 12044, 
  "5年@@": 12045, 
  "p.@@": 12046, 
  "为之": 12047, 
  "1962年": 12048, 
  "示@@": 12049, 
  "师父": 12050, 
  "但@@": 12051, 
  "处于": 12052, 
  "有无": 12053, 
  "諲": 12054, 
  "古董": 12055, 
  "煌": 12056, 
  "符号": 12057, 
  "九龙塘": 12058, 
  "一千五百": 12059, 
  "豆@@": 12060, 
  "粤语": 12061, 
  "艟": 12062, 
  "新娘": 12063, 
  "各式各样": 12064, 
  "杜鹃": 12065, 
  "饰@@": 12066, 
  "指派": 12067, 
  "已故": 12068, 
  "细致": 12069, 
  "下午五时三十分": 12070, 
  "篮@@": 12071, 
  "今年七月": 12072, 
  "﹪": 12073, 
  "巨额": 12074, 
  "耐用": 12075, 
  "胡国兴": 12076, 
  "一年@@": 12077, 
  "入市": 12078, 
  "不已": 12079, 
  "休假": 12080, 
  "1990年@@": 12081, 
  "刘锦": 12082, 
  "伦理": 12083, 
  "庚": 12084, 
  "侠": 12085, 
  "遮": 12086, 
  "历史博物馆": 12087, 
  "巾": 12088, 
  "战时": 12089, 
  "尖@@": 12090, 
  "弟": 12091, 
  "图象": 12092, 
  "息@@": 12093, 
  "粗": 12094, 
  "钟表": 12095, 
  "舱单": 12096, 
  "辅@@": 12097, 
  "葛": 12098, 
  "战斗机": 12099, 
  "蚊虫": 12100, 
  "远东": 12101, 
  "悠@@": 12102, 
  "60%": 12103, 
  "试问": 12104, 
  "公然": 12105, 
  "2003": 12106, 
  "钞": 12107, 
  "逝世": 12108, 
  "踏@@": 12109, 
  "八十二": 12110, 
  "不绝": 12111, 
  "局@@": 12112, 
  "要想": 12113, 
  "弘扬": 12114, 
  "老年人": 12115, 
  "晋升为": 12116, 
  "掌@@": 12117, 
  "社会制度": 12118, 
  "大城市": 12119, 
  "揭露": 12120, 
  "1年@@": 12121, 
  "分化": 12122, 
  "手提式": 12123, 
  "温室": 12124, 
  "邮箱": 12125, 
  "后代": 12126, 
  "谈起": 12127, 
  "事关": 12128, 
  "也就是说": 12129, 
  "二八三五": 12130, 
  "汇聚": 12131, 
  "柳": 12132, 
  "不成": 12133, 
  "胎@@": 12134, 
  "埃@@": 12135, 
  "研讨": 12136, 
  "挽救": 12137, 
  "解放思想": 12138, 
  "百分之六十": 12139, 
  "铺位": 12140, 
  "盛行": 12141, 
  "倡导": 12142, 
  "逆境": 12143, 
  "狂": 12144, 
  "封锁": 12145, 
  "委会": 12146, 
  "2002年@@": 12147, 
  "三军": 12148, 
  "双手": 12149, 
  "剩": 12150, 
  "十五至@@": 12151, 
  "倍@@": 12152, 
  "相辅相成": 12153, 
  "赖以": 12154, 
  "设厂": 12155, 
  "欠@@": 12156, 
  "区别": 12157, 
  "略为": 12158, 
  "辞@@": 12159, 
  "单亲家庭": 12160, 
  "被动": 12161, 
  "这儿": 12162, 
  "副校长": 12163, 
  ".com": 12164, 
  "民心": 12165, 
  "忙碌": 12166, 
  "壁@@": 12167, 
  "扫墓": 12168, 
  "摆放": 12169, 
  "装上": 12170, 
  "复活节": 12171, 
  "触": 12172, 
  "学士": 12173, 
  "歪曲": 12174, 
  "讽刺": 12175, 
  ".hk": 12176, 
  "协办": 12177, 
  "处以": 12178, 
  "非法行为": 12179, 
  "衫": 12180, 
  "伏@@": 12181, 
  "罔": 12182, 
  "餐@@": 12183, 
  "闯@@": 12184, 
  "上海市": 12185, 
  "副总裁": 12186, 
  "汝": 12187, 
  "昏迷": 12188, 
  "三亿@@": 12189, 
  "保卫": 12190, 
  "荃": 12191, 
  "莹": 12192, 
  "惜": 12193, 
  "音乐家": 12194, 
  "风味": 12195, 
  "全心全意": 12196, 
  "一如既往": 12197, 
  "今年五月": 12198, 
  "消减": 12199, 
  "详述": 12200, 
  "下午一@@": 12201, 
  "部地区": 12202, 
  "换取": 12203, 
  "院@@": 12204, 
  "全民投票": 12205, 
  "选举结果": 12206, 
  "焚化炉": 12207, 
  "撒@@": 12208, 
  "4年": 12209, 
  "头痛": 12210, 
  "看起来": 12211, 
  "精确": 12212, 
  "瓜@@": 12213, 
  "掩@@": 12214, 
  "第三届": 12215, 
  "干犯": 12216, 
  "具@@": 12217, 
  "一颗": 12218, 
  "辱": 12219, 
  "陆地": 12220, 
  "中亚": 12221, 
  "特大": 12222, 
  "九七@@": 12223, 
  "国泰": 12224, 
  "供给": 12225, 
  "十四日": 12226, 
  "京都": 12227, 
  "深思": 12228, 
  "舱内": 12229, 
  "市面上": 12230, 
  "中正": 12231, 
  "le@@": 12232, 
  "崔": 12233, 
  "带进": 12234, 
  "蟹": 12235, 
  "好评": 12236, 
  "余额": 12237, 
  "实效": 12238, 
  "浅水湾": 12239, 
  "瑞金": 12240, 
  "尼泊尔": 12241, 
  "售出": 12242, 
  "验@@": 12243, 
  "较快": 12244, 
  "上一个": 12245, 
  "迷信": 12246, 
  "挥": 12247, 
  "上游": 12248, 
  "技术员": 12249, 
  "训@@": 12250, 
  "盗@@": 12251, 
  "服饰": 12252, 
  "十二月三十一日": 12253, 
  "畏": 12254, 
  "社员": 12255, 
  "独奏": 12256, 
  "不切实际": 12257, 
  "国家利益": 12258, 
  "窗@@": 12259, 
  "委@@": 12260, 
  "承保": 12261, 
  "兼职": 12262, 
  "掣": 12263, 
  "对面": 12264, 
  "爱护": 12265, 
  "遗产税": 12266, 
  "悲": 12267, 
  "不安全": 12268, 
  "结余": 12269, 
  "罢": 12270, 
  "筹@@": 12271, 
  "坦诚": 12272, 
  "震@@": 12273, 
  "资本市场": 12274, 
  "游览": 12275, 
  "办好": 12276, 
  "甘美": 12277, 
  "童军": 12278, 
  "臭@@": 12279, 
  "离不开": 12280, 
  "狮子": 12281, 
  "台湾海峡": 12282, 
  "抗争": 12283, 
  "水灾": 12284, 
  "2000@@": 12285, 
  "一九三@@": 12286, 
  "滋": 12287, 
  "税费": 12288, 
  "资讯服务": 12289, 
  "浙江": 12290, 
  "穿过": 12291, 
  "喧@@": 12292, 
  "天线": 12293, 
  "鸣@@": 12294, 
  "实属": 12295, 
  "旅行团": 12296, 
  "钓鱼": 12297, 
  "坚尼地城": 12298, 
  "苗@@": 12299, 
  "潜质": 12300, 
  "疆": 12301, 
  "理论上": 12302, 
  "转机": 12303, 
  "模特儿": 12304, 
  "煲": 12305, 
  "领港员": 12306, 
  "EP@@": 12307, 
  "禄": 12308, 
  "影展": 12309, 
  "900": 12310, 
  "上将": 12311, 
  "童年": 12312, 
  "性教育": 12313, 
  "洁@@": 12314, 
  "几年来": 12315, 
  "雄厚": 12316, 
  "场@@": 12317, 
  "丑": 12318, 
  "题@@": 12319, 
  "鸿@@": 12320, 
  "周详": 12321, 
  "摊@@": 12322, 
  "9月1日": 12323, 
  "会展": 12324, 
  "独立自主": 12325, 
  "人格": 12326, 
  "七个": 12327, 
  "纷@@": 12328, 
  "出口商": 12329, 
  "养成": 12330, 
  "有效性": 12331, 
  "泊位": 12332, 
  "下午六时三十分": 12333, 
  "组建": 12334, 
  "冈": 12335, 
  "彩色": 12336, 
  "柜台": 12337, 
  "车内": 12338, 
  "馆长": 12339, 
  "态势": 12340, 
  "抱负": 12341, 
  "驻@@": 12342, 
  "出入口": 12343, 
  "存货": 12344, 
  "燃放": 12345, 
  "一台": 12346, 
  "不动": 12347, 
  "挣扎": 12348, 
  "国事访问": 12349, 
  "承包": 12350, 
  "Z@@": 12351, 
  "缔结": 12352, 
  "姜@@": 12353, 
  "省市": 12354, 
  "固有": 12355, 
  "症状": 12356, 
  "蛋@@": 12357, 
  "低廉": 12358, 
  "二亿": 12359, 
  "邝": 12360, 
  "1991年@@": 12361, 
  "总目": 12362, 
  "新闻发布会": 12363, 
  "汤@@": 12364, 
  "生计": 12365, 
  "平行": 12366, 
  "可怕": 12367, 
  "两百": 12368, 
  "广东话": 12369, 
  "话说": 12370, 
  "缴款": 12371, 
  "华志": 12372, 
  "利便": 12373, 
  "请愿": 12374, 
  "炭": 12375, 
  "外交@@": 12376, 
  "情景": 12377, 
  "洽@@": 12378, 
  "触及": 12379, 
  "店@@": 12380, 
  "派驻": 12381, 
  "救生圈": 12382, 
  "未见": 12383, 
  "相差": 12384, 
  "期盼": 12385, 
  "3至@@": 12386, 
  "1997-98": 12387, 
  "下一步": 12388, 
  "转播": 12389, 
  "电源": 12390, 
  "讼案": 12391, 
  "外交关系": 12392, 
  "遥": 12393, 
  "ge": 12394, 
  "械": 12395, 
  "10亿": 12396, 
  "每个月": 12397, 
  "十二亿": 12398, 
  "阻挡": 12399, 
  "陈国强": 12400, 
  "风波": 12401, 
  "1B": 12402, 
  "门户": 12403, 
  "国务委员": 12404, 
  "曲折": 12405, 
  "契据": 12406, 
  "众人": 12407, 
  "多利": 12408, 
  "二个": 12409, 
  "夕": 12410, 
  "_@@": 12411, 
  "04": 12412, 
  "知识分子": 12413, 
  "177": 12414, 
  "争端": 12415, 
  "借助": 12416, 
  "信誉": 12417, 
  "起草": 12418, 
  "齐下": 12419, 
  "博爱": 12420, 
  "3年": 12421, 
  "阴": 12422, 
  "长江": 12423, 
  "缓解": 12424, 
  "苍@@": 12425, 
  "幻想": 12426, 
  "开关": 12427, 
  "化解": 12428, 
  "竞@@": 12429, 
  "小时候": 12430, 
  "汉城": 12431, 
  "健体": 12432, 
  "默默": 12433, 
  "克制": 12434, 
  "万一": 12435, 
  "最爱": 12436, 
  "冒险": 12437, 
  "毙": 12438, 
  "篮": 12439, 
  "哀@@": 12440, 
  "承运人": 12441, 
  "脆弱": 12442, 
  "莅临": 12443, 
  "惩处": 12444, 
  "查验": 12445, 
  "膳食": 12446, 
  "扶手": 12447, 
  "过路": 12448, 
  "水利": 12449, 
  "蜂": 12450, 
  "操作员": 12451, 
  "四月三十日": 12452, 
  "七月三十一日": 12453, 
  "覆@@": 12454, 
  "朗@@": 12455, 
  "庆典": 12456, 
  "包袱": 12457, 
  "怨@@": 12458, 
  "下台": 12459, 
  "诸@@": 12460, 
  "惧": 12461, 
  "介@@": 12462, 
  "爬": 12463, 
  "反复": 12464, 
  "一刻": 12465, 
  "处理好": 12466, 
  "推卸": 12467, 
  "花钱": 12468, 
  "焦虑": 12469, 
  "票房": 12470, 
  "二十个": 12471, 
  "高雄市": 12472, 
  "晒": 12473, 
  "秉@@": 12474, 
  "20万": 12475, 
  "四至@@": 12476, 
  "下游": 12477, 
  "上山": 12478, 
  "术@@": 12479, 
  "全国@@": 12480, 
  "优胜者": 12481, 
  "轰@@": 12482, 
  "催": 12483, 
  "熊@@": 12484, 
  "内脏": 12485, 
  "繁多": 12486, 
  "心力": 12487, 
  "抹": 12488, 
  "赖@@": 12489, 
  "三八": 12490, 
  "获释": 12491, 
  "鲍@@": 12492, 
  "紧缩": 12493, 
  "孕": 12494, 
  "进去": 12495, 
  "轮流": 12496, 
  "个人卫生": 12497, 
  "黄志光": 12498, 
  "900@@": 12499, 
  "57@@": 12500, 
  "行骗": 12501, 
  "犀@@": 12502, 
  "堪": 12503, 
  "一个个": 12504, 
  "授@@": 12505, 
  "典@@": 12506, 
  "抱有": 12507, 
  "莲@@": 12508, 
  "自有": 12509, 
  "二百零@@": 12510, 
  "掉@@": 12511, 
  "拓": 12512, 
  "王丹": 12513, 
  "上午八@@": 12514, 
  "尴尬": 12515, 
  "闻@@": 12516, 
  "ow@@": 12517, 
  "黄钱": 12518, 
  "当务之急": 12519, 
  "矷": 12520, 
  "壮大": 12521, 
  "唱歌": 12522, 
  "眷": 12523, 
  "独有": 12524, 
  "证@@": 12525, 
  "青马": 12526, 
  "珊": 12527, 
  "遗": 12528, 
  "二月二十八日": 12529, 
  "过敏": 12530, 
  "八月底": 12531, 
  "碰": 12532, 
  "颖": 12533, 
  "国庆日": 12534, 
  "晚上七@@": 12535, 
  "另@@": 12536, 
  "纠缠": 12537, 
  "大海": 12538, 
  "济助": 12539, 
  "洗手": 12540, 
  "激发": 12541, 
  "孚": 12542, 
  "二万五千": 12543, 
  "恭@@": 12544, 
  "忍受": 12545, 
  "心意": 12546, 
  "周年纪念": 12547, 
  "彭@@": 12548, 
  "轮机": 12549, 
  "精益求精": 12550, 
  "莱@@": 12551, 
  "邦交": 12552, 
  "渗@@": 12553, 
  "有意见": 12554, 
  "世纪之交": 12555, 
  "赌注": 12556, 
  "积极作用": 12557, 
  "很久": 12558, 
  "理事长": 12559, 
  "南联盟": 12560, 
  "防务": 12561, 
  "领导班子": 12562, 
  "惟有": 12563, 
  "堆@@": 12564, 
  "分之一": 12565, 
  "废@@": 12566, 
  "名牌": 12567, 
  "计程车": 12568, 
  "双向": 12569, 
  "汇集": 12570, 
  "分之@@": 12571, 
  "小小的": 12572, 
  "专人": 12573, 
  "不在@@": 12574, 
  "年宵": 12575, 
  "席@@": 12576, 
  "鼻@@": 12577, 
  "偶尔": 12578, 
  "崛起": 12579, 
  "瑟": 12580, 
  "奶@@": 12581, 
  "瑞@@": 12582, 
  "截取": 12583, 
  "社会环境": 12584, 
  "酿@@": 12585, 
  "瓷器": 12586, 
  "市面": 12587, 
  "越南人": 12588, 
  "裂@@": 12589, 
  "印度@@": 12590, 
  "誓@@": 12591, 
  "导管": 12592, 
  "叙利亚": 12593, 
  "十一点@@": 12594, 
  "知名度": 12595, 
  "不单是": 12596, 
  "黎@@": 12597, 
  "屋顶": 12598, 
  "抵@@": 12599, 
  "肢": 12600, 
  "土耳其": 12601, 
  "圣诞节": 12602, 
  "硝@@": 12603, 
  "助理员": 12604, 
  "舌": 12605, 
  "洗手间": 12606, 
  "捏": 12607, 
  "吞吐量": 12608, 
  "不该": 12609, 
  "愤": 12610, 
  "用人": 12611, 
  "概括性": 12612, 
  "无辜": 12613, 
  "88@@": 12614, 
  "李光": 12615, 
  "抱着": 12616, 
  "追踪": 12617, 
  "两性": 12618, 
  "撒": 12619, 
  "俱@@": 12620, 
  "毒素": 12621, 
  "歌剧": 12622, 
  "公共事业": 12623, 
  "捉@@": 12624, 
  "扫": 12625, 
  "甚为": 12626, 
  "宁愿": 12627, 
  "武警": 12628, 
  "成份": 12629, 
  "周刊": 12630, 
  "浮动": 12631, 
  "二至@@": 12632, 
  "缺少": 12633, 
  "档案室": 12634, 
  "平地": 12635, 
  "已婚": 12636, 
  "爱国主义": 12637, 
  "上涨": 12638, 
  "VI": 12639, 
  "蛙": 12640, 
  "相传": 12641, 
  "笋": 12642, 
  "五分钟": 12643, 
  "借款": 12644, 
  "变数": 12645, 
  "挡@@": 12646, 
  "屏障": 12647, 
  "看管": 12648, 
  "那儿": 12649, 
  "IX": 12650, 
  "疏散": 12651, 
  "隆@@": 12652, 
  "顾虑": 12653, 
  "各条": 12654, 
  "学到": 12655, 
  "绍@@": 12656, 
  "做成": 12657, 
  "宴@@": 12658, 
  "勃勃": 12659, 
  "ch": 12660, 
  "有线": 12661, 
  "就绪": 12662, 
  "地方法院": 12663, 
  "冷气": 12664, 
  "自称": 12665, 
  "贯@@": 12666, 
  "无从": 12667, 
  "1万": 12668, 
  "凶@@": 12669, 
  "喷": 12670, 
  "偏差": 12671, 
  "拚": 12672, 
  "发电厂": 12673, 
  "技@@": 12674, 
  "顽@@": 12675, 
  "网上@@": 12676, 
  "调查研究": 12677, 
  "及格": 12678, 
  "培@@": 12679, 
  "微升": 12680, 
  "漂@@": 12681, 
  "舒@@": 12682, 
  "臭": 12683, 
  "三十一日": 12684, 
  "斑@@": 12685, 
  "过早": 12686, 
  "秘": 12687, 
  "图示": 12688, 
  "一九九九至二零零零年": 12689, 
  "上层建筑": 12690, 
  "14.@@": 12691, 
  "公安部": 12692, 
  "地方政府": 12693, 
  "那就": 12694, 
  "棋@@": 12695, 
  "堪称": 12696, 
  "激动": 12697, 
  "除去": 12698, 
  "惯@@": 12699, 
  "la@@": 12700, 
  "中韩": 12701, 
  "一回事": 12702, 
  "一日至@@": 12703, 
  "暂定": 12704, 
  "轻伤": 12705, 
  "私立": 12706, 
  "第十六": 12707, 
  "捐@@": 12708, 
  "仁济": 12709, 
  "八月三十一日": 12710, 
  "赏金": 12711, 
  "吓@@": 12712, 
  "西省": 12713, 
  "河流": 12714, 
  "双赢": 12715, 
  "碑": 12716, 
  "火焰": 12717, 
  "竖": 12718, 
  "多样化": 12719, 
  "六年@@": 12720, 
  "充当": 12721, 
  "骑@@": 12722, 
  "援引": 12723, 
  "加油站": 12724, 
  "180": 12725, 
  "长远利益": 12726, 
  "不迟": 12727, 
  "副处长": 12728, 
  "汪@@": 12729, 
  "提名人": 12730, 
  "横跨": 12731, 
  "台办": 12732, 
  "合法权益": 12733, 
  "跟@@": 12734, 
  "妨": 12735, 
  "福建省": 12736, 
  "轴@@": 12737, 
  "不乏": 12738, 
  "收纳": 12739, 
  "M3": 12740, 
  "总体上": 12741, 
  "发病": 12742, 
  "绪": 12743, 
  "冲绳": 12744, 
  "想一想": 12745, 
  "南省": 12746, 
  "相对的": 12747, 
  "后向": 12748, 
  "投下": 12749, 
  "起立": 12750, 
  "墓": 12751, 
  "1955年": 12752, 
  "互补": 12753, 
  "阵地": 12754, 
  "挖@@": 12755, 
  "辙": 12756, 
  "长短": 12757, 
  "归纳": 12758, 
  "有系统": 12759, 
  "诊@@": 12760, 
  "讲师": 12761, 
  "瞈": 12762, 
  "一下子": 12763, 
  "d/@@": 12764, 
  "投机": 12765, 
  "增加到": 12766, 
  "正值": 12767, 
  "高尔夫球": 12768, 
  "主观": 12769, 
  "四月十七日": 12770, 
  "面交": 12771, 
  "333": 12772, 
  "碳": 12773, 
  "就任": 12774, 
  "薄弱": 12775, 
  "支配": 12776, 
  "有志": 12777, 
  "黄昏": 12778, 
  "遐": 12779, 
  "摘": 12780, 
  "猎@@": 12781, 
  "各省": 12782, 
  "十八个": 12783, 
  "海南": 12784, 
  "六月一日": 12785, 
  "余地": 12786, 
  "讹": 12787, 
  "妈": 12788, 
  "凸@@": 12789, 
  "ine": 12790, 
  "www.info.gov.hk/@@": 12791, 
  "成年人": 12792, 
  "第十五": 12793, 
  "启程": 12794, 
  "八十一": 12795, 
  "ers": 12796, 
  "念书": 12797, 
  "窑": 12798, 
  "用意": 12799, 
  "0.3%": 12800, 
  "M1": 12801, 
  "远见": 12802, 
  "扭曲": 12803, 
  "二00三年五@@": 12804, 
  "短发": 12805, 
  "稻": 12806, 
  "看好": 12807, 
  "双边贸易": 12808, 
  "热点": 12809, 
  "酯": 12810, 
  "芬兰": 12811, 
  "谋杀罪": 12812, 
  "市价": 12813, 
  "注@@": 12814, 
  "掠": 12815, 
  "拼": 12816, 
  "曼谷": 12817, 
  "纯属": 12818, 
  "村落": 12819, 
  "旅游@@": 12820, 
  "弦": 12821, 
  "集合": 12822, 
  "深井": 12823, 
  "光顾": 12824, 
  "勘测": 12825, 
  "验尸": 12826, 
  "文中": 12827, 
  "择业": 12828, 
  "潜水": 12829, 
  "惯": 12830, 
  "地球@@": 12831, 
  "桑": 12832, 
  "趋@@": 12833, 
  "le": 12834, 
  "服用": 12835, 
  "西方人": 12836, 
  "(n)": 12837, 
  "一则": 12838, 
  "据统计": 12839, 
  "百分之十四点@@": 12840, 
  "偷窃": 12841, 
  "7个": 12842, 
  "证物": 12843, 
  "电线": 12844, 
  "侵权": 12845, 
  "灾区": 12846, 
  "沦为": 12847, 
  "足球场": 12848, 
  "落在": 12849, 
  "ha@@": 12850, 
  "理学": 12851, 
  "自此": 12852, 
  "生前": 12853, 
  "一三一点@@": 12854, 
  "火器": 12855, 
  "高级@@": 12856, 
  "危险性": 12857, 
  "月台": 12858, 
  "醒@@": 12859, 
  "S/@@": 12860, 
  "蒲": 12861, 
  "百分之四十": 12862, 
  "地税": 12863, 
  "锚": 12864, 
  "放债": 12865, 
  "日新月异": 12866, 
  "四月十二日": 12867, 
  "识@@": 12868, 
  "亡@@": 12869, 
  "下车": 12870, 
  "布鲁塞尔": 12871, 
  "治本": 12872, 
  "中毒": 12873, 
  "作曲家": 12874, 
  "鎅": 12875, 
  "柏@@": 12876, 
  "合资": 12877, 
  "子弹": 12878, 
  "下文": 12879, 
  "积聚": 12880, 
  "九八@@": 12881, 
  "毁@@": 12882, 
  "主委": 12883, 
  "钞票": 12884, 
  "功效": 12885, 
  "严打": 12886, 
  "启示": 12887, 
  "一九七八年": 12888, 
  "小规模": 12889, 
  "胜地": 12890, 
  "台币": 12891, 
  "晚上十@@": 12892, 
  "99.@@": 12893, 
  "冠@@": 12894, 
  "送给": 12895, 
  "一九八五年": 12896, 
  "减收": 12897, 
  "创造性": 12898, 
  "生病": 12899, 
  "戏曲": 12900, 
  "很小": 12901, 
  "su@@": 12902, 
  "发问": 12903, 
  "账@@": 12904, 
  "荡@@": 12905, 
  "互相配合": 12906, 
  "召开会议": 12907, 
  "it": 12908, 
  "墙壁": 12909, 
  "服务站": 12910, 
  "修补": 12911, 
  "控制@@": 12912, 
  "寂寞": 12913, 
  "平整": 12914, 
  "老先生": 12915, 
  "仍需": 12916, 
  "就得": 12917, 
  "效@@": 12918, 
  "一旁": 12919, 
  "训练@@": 12920, 
  "健身": 12921, 
  "沉着": 12922, 
  "二百五十": 12923, 
  "月薪": 12924, 
  "图表": 12925, 
  "煮熟": 12926, 
  "写字楼": 12927, 
  "大树": 12928, 
  "第二条": 12929, 
  "闷": 12930, 
  "明文规定": 12931, 
  "彼": 12932, 
  "客家人": 12933, 
  "姐": 12934, 
  "停工": 12935, 
  "/95": 12936, 
  "汉学": 12937, 
  "拜会": 12938, 
  "警觉性": 12939, 
  "政治家": 12940, 
  "虚拟": 12941, 
  "孕育": 12942, 
  "98@@": 12943, 
  "创造力": 12944, 
  "抽查": 12945, 
  "八十万": 12946, 
  "减弱": 12947, 
  "二百九十@@": 12948, 
  "步入": 12949, 
  "岳": 12950, 
  "哥伦比亚": 12951, 
  "倒塌": 12952, 
  "高峰会": 12953, 
  "揭发": 12954, 
  "政纲": 12955, 
  "丢": 12956, 
  "监工": 12957, 
  "一九八六年": 12958, 
  "函件": 12959, 
  "宽度": 12960, 
  "sh@@": 12961, 
  "七百万": 12962, 
  "主教": 12963, 
  "搬运": 12964, 
  "以西": 12965, 
  "垃圾@@": 12966, 
  "嘴@@": 12967, 
  "包容": 12968, 
[...]
