{
  "eos": 0, 
  "UNK": 1, 
  "the": 2, 
  ",": 3, 
  ".": 4, 
  "of": 5, 
  "to": 6, 
  "and": 7, 
  "in": 8, 
  "a": 9, 
  "for": 10, 
  "-": 11, 
  "\"": 12, 
  "is": 13, 
  ")": 14, 
  "(": 15, 
  "that": 16, 
  "on": 17, 
  "be": 18, 
  "by": 19, 
  "as": 20, 
  "with": 21, 
  "or": 22, 
  "will": 23, 
  "this": 24, 
  "are": 25, 
  "at": 26, 
  "it": 27, 
  "'s": 28, 
  "have": 29, 
  "has": 30, 
  "not": 31, 
  "kong": 32, 
  "hong": 33, 
  "from": 34, 
  "we": 35, 
  "an": 36, 
  "i": 37, 
  ";": 38, 
  ":": 39, 
  "was": 40, 
  "government": 41, 
  "!": 42, 
  "any": 43, 
  "which": 44, 
  "their": 45, 
  "he": 46, 
  "mr": 47, 
  "also": 48, 
  "all": 49, 
  "they": 50, 
  "been": 51, 
  "people": 52, 
  "may": 53, 
  "under": 54, 
  "shall": 55, 
  "can": 56, 
  "year": 57, 
  "public": 58, 
  "said": 59, 
  "1": 60, 
  "such": 61, 
  "new": 62, 
  "other": 63, 
  "should": 64, 
  "one": 65, 
  "if": 66, 
  "our": 67, 
  "were": 68, 
  "its": 69, 
  "there": 70, 
  "more": 71, 
  "but": 72, 
  "?": 73, 
  "china": 74, 
  "up": 75, 
  "his": 76, 
  "would": 77, 
  "2": 78, 
  "two": 79, 
  "so": 80, 
  "out": 81, 
  "these": 82, 
  "who": 83, 
  "members": 84, 
  "time": 85, 
  "department": 86, 
  "today": 87, 
  "council": 88, 
  "about": 89, 
  "$": 90, 
  "chinese": 91, 
  "president": 92, 
  "development": 93, 
  "no": 94, 
  "made": 95, 
  "taiwan": 96, 
  "after": 97, 
  "years": 98, 
  "when": 99, 
  "first": 100, 
  "only": 101, 
  "services": 102, 
  "some": 103, 
  "3": 104, 
  "(a)": 105, 
  "than": 106, 
  "secretary": 107, 
  "had": 108, 
  "(b)": 109, 
  "into": 110, 
  "work": 111, 
  "section": 112, 
  "over": 113, 
  "do": 114, 
  "person": 115, 
  "ordinance": 116, 
  "us": 117, 
  "between": 118, 
  "police": 119, 
  "'": 120, 
  "road": 121, 
  "you": 122, 
  "service": 123, 
  "committee": 124, 
  "them": 125, 
  "now": 126, 
  "economic": 127, 
  "system": 128, 
  "s": 129, 
  "three": 130, 
  "law": 131, 
  "must": 132, 
  "many": 133, 
  "information": 134, 
  "make": 135, 
  "/": 136, 
  "what": 137, 
  "cantonese": 138, 
  "order": 139, 
  "education": 140, 
  "number": 141, 
  "very": 142, 
  "4": 143, 
  "during": 144, 
  "those": 145, 
  "before": 146, 
  "part": 147, 
  "being": 148, 
  "take": 149, 
  "trade": 150, 
  "market": 151, 
  "financial": 152, 
  "world": 153, 
  "where": 154, 
  "use": 155, 
  "through": 156, 
  "well": 157, 
  "long": 158, 
  "support": 159, 
  "last": 160, 
  "following": 161, 
  "party": 162, 
  "5": 163, 
  "international": 164, 
  "against": 165, 
  "1999": 166, 
  "most": 167, 
  "business": 168, 
  "case": 169, 
  "each": 170, 
  "policy": 171, 
  "set": 172, 
  "however": 173, 
  "whether": 174, 
  "bill": 175, 
  "day": 176, 
  "question": 177, 
  "since": 178, 
  "how": 179, 
  "even": 180, 
  "like": 181, 
  "my": 182, 
  "high": 183, 
  "period": 184, 
  "report": 185, 
  "total": 186, 
  "same": 187, 
  "still": 188, 
  "mainland": 189, 
  "6": 190, 
  "general": 191, 
  "spokesman": 192, 
  "both": 193, 
  "just": 194, 
  "further": 195, 
  "am": 196, 
  "end": 197, 
  "special": 198, 
  "countries": 199, 
  "because": 200, 
  "water": 201, 
  "legislative": 202, 
  "provide": 203, 
  "(c)": 204, 
  "issue": 205, 
  "1998": 206, 
  "amendment": 207, 
  "meeting": 208, 
  "means": 209, 
  "industry": 210, 
  "10": 211, 
  "while": 212, 
  "health": 213, 
  "2000": 214, 
  "authority": 215, 
  "important": 216, 
  "building": 217, 
  "operation": 218, 
  "added": 219, 
  "community": 220, 
  "chief": 221, 
  "she": 222, 
  "director": 223, 
  "chairman": 224, 
  "school": 225, 
  "office": 226, 
  "board": 227, 
  "per": 228, 
  "second": 229, 
  "court": 230, 
  "united": 231, 
  "good": 232, 
  "could": 233, 
  "local": 234, 
  "way": 235, 
  "executive": 236, 
  "including": 237, 
  "area": 238, 
  "need": 239, 
  "scheme": 240, 
  "within": 241, 
  "district": 242, 
  "*": 243, 
  "madam": 244, 
  "land": 245, 
  "old": 246, 
  "respect": 247, 
  "measures": 248, 
  "traffic": 249, 
  "every": 250, 
  "social": 251, 
  "million": 252, 
  "7": 253, 
  "man": 254, 
  "officers": 255, 
  "past": 256, 
  "her": 257, 
  "provided": 258, 
  "central": 259, 
  "place": 260, 
  "then": 261, 
  "administration": 262, 
  "various": 263, 
  "issued": 264, 
  "national": 265, 
  "foreign": 266, 
  "rate": 267, 
  "company": 268, 
  "application": 269, 
  "present": 270, 
  "hours": 271, 
  "country": 272, 
  "does": 273, 
  "held": 274, 
  "state": 275, 
  "management": 276, 
  "given": 277, 
  "1997": 278, 
  "states": 279, 
  "housing": 280, 
  "safety": 281, 
  "training": 282, 
  "increase": 283, 
  "works": 284, 
  "point": 285, 
  "control": 286, 
  "july": 287, 
  "persons": 288, 
  "different": 289, 
  "construction": 290, 
  "fact": 291, 
  "put": 292, 
  "think": 293, 
  "without": 294, 
  "situation": 295, 
  "activities": 296, 
  "technology": 297, 
  "used": 298, 
  "relevant": 299, 
  "security": 300, 
  "future": 301, 
  "major": 302, 
  "him": 303, 
  "march": 304, 
  "june": 305, 
  "continue": 306, 
  "8": 307, 
  "political": 308, 
  "april": 309, 
  "see": 310, 
  "another": 311, 
  "subsection": 312, 
  "relations": 313, 
  "months": 314, 
  "give": 315, 
  "students": 316, 
  "2001": 317, 
  "quality": 318, 
  "notice": 319, 
  "centre": 320, 
  "]": 321, 
  "own": 322, 
  "level": 323, 
  "great": 324, 
  "economy": 325, 
  "necessary": 326, 
  "five": 327, 
  "9": 328, 
  "help": 329, 
  "n.": 330, 
  "home": 331, 
  "[": 332, 
  "member": 333, 
  "cases": 334, 
  "therefore": 335, 
  "areas": 336, 
  "pm": 337, 
  "according": 338, 
  "taken": 339, 
  "hope": 340, 
  "l.": 341, 
  "motion": 342, 
  "'t": 343, 
  "billion": 344, 
  "proposed": 345, 
  "four": 346, 
  "september": 347, 
  "exchange": 348, 
  "required": 349, 
  "amended": 350, 
  "wan": 351, 
  "basic": 352, 
  "become": 353, 
  "officer": 354, 
  "subject": 355, 
  "problem": 356, 
  "private": 357, 
  "making": 358, 
  "october": 359, 
  "air": 360, 
  "down": 361, 
  "right": 362, 
  "already": 363, 
  "life": 364, 
  "staff": 365, 
  "concerned": 366, 
  "schools": 367, 
  "region": 368, 
  "january": 369, 
  "street": 370, 
  "group": 371, 
  "study": 372, 
  "2002": 373, 
  "transport": 374, 
  "course": 375, 
  "problems": 376, 
  "full": 377, 
  "value": 378, 
  "much": 379, 
  "rights": 380, 
  "environment": 381, 
  "12": 382, 
  "affairs": 383, 
  "legal": 384, 
  "companies": 385, 
  "children": 386, 
  "next": 387, 
  "fund": 388, 
  "term": 389, 
  "li": 390, 
  "come": 391, 
  "20": 392, 
  "review": 393, 
  "force": 394, 
  "among": 395, 
  "open": 396, 
  "visit": 397, 
  "ensure": 398, 
  "cannot": 399, 
  "view": 400, 
  "working": 401, 
  "civil": 402, 
  "society": 403, 
  "form": 404, 
  "efforts": 405, 
  "date": 406, 
  "available": 407, 
  "december": 408, 
  "food": 409, 
  "why": 410, 
  "plan": 411, 
  "power": 412, 
  "interest": 413, 
  "planning": 414, 
  "views": 415, 
  "found": 416, 
  "days": 417, 
  "august": 418, 
  "property": 419, 
  "environmental": 420, 
  "commission": 421, 
  "sector": 422, 
  "upon": 423, 
  "military": 424, 
  "conditions": 425, 
  "existing": 426, 
  "effect": 427, 
  "regulation": 428, 
  "effective": 429, 
  "far": 430, 
  "cent": 431, 
  "protection": 432, 
  "less": 433, 
  "15": 434, 
  "me": 435, 
  "registered": 436, 
  "november": 437, 
  "statistics": 438, 
  "offence": 439, 
  "goods": 440, 
  "terms": 441, 
  "matter": 442, 
  "dr": 443, 
  "...": 444, 
  "30": 445, 
  "11": 446, 
  "regulations": 447, 
  "employment": 448, 
  "programme": 449, 
  "able": 450, 
  "registration": 451, 
  "received": 452, 
  "fire": 453, 
  "possible": 454, 
  "large": 455, 
  "related": 456, 
  "did": 457, 
  "apply": 458, 
  "february": 459, 
  "mrs": 460, 
  "provisions": 461, 
  "whole": 462, 
  "pay": 463, 
  "back": 464, 
  "addition": 465, 
  "labour": 466, 
  "believe": 467, 
  "(i)": 468, 
  "resources": 469, 
  "human": 470, 
  "consider": 471, 
  "workers": 472, 
  "above": 473, 
  "cooperation": 474, 
  "your": 475, 
  "early": 476, 
  "purpose": 477, 
  "address": 478, 
  "money": 479, 
  "departments": 480, 
  "specified": 481, 
  "chung": 482, 
  "non": 483, 
  "accordance": 484, 
  "appeal": 485, 
  "honourable": 486, 
  "wednesday": 487, 
  "election": 488, 
  "say": 489, 
  "issues": 490, 
  "projects": 491, 
  "month": 492, 
  "better": 493, 
  "go": 494, 
  "hand": 495, 
  "chan": 496, 
  "third": 497, 
  "arrested": 498, 
  "tung": 499, 
  "amount": 500, 
  "friday": 501, 
  "medical": 502, 
  "city": 503, 
  "few": 504, 
  "main": 505, 
  "current": 506, 
  "arrangements": 507, 
  "investment": 508, 
  "improve": 509, 
  "lee": 510, 
  "result": 511, 
  "14": 512, 
  "kowloon": 513, 
  "include": 514, 
  "having": 515, 
  "six": 516, 
  "says": 517, 
  "name": 518, 
  "off": 519, 
  "small": 520, 
  "forward": 521, 
  "licence": 522, 
  "c": 523, 
  "growth": 524, 
  "schedule": 525, 
  "together": 526, 
  "know": 527, 
  "premises": 528, 
  "move": 529, 
  "index": 530, 
  "due": 531, 
  "co": 532, 
  "(d)": 533, 
  "always": 534, 
  "approved": 535, 
  "free": 536, 
  "amendments": 537, 
  "(ii)": 538, 
  "care": 539, 
  "regional": 540, 
  "project": 541, 
  "here": 542, 
  "change": 543, 
  "later": 544, 
  "university": 545, 
  "reply": 546, 
  "industrial": 547, 
  "no.": 548, 
  "vehicle": 549, 
  "customs": 550, 
  "process": 551, 
  "family": 552, 
  "cap": 553, 
  "basis": 554, 
  "increased": 555, 
  "meet": 556, 
  "18": 557, 
  "young": 558, 
  "promote": 559, 
  "interests": 560, 
  "best": 561, 
  "cultural": 562, 
  "asia": 563, 
  "needs": 564, 
  "taking": 565, 
  "times": 566, 
  "quarter": 567, 
  "action": 568, 
  "hospital": 569, 
  "facilities": 570, 
  "ship": 571, 
  "reform": 572, 
  "1996": 573, 
  "research": 574, 
  "bureau": 575, 
  "2003": 576, 
  "line": 577, 
  "practice": 578, 
  "decision": 579, 
  "domestic": 580, 
  "systems": 581, 
  "really": 582, 
  "paragraph": 583, 
  "assistance": 584, 
  "wong": 585, 
  "vehicles": 586, 
  "commissioner": 587, 
  "applications": 588, 
  "conducted": 589, 
  "administrative": 590, 
  "post": 591, 
  "tax": 592, 
  "13": 593, 
  "announced": 594, 
  "products": 595, 
  "established": 596, 
  "enquiries": 597, 
  "example": 598, 
  "men": 599, 
  "get": 600, 
  "article": 601, 
  "japan": 602, 
  "earlier": 603, 
  "based": 604, 
  "principle": 605, 
  "results": 606, 
  "welfare": 607, 
  "enhance": 608, 
  "25": 609, 
  "recent": 610, 
  "buildings": 611, 
  "role": 612, 
  "e": 613, 
  "too": 614, 
  "experience": 615, 
  "again": 616, 
  "supply": 617, 
  "appointed": 618, 
  "although": 619, 
  "24": 620, 
  "certain": 621, 
  "account": 622, 
  "stage": 623, 
  "deputy": 624, 
  "re": 625, 
  "fine": 626, 
  "un@@": 627, 
  "competition": 628, 
  "once": 629, 
  "survey": 630, 
  "sha": 631, 
  "requirements": 632, 
  "rules": 633, 
  "purposes": 634, 
  "western": 635, 
  "thursday": 636, 
  "around": 637, 
  "limited": 638, 
  "overseas": 639, 
  "16": 640, 
  "employees": 641, 
  "women": 642, 
  "side": 643, 
  "authorities": 644, 
  "wish": 645, 
  "yet": 646, 
  "chen": 647, 
  "going": 648, 
  "legislation": 649, 
  "offices": 650, 
  "particular": 651, 
  "culture": 652, 
  "exercise": 653, 
  "north": 654, 
  "ho": 655, 
  "provisional": 656, 
  "beijing": 657, 
  "demand": 658, 
  "tai": 659, 
  "cross": 660, 
  "jiang": 661, 
  "speech": 662, 
  "opening": 663, 
  "history": 664, 
  "cause": 665, 
  "urban": 666, 
  "enterprises": 667, 
  "sides": 668, 
  "position": 669, 
  "o": 670, 
  "laws": 671, 
  "want": 672, 
  "1995": 673, 
  "commercial": 674, 
  "appropriate": 675, 
  "places": 676, 
  "provision": 677, 
  "illegal": 678, 
  "find": 679, 
  "monday": 680, 
  "published": 681, 
  "carried": 682, 
  "south": 683, 
  "island": 684, 
  "develop": 685, 
  "residents": 686, 
  "clear": 687, 
  "performance": 688, 
  "along": 689, 
  "completed": 690, 
  "century": 691, 
  "age": 692, 
  "common": 693, 
  "pointed": 694, 
  "investigation": 695, 
  "changes": 696, 
  "light": 697, 
  "parties": 698, 
  "tuesday": 699, 
  "look": 700, 
  "cheung": 701, 
  "call": 702, 
  "saturday": 703, 
  "developing": 704, 
  "rule": 705, 
  "price": 706, 
  "agreement": 707, 
  "fully": 708, 
  "airport": 709, 
  "19": 710, 
  "immigration": 711, 
  "written": 712, 
  "morning": 713, 
  "east": 714, 
  "soon": 715, 
  "called": 716, 
  "cost": 717, 
  "english": 718, 
  "implementation": 719, 
  "until": 720, 
  "17": 721, 
  "details": 722, 
  "association": 723, 
  "mentioned": 724, 
  "equipment": 725, 
  "carry": 726, 
  "reason": 727, 
  "certificate": 728, 
  "21": 729, 
  "half": 730, 
  "proposal": 731, 
  "conduct": 732, 
  "sale": 733, 
  "outside": 734, 
  "miss": 735, 
  "elderly": 736, 
  "let": 737, 
  "understand": 738, 
  "opportunities": 739, 
  "keep": 740, 
  "bring": 741, 
  "class": 742, 
  "ago": 743, 
  "respectively": 744, 
  "points": 745, 
  "regard": 746, 
  "professional": 747, 
  "bus": 748, 
  "duty": 749, 
  "please": 750, 
  "standards": 751, 
  "hk": 752, 
  "serious": 753, 
  "plans": 754, 
  "job": 755, 
  "overall": 756, 
  "japanese": 757, 
  "attention": 758, 
  "progress": 759, 
  "joint": 760, 
  "maintain": 761, 
  "house": 762, 
  "referred": 763, 
  "re@@": 764, 
  "yesterday": 765, 
  "corporation": 766, 
  "living": 767, 
  "anti": 768, 
  "22": 769, 
  "might": 770, 
  "governor": 771, 
  "yuen": 772, 
  "industries": 773, 
  "fees": 774, 
  "policies": 775, 
  "23": 776, 
  "tin": 777, 
  "ma": 778, 
  "thus": 779, 
  "payment": 780, 
  "west": 781, 
  "production": 782, 
  "park": 783, 
  "hard": 784, 
  "importance": 785, 
  "red": 786, 
  "station": 787, 
  "strong": 788, 
  "never": 789, 
  "proposals": 790, 
  "impact": 791, 
  "body": 792, 
  "teachers": 793, 
  "using": 794, 
  "done": 795, 
  "war": 796, 
  "direct": 797, 
  "consultation": 798, 
  "exports": 799, 
  "site": 800, 
  "reasons": 801, 
  "capital": 802, 
  "lau": 803, 
  "treatment": 804, 
  "media": 805, 
  "&": 806, 
  "real": 807, 
  "50": 808, 
  "costs": 809, 
  "show": 810, 
  "official": 811, 
  "aged": 812, 
  "face": 813, 
  "enforcement": 814, 
  "democratic": 815, 
  "po": 816, 
  "comprehensive": 817, 
  "standard": 818, 
  "noted": 819, 
  "matters": 820, 
  "b": 821, 
  "involved": 822, 
  "short": 823, 
  "proceedings": 824, 
  "recently": 825, 
  "things": 826, 
  "closed": 827, 
  "close": 828, 
  "wang": 829, 
  "nature": 830, 
  "leading": 831, 
  "annual": 832, 
  "themselves": 833, 
  "individual": 834, 
  "additional": 835, 
  "space": 836, 
  "charge": 837, 
  "took": 838, 
  "affected": 839, 
  "paid": 840, 
  "paper": 841, 
  "several": 842, 
  "science": 843, 
  "clause": 844, 
  "considered": 845, 
  "return": 846, 
  "manner": 847, 
  "organizations": 848, 
  "providing": 849, 
  "units": 850, 
  "higher": 851, 
  "opportunity": 852, 
  "leung": 853, 
  "circumstances": 854, 
  "29": 855, 
  "28": 856, 
  "low": 857, 
  "primary": 858, 
  "establishment": 859, 
  "income": 860, 
  "cheng": 861, 
  "31": 862, 
  "similar": 863, 
  "waste": 864, 
  "forces": 865, 
  "debate": 866, 
  "standing": 867, 
  "big": 868, 
  "otherwise": 869, 
  "responsible": 870, 
  "expressed": 871, 
  "relating": 872, 
  "groups": 873, 
  "maintenance": 874, 
  "000": 875, 
  "improvement": 876, 
  "26": 877, 
  "writing": 878, 
  "average": 879, 
  "lot": 880, 
  "prices": 881, 
  "officials": 882, 
  "population": 883, 
  "seven": 884, 
  "reasonable": 885, 
  "actually": 886, 
  "unit": 887, 
  "understanding": 888, 
  "volume": 889, 
  "sar": 890, 
  "bank": 891, 
  "inspection": 892, 
  "bills": 893, 
  "shui": 894, 
  "territory": 895, 
  "often": 896, 
  "register": 897, 
  "senior": 898, 
  "woman": 899, 
  "27": 900, 
  "act": 901, 
  "tomorrow": 902, 
  "evidence": 903, 
  "exhibition": 904, 
  "asked": 905, 
  "strait": 906, 
  "facilitate": 907, 
  "oil": 908, 
  "relation": 909, 
  "sunday": 910, 
  "hold": 911, 
  "either": 912, 
  "assessment": 913, 
  "others": 914, 
  "ask": 915, 
  "least": 916, 
  "expenditure": 917, 
  "estate": 918, 
  "step": 919, 
  "floor": 920, 
  "hon": 921, 
  "town": 922, 
  "personal": 923, 
  "territories": 924, 
  "100": 925, 
  "key": 926, 
  "passed": 927, 
  "operations": 928, 
  "concern": 929, 
  "strengthen": 930, 
  "statement": 931, 
  "dollar": 932, 
  "crime": 933, 
  "design": 934, 
  "brought": 935, 
  "language": 936, 
  "response": 937, 
  "ed": 938, 
  "vice": 939, 
  "left": 940, 
  "conference": 941, 
  "greater": 942, 
  "insurance": 943, 
  "wu": 944, 
  "data": 945, 
  "zemin": 946, 
  "moved": 947, 
  "connection": 948, 
  "parents": 949, 
  "employers": 950, 
  "turn": 951, 
  "play": 952, 
  "responsibility": 953, 
  "levels": 954, 
  "knowledge": 955, 
  "bay": 956, 
  "imprisonment": 957, 
  "programmes": 958, 
  "kind": 959, 
  "institutions": 960, 
  "internet": 961, 
  "liable": 962, 
  "except": 963, 
  "dangerous": 964, 
  "series": 965, 
  "released": 966, 
  "compared": 967, 
  "expected": 968, 
  "little": 969, 
  "difficult": 970, 
  "iii": 971, 
  "developed": 972, 
  "opinion": 973, 
  "justice": 974, 
  "came": 975, 
  "figures": 976, 
  "tsang": 977, 
  "drug": 978, 
  "sales": 979, 
  "charged": 980, 
  "asian": 981, 
  "behalf": 982, 
  "follow": 983, 
  "residential": 984, 
  "led": 985, 
  "promoting": 986, 
  "child": 987, 
  "stability": 988, 
  "unless": 989, 
  "fee": 990, 
  "1994": 991, 
  "owners": 992, 
  "implemented": 993, 
  "procedures": 994, 
  "40": 995, 
  "secondary": 996, 
  "self": 997, 
  "charges": 998, 
  "sea": 999, 
  "kok": 1000, 
  "success": 1001, 
  "regarding": 1002, 
  "speak": 1003, 
  "scale": 1004, 
  "reference": 1005, 
  "r": 1006, 
  "manpower": 1007, 
  "coming": 1008, 
  "appointment": 1009, 
  "structure": 1010, 
  "eight": 1011, 
  "immediately": 1012, 
  "ceremony": 1013, 
  "criminal": 1014, 
  "especially": 1015, 
  "implement": 1016, 
  "clearly": 1017, 
  "defense": 1018, 
  "strategy": 1019, 
  "cargo": 1020, 
  "ha": 1021, 
  "words": 1022, 
  "require": 1023, 
  "operating": 1024, 
  "prevent": 1025, 
  "computer": 1026, 
  "funds": 1027, 
  "access": 1028, 
  "reduce": 1029, 
  "start": 1030, 
  "(e)": 1031, 
  "authorized": 1032, 
  "ground": 1033, 
  "introduced": 1034, 
  "indeed": 1035, 
  "adopted": 1036, 
  "task": 1037, 
  "apart": 1038, 
  "representatives": 1039, 
  "provides": 1040, 
  "document": 1041, 
  "stations": 1042, 
  "chi": 1043, 
  "peace": 1044, 
  "doing": 1045, 
  "external": 1046, 
  "budget": 1047, 
  "railway": 1048, 
  "consideration": 1049, 
  "direction": 1050, 
  "achieve": 1051, 
  "original": 1052, 
  "minister": 1053, 
  "leaders": 1054, 
  "mainly": 1055, 
  "list": 1056, 
  "electronic": 1057, 
  "share": 1058, 
  "incident": 1059, 
  "agreed": 1060, 
  "enter": 1061, 
  "vote": 1062, 
  "taipei": 1063, 
  "approach": 1064, 
  "rates": 1065, 
  "contract": 1066, 
  "permit": 1067, 
  "capacity": 1068, 
  "export": 1069, 
  "served": 1070, 
  "contact": 1071, 
  "condition": 1072, 
  "art": 1073, 
  "spirit": 1074, 
  "sub": 1075, 
  "questions": 1076, 
  "markets": 1077, 
  "maximum": 1078, 
  "mun": 1079, 
  "reports": 1080, 
  "percent": 1081, 
  "reported": 1082, 
  "tsuen": 1083, 
  "revenue": 1084, 
  "trading": 1085, 
  "rather": 1086, 
  "currently": 1087, 
  "strategic": 1088, 
  "examination": 1089, 
  "continued": 1090, 
  "specific": 1091, 
  "mechanism": 1092, 
  "team": 1093, 
  "5@@": 1094, 
  "t": 1095, 
  "sino": 1096, 
  "in@@": 1097, 
  "1993": 1098, 
  "feel": 1099, 
  "approval": 1100, 
  "raised": 1101, 
  "sectors": 1102, 
  "final": 1103, 
  "centres": 1104, 
  "remain": 1105, 
  "bodies": 1106, 
  "death": 1107, 
  "speaking": 1108, 
  "film": 1109, 
  "carrying": 1110, 
  "traditional": 1111, 
  "lin": 1112, 
  "known": 1113, 
  "meetings": 1114, 
  "away": 1115, 
  "o.": 1116, 
  "copy": 1117, 
  "investigations": 1118, 
  "arrangement": 1119, 
  "fair": 1120, 
  "accident": 1121, 
  "included": 1122, 
  "music": 1123, 
  "type": 1124, 
  "u.": 1125, 
  "recorded": 1126, 
  "medium": 1127, 
  "quite": 1128, 
  "registrar": 1129, 
  "tong": 1130, 
  "reading": 1131, 
  "powers": 1132, 
  "deal": 1133, 
  "organization": 1134, 
  "near": 1135, 
  "pressure": 1136, 
  "particularly": 1137, 
  "actions": 1138, 
  "room": 1139, 
  "raise": 1140, 
  "passengers": 1141, 
  "compensation": 1142, 
  "went": 1143, 
  "table": 1144, 
  "event": 1145, 
  "allowed": 1146, 
  "seen": 1147, 
  "yuan": 1148, 
  "pollution": 1149, 
  "materials": 1150, 
  "press": 1151, 
  "operators": 1152, 
  "run": 1153, 
  "though": 1154, 
  "record": 1155, 
  "head": 1156, 
  "allow": 1157, 
  "leave": 1158, 
  "besides": 1159, 
  "technical": 1160, 
  "positive": 1161, 
  "forms": 1162, 
  "consumer": 1163, 
  "hung": 1164, 
  "lands": 1165, 
  "status": 1166, 
  "follows": 1167, 
  "personnel": 1168, 
  "live": 1169, 
  "answer": 1170, 
  "test": 1171, 
  "replaced": 1172, 
  "certainly": 1173, 
  "entry": 1174, 
  "something": 1175, 
  "serve": 1176, 
  "lam": 1177, 
  "prescribed": 1178, 
  "decided": 1179, 
  "note": 1180, 
  "successful": 1181, 
  "4@@": 1182, 
  "medicine": 1183, 
  "wide": 1184, 
  "seek": 1185, 
  "complete": 1186, 
  "lower": 1187, 
  "chang": 1188, 
  "division": 1189, 
  "loans": 1190, 
  "giving": 1191, 
  "offer": 1192, 
  "afternoon": 1193, 
  "request": 1194, 
  "itself": 1195, 
  "arts": 1196, 
  "complaints": 1197, 
  "retail": 1198, 
  "marine": 1199, 
  "6@@": 1200, 
  "normal": 1201, 
  "material": 1202, 
  "comply": 1203, 
  "closely": 1204, 
  "ming": 1205, 
  "k.": 1206, 
  "encourage": 1207, 
  "nothing": 1208, 
  "documents": 1209, 
  "build": 1210, 
  "d@@": 1211, 
  "confidence": 1212, 
  "rise": 1213, 
  "metres": 1214, 
  "s@@": 1215, 
  "former": 1216, 
  "started": 1217, 
  "objective": 1218, 
  "stock": 1219, 
  "longer": 1220, 
  "lead": 1221, 
  "create": 1222, 
  "committed": 1223, 
  "securities": 1224, 
  "natural": 1225, 
  "urged": 1226, 
  "stand": 1227, 
  "reunification": 1228, 
  "setting": 1229, 
  "wto": 1230, 
  "cf": 1231, 
  "ching": 1232, 
  "requirement": 1233, 
  "modern": 1234, 
  "stressed": 1235, 
  "moreover": 1236, 
  "latest": 1237, 
  "duties": 1238, 
  "independence": 1239, 
  "remarks": 1240, 
  "0": 1241, 
  "60": 1242, 
  "thing": 1243, 
  "factors": 1244, 
  "advisory": 1245, 
  "difficulties": 1246, 
  "met": 1247, 
  "n@@": 1248, 
  "principal": 1249, 
  "gas": 1250, 
  "single": 1251, 
  "k@@": 1252, 
  "shows": 1253, 
  "developments": 1254, 
  "towards": 1255, 
  "relationship": 1256, 
  "procedure": 1257, 
  "benefit": 1258, 
  "looking": 1259, 
  "television": 1260, 
  "enable": 1261, 
  "import": 1262, 
  "began": 1263, 
  "promotion": 1264, 
  "global": 1265, 
  "sports": 1266, 
  "fourth": 1267, 
  "sent": 1268, 
  "mutual": 1269, 
  "foundation": 1270, 
  "caused": 1271, 
  "signed": 1272, 
  "agree": 1273, 
  "functions": 1274, 
  "independent": 1275, 
  "sufficient": 1276, 
  "beach": 1277, 
  "ways": 1278, 
  "week": 1279, 
  "proper": 1280, 
  "representative": 1281, 
  "includes": 1282, 
  "generally": 1283, 
  "establish": 1284, 
  "studies": 1285, 
  "7@@": 1286, 
  "advice": 1287, 
  "determined": 1288, 
  "tuen": 1289, 
  "granted": 1290, 
  "british": 1291, 
  "chai": 1292, 
  "supervision": 1293, 
  "infrastructure": 1294, 
  "parts": 1295, 
  "vessel": 1296, 
  "suspected": 1297, 
  "tourism": 1298, 
  "ms": 1299, 
  "sites": 1300, 
  "village": 1301, 
  "recommendations": 1302, 
  "range": 1303, 
  "ten": 1304, 
  "suitable": 1305, 
  "principles": 1306, 
  "taiwanese": 1307, 
  "inform": 1308, 
  "friendly": 1309, 
  "owner": 1310, 
  "daily": 1311, 
  "courses": 1312, 
  "tang": 1313, 
  "advanced": 1314, 
  "news": 1315, 
  "assets": 1316, 
  "balance": 1317, 
  "monetary": 1318, 
  "ever": 1319, 
  "risk": 1320, 
  "statutory": 1321, 
  "whose": 1322, 
  "front": 1323, 
  "reached": 1324, 
  "colleagues": 1325, 
  "river": 1326, 
  "welcome": 1327, 
  "read": 1328, 
  "banks": 1329, 
  "applicant": 1330, 
  "panel": 1331, 
  "fixed": 1332, 
  "avoid": 1333, 
  "hui": 1334, 
  "travel": 1335, 
  "offences": 1336, 
  "p@@": 1337, 
  "launched": 1338, 
  "harbour": 1339, 
  "museum": 1340, 
  "teaching": 1341, 
  "talks": 1342, 
  "census": 1343, 
  "regards": 1344, 
  "9@@": 1345, 
  "whom": 1346, 
  "c@@": 1347, 
  "kept": 1348, 
  "detailed": 1349, 
  "visitors": 1350, 
  "instead": 1351, 
  "notes": 1352, 
  "patients": 1353, 
  "benefits": 1354, 
  "completion": 1355, 
  "guidelines": 1356, 
  "schemes": 1357, 
  "g@@": 1358, 
  "liu": 1359, 
  "republic": 1360, 
  "stop": 1361, 
  "suspended": 1362, 
  "hygiene": 1363, 
  "institute": 1364, 
  "don": 1365, 
  "acting": 1366, 
  "hall": 1367, 
  "er": 1368, 
  "monitoring": 1369, 
  "middle": 1370, 
  "ing": 1371, 
  "campaign": 1372, 
  "everyone": 1373, 
  "ping": 1374, 
  "scientific": 1375, 
  "seized": 1376, 
  "learning": 1377, 
  "top": 1378, 
  "b@@": 1379, 
  "car": 1380, 
  "nine": 1381, 
  "items": 1382, 
  "phase": 1383, 
  "receive": 1384, 
  "families": 1385, 
  "flats": 1386, 
  "degree": 1387, 
  "protect": 1388, 
  "mean": 1389, 
  "thereof": 1390, 
  "handling": 1391, 
  "taxi": 1392, 
  "yu": 1393, 
  "card": 1394, 
  "nation": 1395, 
  "worth": 1396, 
  "youth": 1397, 
  "increasing": 1398, 
  "conviction": 1399, 
  "zhu": 1400, 
  "chau": 1401, 
  "t@@": 1402, 
  "3@@": 1403, 
  "throughout": 1404, 
  "became": 1405, 
  "behind": 1406, 
  "elections": 1407, 
  "propose": 1408, 
  "field": 1409, 
  "efficiency": 1410, 
  "website": 1411, 
  "improving": 1412, 
  "8@@": 1413, 
  "finance": 1414, 
  "makes": 1415, 
  "bush": 1416, 
  "grant": 1417, 
  "involving": 1418, 
  "wing": 1419, 
  "effort": 1420, 
  "night": 1421, 
  "affect": 1422, 
  "accept": 1423, 
  "unemployment": 1424, 
  "historical": 1425, 
  "pprb": 1426, 
  "square": 1427, 
  "cover": 1428, 
  "award": 1429, 
  "operate": 1430, 
  "directly": 1431, 
  "thank": 1432, 
  "-@@": 1433, 
  "licensing": 1434, 
  "attend": 1435, 
  "hands": 1436, 
  "citizens": 1437, 
  "submit": 1438, 
  "shan": 1439, 
  "beginning": 1440, 
  "minutes": 1441, 
  "trust": 1442, 
  "cadres": 1443, 
  "nor": 1444, 
  "manufacturing": 1445, 
  "enough": 1446, 
  "(@@": 1447, 
  "ability": 1448, 
  "radio": 1449, 
  "nations": 1450, 
  "himself": 1451, 
  "hearing": 1452, 
  "discussion": 1453, 
  "organised": 1454, 
  "skills": 1455, 
  "stay": 1456, 
  "session": 1457, 
  "ting": 1458, 
  "meanwhile": 1459, 
  "hksar": 1460, 
  "port": 1461, 
  "thinking": 1462, 
  "ii": 1463, 
  "organisations": 1464, 
  "entitled": 1465, 
  "'@@": 1466, 
  "temporary": 1467, 
  "concerning": 1468, 
  "potential": 1469, 
  "telecommunications": 1470, 
  "banking": 1471, 
  "speed": 1472, 
  "emergency": 1473, 
  "exchanges": 1474, 
  "draft": 1475, 
  "trend": 1476, 
  "maintained": 1477, 
  "submitted": 1478, 
  "opened": 1479, 
  "municipal": 1480, 
  "discuss": 1481, 
  "green": 1482, 
  "simply": 1483, 
  "payable": 1484, 
  "strength": 1485, 
  "late": 1486, 
  "aircraft": 1487, 
  "accidents": 1488, 
  "pacific": 1489, 
  "professor": 1490, 
  "book": 1491, 
  "driving": 1492, 
  "master": 1493, 
  "rural": 1494, 
  "delegation": 1495, 
  "drugs": 1496, 
  "majority": 1497, 
  "wai": 1498, 
  "m@@": 1499, 
  "shown": 1500, 
  "significant": 1501, 
  "accepted": 1502, 
  "penalty": 1503, 
  "round": 1504, 
  "i@@": 1505, 
  "councils": 1506, 
  "transfer": 1507, 
  "army": 1508, 
  "across": 1509, 
  "thought": 1510, 
  "rent": 1511, 
  "clean": 1512, 
  "e@@": 1513, 
  "orders": 1514, 
  "finally": 1515, 
  "starting": 1516, 
  "k": 1517, 
  "applied": 1518, 
  "mind": 1519, 
  "d": 1520, 
  "sense": 1521, 
  "prevention": 1522, 
  "inside": 1523, 
  "telephone": 1524, 
  "heavy": 1525, 
  "built": 1526, 
  "instance": 1527, 
  "holding": 1528, 
  "eastern": 1529, 
  "applies": 1530, 
  "h@@": 1531, 
  "tribunal": 1532, 
  "decreased": 1533, 
  "outstanding": 1534, 
  "located": 1535, 
  "invited": 1536, 
  "highly": 1537, 
  "returned": 1538, 
  "accounts": 1539, 
  "true": 1540, 
  "cpc": 1541, 
  "obtained": 1542, 
  "bilateral": 1543, 
  "actively": 1544, 
  "educational": 1545, 
  "aid": 1546, 
  "product": 1547, 
  "employed": 1548, 
  "tunnel": 1549, 
  "annex": 1550, 
  "lo": 1551, 
  "focus": 1552, 
  "drive": 1553, 
  "sum": 1554, 
  "active": 1555, 
  "sure": 1556, 
  "collection": 1557, 
  "anyone": 1558, 
  "network": 1559, 
  "perhaps": 1560, 
  "shanghai": 1561, 
  "sections": 1562, 
  "extremely": 1563, 
  "introduce": 1564, 
  "challenges": 1565, 
  "l@@": 1566, 
  "convention": 1567, 
  "passenger": 1568, 
  "1992": 1569, 
  "o@@": 1570, 
  "applicants": 1571, 
  "leisure": 1572, 
  "below": 1573, 
  "stated": 1574, 
  "enjoy": 1575, 
  "previous": 1576, 
  "particulars": 1577, 
  "premier": 1578, 
  "festival": 1579, 
  "figure": 1580, 
  "represents": 1581, 
  "f": 1582, 
  "adopt": 1583, 
  "claim": 1584, 
  "leadership": 1585, 
  "ng": 1586, 
  "american": 1587, 
  "russia": 1588, 
  "talk": 1589, 
  "told": 1590, 
  "m": 1591, 
  "kai": 1592, 
  "elected": 1593, 
  "produce": 1594, 
  "32": 1595, 
  "estimated": 1596, 
  "engineering": 1597, 
  "friends": 1598, 
  "produced": 1599, 
  "resolution": 1600, 
  "ers": 1601, 
  "satisfied": 1602, 
  "saying": 1603, 
  "broadcasting": 1604, 
  "center": 1605, 
  "idea": 1606, 
  "fish": 1607, 
  "candidates": 1608, 
  "fung": 1609, 
  "80": 1610, 
  "35": 1611, 
  "designated": 1612, 
  "forum": 1613, 
  "heard": 1614, 
  "generation": 1615, 
  "practical": 1616, 
  "tsui": 1617, 
  "meaning": 1618, 
  "regular": 1619, 
  "commerce": 1620, 
  "base": 1621, 
  "sai": 1622, 
  "agriculture": 1623, 
  "join": 1624, 
  "records": 1625, 
  "explained": 1626, 
  "yi": 1627, 
  "identity": 1628, 
  "nevertheless": 1629, 
  "a@@": 1630, 
  "framework": 1631, 
  "parking": 1632, 
  "credit": 1633, 
  "method": 1634, 
  "express": 1635, 
  "indicated": 1636, 
  "y@@": 1637, 
  "votes": 1638, 
  "target": 1639, 
  "ships": 1640, 
  "types": 1641, 
  "ties": 1642, 
  "sun": 1643, 
  "toward": 1644, 
  "ling": 1645, 
  "boundary": 1646, 
  "purchase": 1647, 
  "white": 1648, 
  "trial": 1649, 
  "agricultural": 1650, 
  "poor": 1651, 
  "mother": 1652, 
  "achieved": 1653, 
  "jobs": 1654, 
  "numbers": 1655, 
  "tender": 1656, 
  "dis@@": 1657, 
  "(f)": 1658, 
  "fit": 1659, 
  "ahead": 1660, 
  "currency": 1661, 
  "academic": 1662, 
  "revealed": 1663, 
  "drivers": 1664, 
  "display": 1665, 
  "designed": 1666, 
  "participation": 1667, 
  "permanent": 1668, 
  "gave": 1669, 
  "takes": 1670, 
  "yau": 1671, 
  "achievements": 1672, 
  "shek": 1673, 
  "actual": 1674, 
  "democracy": 1675, 
  "fundamental": 1676, 
  "technological": 1677, 
  "respective": 1678, 
  "repealed": 1679, 
  "assist": 1680, 
  "source": 1681, 
  "loss": 1682, 
  "reduction": 1683, 
  "obtain": 1684, 
  "kung": 1685, 
  "employer": 1686, 
  "tenants": 1687, 
  "gazette": 1688, 
  "likely": 1689, 
  "institution": 1690, 
  "hotline": 1691, 
  "possession": 1692, 
  "properly": 1693, 
  "ministry": 1694, 
  "healthy": 1695, 
  "try": 1696, 
  "changed": 1697, 
  "1,": 1698, 
  "ate": 1699, 
  "kwok": 1700, 
  "improved": 1701, 
  "largest": 1702, 
  "kwong": 1703, 
  "commencement": 1704, 
  "aim": 1705, 
  "remaining": 1706, 
  "style": 1707, 
  "es": 1708, 
  "cut": 1709, 
  "attended": 1710, 
  "r@@": 1711, 
  "increases": 1712, 
  "wah": 1713, 
  "communication": 1714, 
  "electrical": 1715, 
  "yang": 1716, 
  "student": 1717, 
  "sound": 1718, 
  "p": 1719, 
  "attitude": 1720, 
  "presented": 1721, 
  "200": 1722, 
  "code": 1723, 
  "entire": 1724, 
  "investors": 1725, 
  "games": 1726, 
  "interested": 1727, 
  "king": 1728, 
  "reduced": 1729, 
  "f@@": 1730, 
  "maintaining": 1731, 
  "mobile": 1732, 
  "investigating": 1733, 
  "union": 1734, 
  "ip": 1735, 
  "peng": 1736, 
  "willing": 1737, 
  "discussed": 1738, 
  "learn": 1739, 
  "adequate": 1740, 
  "fresh": 1741, 
  "lai": 1742, 
  "expenses": 1743, 
  "kwai": 1744, 
  "38": 1745, 
  "occurred": 1746, 
  "safe": 1747, 
  "spaces": 1748, 
  "flag": 1749, 
  "renewal": 1750, 
  "admission": 1751, 
  "freedom": 1752, 
  "committees": 1753, 
  "priority": 1754, 
  "popular": 1755, 
  "internal": 1756, 
  "extent": 1757, 
  "books": 1758, 
  "offered": 1759, 
  "peak": 1760, 
  "prior": 1761, 
  "evening": 1762, 
  "prepared": 1763, 
  "concept": 1764, 
  "huang": 1765, 
  "appear": 1766, 
  "hour": 1767, 
  "employee": 1768, 
  "gradually": 1769, 
  "despite": 1770, 
  "servants": 1771, 
  "net": 1772, 
  "thinks": 1773, 
  "monitor": 1774, 
  "fu": 1775, 
  "search": 1776, 
  "monthly": 1777, 
  "firm": 1778, 
  "add": 1779, 
  "mong": 1780, 
  "strengthening": 1781, 
  "singapore": 1782, 
  "laid": 1783, 
  "1991": 1784, 
  "kam": 1785, 
  "anything": 1786, 
  "participants": 1787, 
  "entered": 1788, 
  "articles": 1789, 
  "corporate": 1790, 
  "forecast": 1791, 
  "jointly": 1792, 
  "45": 1793, 
  "won": 1794, 
  "recovery": 1795, 
  "equal": 1796, 
  "roads": 1797, 
  "hwa": 1798, 
  "lives": 1799, 
  "innovation": 1800, 
  "ated": 1801, 
  "happy": 1802, 
  "500": 1803, 
  "guangdong": 1804, 
  "weather": 1805, 
  "essential": 1806, 
  "comes": 1807, 
  "fields": 1808, 
  "users": 1809, 
  "assistant": 1810, 
  "congress": 1811, 
  "reminded": 1812, 
  "implementing": 1813, 
  "container": 1814, 
  "energy": 1815, 
  "seriously": 1816, 
  "publicity": 1817, 
  "falungong": 1818, 
  "declaration": 1819, 
  "visited": 1820, 
  "requires": 1821, 
  "(nr)": 1822, 
  "tell": 1823, 
  "completely": 1824, 
  "scene": 1825, 
  "1990": 1826, 
  "vessels": 1827, 
  "visits": 1828, 
  "amend": 1829, 
  "han": 1830, 
  "legislature": 1831, 
  "representing": 1832, 
  "tr": 1833, 
  "lack": 1834, 
  "got": 1835, 
  "black": 1836, 
  "link": 1837, 
  "funding": 1838, 
  "stamp": 1839, 
  "simple": 1840, 
  "teacher": 1841, 
  "motor": 1842, 
  "uses": 1843, 
  "discharge": 1844, 
  "contributions": 1845, 
  "crisis": 1846, 
  "failed": 1847, 
  "college": 1848, 
  "aspects": 1849, 
  "almost": 1850, 
  "33": 1851, 
  "mr.": 1852, 
  "scope": 1853, 
  "extended": 1854, 
  "determine": 1855, 
  "carefully": 1856, 
  "chee": 1857, 
  "guilty": 1858, 
  "practices": 1859, 
  "consent": 1860, 
  "remains": 1861, 
  "eligible": 1862, 
  "separate": 1863, 
  "courts": 1864, 
  "scheduled": 1865, 
  "fuel": 1866, 
  "continuing": 1867, 
  "compliance": 1868, 
  "hkma": 1869, 
  "methods": 1870, 
  "supported": 1871, 
  "prosecution": 1872, 
  "discussions": 1873, 
  "engaged": 1874, 
  "rest": 1875, 
  "gross": 1876, 
  "moving": 1877, 
  "cities": 1878, 
  "urge": 1879, 
  "europe": 1880, 
  "copies": 1881, 
  "love": 1882, 
  "yan": 1883, 
  "pass": 1884, 
  "aware": 1885, 
  "effectively": 1886, 
  "wei": 1887, 
  "created": 1888, 
  "yiu": 1889, 
  "reach": 1890, 
  "imposed": 1891, 
  "buses": 1892, 
  "contractors": 1893, 
  "initial": 1894, 
  "36": 1895, 
  "constitutional": 1896, 
  "mortgage": 1897, 
  "seems": 1898, 
  "corruption": 1899, 
  "seeking": 1900, 
  "opinions": 1901, 
  "participate": 1902, 
  "measure": 1903, 
  "choice": 1904, 
  "w@@": 1905, 
  "mark": 1906, 
  "claims": 1907, 
  "70": 1908, 
  "european": 1909, 
  "nt": 1910, 
  "selected": 1911, 
  "ating": 1912, 
  "disease": 1913, 
  "attached": 1914, 
  "experts": 1915, 
  "businesses": 1916, 
  "holidays": 1917, 
  "fight": 1918, 
  "imports": 1919, 
  "tsim": 1920, 
  "facing": 1921, 
  "covered": 1922, 
  "deep": 1923, 
  "loan": 1924, 
  "fall": 1925, 
  "cssa": 1926, 
  "stable": 1927, 
  "awareness": 1928, 
  "shipping": 1929, 
  "concerns": 1930, 
  "combat": 1931, 
  "size": 1932, 
  "directors": 1933, 
  "false": 1934, 
  "contracts": 1935, 
  "processing": 1936, 
  "g": 1937, 
  "en@@": 1938, 
  "facts": 1939, 
  "37": 1940, 
  "contained": 1941, 
  "dealing": 1942, 
  "criteria": 1943, 
  "waiting": 1944, 
  "moment": 1945, 
  "beaches": 1946, 
  "mass": 1947, 
  "2@@": 1948, 
  "kinds": 1949, 
  "profits": 1950, 
  "excise": 1951, 
  "crimes": 1952, 
  "originally": 1953, 
  "county": 1954, 
  "advance": 1955, 
  "wife": 1956, 
  "effectiveness": 1957, 
  "customers": 1958, 
  "professionals": 1959, 
  "de@@": 1960, 
  "changing": 1961, 
  "ferry": 1962, 
  "pre": 1963, 
  "districts": 1964, 
  "judge": 1965, 
  "conducting": 1966, 
  "revised": 1967, 
  "serving": 1968, 
  "determination": 1969, 
  "alone": 1970, 
  "photo": 1971, 
  "failure": 1972, 
  "adjustment": 1973, 
  "ts": 1974, 
  "placed": 1975, 
  "grade": 1976, 
  "distribution": 1977, 
  "delivery": 1978, 
  "damage": 1979, 
  "listed": 1980, 
  "events": 1981, 
  "tv": 1982, 
  "an@@": 1983, 
  "0@@": 1984, 
  "efficient": 1985, 
  "defendant": 1986, 
  "route": 1987, 
  "initiatives": 1988, 
  "launch": 1989, 
  "advised": 1990, 
  "fell": 1991, 
  "delivered": 1992, 
  "motherland": 1993, 
  "y": 1994, 
  "awarded": 1995, 
  "believed": 1996, 
  "sign": 1997, 
  "easy": 1998, 
  "turned": 1999, 
  "certificates": 2000, 
  "analysis": 2001, 
  "ltd": 2002, 
  "highest": 2003, 
  "grounds": 2004, 
  "partnership": 2005, 
  "plant": 2006, 
  "handle": 2007, 
  "branch": 2008, 
  "masses": 2009, 
  "supplementary": 2010, 
  "ying": 2011, 
  "sold": 2012, 
  "regions": 2013, 
  "tests": 2014, 
  "limit": 2015, 
  "enhancing": 2016, 
  "licences": 2017, 
  "interpretation": 2018, 
  "consensus": 2019, 
  "library": 2020, 
  "getting": 2021, 
  "hectares": 2022, 
  "manager": 2023, 
  "ideas": 2024, 
  "34": 2025, 
  "relief": 2026, 
  "npc": 2027, 
  "worked": 2028, 
  "chu": 2029, 
  "intended": 2030, 
  "q": 2031, 
  "growing": 2032, 
  "chance": 2033, 
  "mei": 2034, 
  "dance": 2035, 
  "successfully": 2036, 
  "province": 2037, 
  "patient": 2038, 
  "lost": 2039, 
  "judicial": 2040, 
  "zone": 2041, 
  "arms": 2042, 
  "socialist": 2043, 
  "relatively": 2044, 
  "followed": 2045, 
  "needed": 2046, 
  "over@@": 2047, 
  "suspension": 2048, 
  "hu": 2049, 
  "hospitals": 2050, 
  "consumers": 2051, 
  "goal": 2052, 
  "activity": 2053, 
  "debt": 2054, 
  "agencies": 2055, 
  "extensive": 2056, 
  "correct": 2057, 
  "competitiveness": 2058, 
  "clauses": 2059, 
  "allocation": 2060, 
  "comments": 2061, 
  "machinery": 2062, 
  "48": 2063, 
  "storage": 2064, 
  "introduction": 2065, 
  "father": 2066, 
  "tsing": 2067, 
  "capable": 2068, 
  "kwan": 2069, 
  "warning": 2070, 
  "kwun": 2071, 
  "decline": 2072, 
  "exceeding": 2073, 
  "minimum": 2074, 
  "diplomatic": 2075, 
  "chow": 2076, 
  "showed": 2077, 
  "1988": 2078, 
  "classes": 2079, 
  "payments": 2080, 
  "enhanced": 2081, 
  "300": 2082, 
  "xinhua": 2083, 
  "considers": 2084, 
  "solve": 2085, 
  "dead": 2086, 
  "intention": 2087, 
  "considering": 2088, 
  "james": 2089, 
  "electoral": 2090, 
  "permitted": 2091, 
  "ation": 2092, 
  "hence": 2093, 
  "huge": 2094, 
  "explain": 2095, 
  "findings": 2096, 
  "item": 2097, 
  "publication": 2098, 
  "commitment": 2099, 
  "extension": 2100, 
  "friendship": 2101, 
  "sin": 2102, 
  "greatly": 2103, 
  "aims": 2104, 
  "diesel": 2105, 
  "tickets": 2106, 
  "missile": 2107, 
  "program": 2108, 
  "contribution": 2109, 
  "competitive": 2110, 
  "raising": 2111, 
  "39": 2112, 
  "deemed": 2113, 
  "mid": 2114, 
  "peaceful": 2115, 
  "detained": 2116, 
  "effects": 2117, 
  "marked": 2118, 
  "al@@": 2119, 
  "southern": 2120, 
  "era": 2121, 
  "abroad": 2122, 
  "nearly": 2123, 
  "unable": 2124, 
  "selling": 2125, 
  "cold": 2126, 
  "factor": 2127, 
  "convicted": 2128, 
  "born": 2129, 
  "names": 2130, 
  "length": 2131, 
  "governments": 2132, 
  "wrong": 2133, 
  "proceed": 2134, 
  "armed": 2135, 
  "42": 2136, 
  "ic": 2137, 
  "doubt": 2138, 
  "copyright": 2139, 
  "mpf": 2140, 
  "theory": 2141, 
  "1@@": 2142, 
  "1989": 2143, 
  "rich": 2144, 
  "reflect": 2145, 
  "marriage": 2146, 
  "homes": 2147, 
  "commits": 2148, 
  "leader": 2149, 
  "arrest": 2150, 
  "victims": 2151, 
  "struggle": 2152, 
  "shop": 2153, 
  "story": 2154, 
  "steps": 2155, 
  "shares": 2156, 
  "studying": 2157, 
  "43": 2158, 
  "fiscal": 2159, 
  "characteristics": 2160, 
  "furthermore": 2161, 
  "v@@": 2162, 
  "transactions": 2163, 
  "perform": 2164, 
  "percentage": 2165, 
  "demands": 2166, 
  "keeping": 2167, 
  "influence": 2168, 
  "physical": 2169, 
  "extend": 2170, 
  "holiday": 2171, 
  "u@@": 2172, 
  "improvements": 2173, 
  "flow": 2174, 
  "content": 2175, 
  "suggestions": 2176, 
  "temple": 2177, 
  "drawn": 2178, 
  "judgment": 2179, 
  "immigrants": 2180, 
  "gone": 2181, 
  "garden": 2182, 
  "operational": 2183, 
  "arrived": 2184, 
  "formed": 2185, 
  "rose": 2186, 
  "spending": 2187, 
  "mail": 2188, 
  "korea": 2189, 
  "certified": 2190, 
  "running": 2191, 
  "injured": 2192, 
  "wen": 2193, 
  "calls": 2194, 
  "cpi": 2195, 
  "regulatory": 2196, 
  "ch": 2197, 
  "decrease": 2198, 
  "agreements": 2199, 
  "consumption": 2200, 
  "roc": 2201, 
  "waters": 2202, 
  "lies": 2203, 
  "flat": 2204, 
  "zhang": 2205, 
  "arising": 2206, 
  "fails": 2207, 
  "registry": 2208, 
  "knows": 2209, 
  "died": 2210, 
  "refuse": 2211, 
  "weapons": 2212, 
  "qualified": 2213, 
  "spent": 2214, 
  "shortly": 2215, 
  "rapid": 2216, 
  "disposal": 2217, 
  "intellectual": 2218, 
  "heart": 2219, 
  "links": 2220, 
  "hoisted": 2221, 
  "naturally": 2222, 
  "j@@": 2223, 
  "remained": 2224, 
  "covers": 2225, 
  "licensed": 2226, 
  "driver": 2227, 
  "appoint": 2228, 
  "cited": 2229, 
  "owned": 2230, 
  "kingdom": 2231, 
  "hopes": 2232, 
  "fitted": 2233, 
  "planned": 2234, 
  "check": 2235, 
  "rongji": 2236, 
  "un": 2237, 
  "estates": 2238, 
  "1984": 2239, 
  "pilot": 2240, 
  "connected": 2241, 
  "licensee": 2242, 
  "ideological": 2243, 
  "examine": 2244, 
  "trying": 2245, 
  "goes": 2246, 
  "draw": 2247, 
  "guidance": 2248, 
  "44": 2249, 
  "signs": 2250, 
  "ch@@": 2251, 
  "agency": 2252, 
  "faced": 2253, 
  "values": 2254, 
  "outline": 2255, 
  "prime": 2256, 
  "structural": 2257, 
  "responsibilities": 2258, 
  "movement": 2259, 
  "sovereignty": 2260, 
  "reality": 2261, 
  "remove": 2262, 
  "son": 2263, 
  "prosperity": 2264, 
  "returning": 2265, 
  "supporting": 2266, 
  "ratio": 2267, 
  "train": 2268, 
  "mission": 2269, 
  "ar@@": 2270, 
  "channels": 2271, 
  "spread": 2272, 
  "yeung": 2273, 
  "russian": 2274, 
  "club": 2275, 
  "chamber": 2276, 
  "substantial": 2277, 
  "letter": 2278, 
  "reforms": 2279, 
  "weeks": 2280, 
  "broad": 2281, 
  "agent": 2282, 
  "visiting": 2283, 
  "bringing": 2284, 
  "decide": 2285, 
  "siu": 2286, 
  "applicable": 2287, 
  "bridge": 2288, 
  "h": 2289, 
  "meat": 2290, 
  "ownership": 2291, 
  "theme": 2292, 
  "initiative": 2293, 
  "teng": 2294, 
  "rental": 2295, 
  "release": 2296, 
  "wages": 2297, 
  "guarantee": 2298, 
  "challenge": 2299, 
  "summer": 2300, 
  "immediate": 2301, 
  "discrimination": 2302, 
  "bear": 2303, 
  "religious": 2304, 
  "10@@": 2305, 
  "described": 2306, 
  "organized": 2307, 
  "imported": 2308, 
  "acts": 2309, 
  "bad": 2310, 
  "1987": 2311, 
  "incidents": 2312, 
  "55": 2313, 
  "permission": 2314, 
  "seizure": 2315, 
  "cards": 2316, 
  "decisions": 2317, 
  "wage": 2318, 
  "expect": 2319, 
  "win": 2320, 
  "posts": 2321, 
  "sing": 2322, 
  "disciplinary": 2323, 
  "gdp": 2324, 
  "advantage": 2325, 
  "quickly": 2326, 
  "corresponding": 2327, 
  "ordinary": 2328, 
  "installation": 2329, 
  "l": 2330, 
  "factory": 2331, 
  "seminar": 2332, 
  "chin": 2333, 
  "practicable": 2334, 
  "retirement": 2335, 
  "deposits": 2336, 
  "everything": 2337, 
  "america": 2338, 
  "confirmed": 2339, 
  "variety": 2340, 
  "expand": 2341, 
  "fighting": 2342, 
  "stamps": 2343, 
  "playing": 2344, 
  "fare": 2345, 
  "profit": 2346, 
  "race": 2347, 
  "ti@@": 2348, 
  "usually": 2349, 
  "beyond": 2350, 
  "shenzhen": 2351, 
  "gives": 2352, 
  "90": 2353, 
  "household": 2354, 
  "continuous": 2355, 
  "drainage": 2356, 
  "containing": 2357, 
  "comparison": 2358, 
  "animals": 2359, 
  "admitted": 2360, 
  "conclusion": 2361, 
  "lu": 2362, 
  "exemption": 2363, 
  "operated": 2364, 
  "objectives": 2365, 
  "constituency": 2366, 
  "lung": 2367, 
  "1.@@": 2368, 
  "st@@": 2369, 
  "hongkong": 2370, 
  "economies": 2371, 
  "becoming": 2372, 
  "aimed": 2373, 
  "voting": 2374, 
  "hotel": 2375, 
  "41": 2376, 
  "sewage": 2377, 
  "hang": 2378, 
  "sets": 2379, 
  "subsequently": 2380, 
  "ready": 2381, 
  "21st": 2382, 
  "lines": 2383, 
  "buy": 2384, 
  "character": 2385, 
  "concrete": 2386, 
  "solicitor": 2387, 
  "nuclear": 2388, 
  "heads": 2389, 
  "receiving": 2390, 
  "headquarters": 2391, 
  "australia": 2392, 
  "cash": 2393, 
  "invest": 2394, 
  "encouraging": 2395, 
  "organisation": 2396, 
  "provincial": 2397, 
  "smes": 2398, 
  "restrictions": 2399, 
  "specify": 2400, 
  "profession": 2401, 
  "ruling": 2402, 
  "contractor": 2403, 
  "multi": 2404, 
  "futures": 2405, 
  "49": 2406, 
  "andrew": 2407, 
  "enterprise": 2408, 
  "category": 2409, 
  "dprk": 2410, 
  "tea": 2411, 
  "a.": 2412, 
  "saw": 2413, 
  "directions": 2414, 
  "significance": 2415, 
  "secretariat": 2416, 
  "gain": 2417, 
  "tibet": 2418, 
  "gold": 2419, 
  "tasks": 2420, 
  "z@@": 2421, 
  "ates": 2422, 
  "believes": 2423, 
  "reserve": 2424, 
  "arranged": 2425, 
  "ted": 2426, 
  "restaurant": 2427, 
  "bound": 2428, 
  "contain": 2429, 
  "fishing": 2430, 
  "resident": 2431, 
  "treasury": 2432, 
  "location": 2433, 
  "integrity": 2434, 
  "package": 2435, 
  "bearing": 2436, 
  "david": 2437, 
  "rail": 2438, 
  "communications": 2439, 
  "holders": 2440, 
  "ones": 2441, 
  "missing": 2442, 
  "jurisdiction": 2443, 
  "model": 2444, 
  "individuals": 2445, 
  "difference": 2446, 
  "restricted": 2447, 
  "tourist": 2448, 
  "abuse": 2449, 
  "attract": 2450, 
  "(g)": 2451, 
  "practitioners": 2452, 
  "species": 2453, 
  "newly": 2454, 
  "parks": 2455, 
  "declared": 2456, 
  "blood": 2457, 
  "lok": 2458, 
  "performing": 2459, 
  "labor": 2460, 
  "double": 2461, 
  "treated": 2462, 
  "send": 2463, 
  "politics": 2464, 
  "ca": 2465, 
  "tien": 2466, 
  "function": 2467, 
  "hrs": 2468, 
  "requested": 2469, 
  "che": 2470, 
  "sell": 2471, 
  "occupational": 2472, 
  "complex": 2473, 
  "ancient": 2474, 
  "background": 2475, 
  "software": 2476, 
  "firms": 2477, 
  "hoped": 2478, 
  "advise": 2479, 
  "reclamation": 2480, 
  "noise": 2481, 
  "suggested": 2482, 
  "adjusted": 2483, 
  "1986": 2484, 
  "x": 2485, 
  "sham": 2486, 
  "easily": 2487, 
  "transportation": 2488, 
  "showing": 2489, 
  "pro": 2490, 
  "sheung": 2491, 
  "regarded": 2492, 
  "etc.": 2493, 
  "u": 2494, 
  "allocated": 2495, 
  "65": 2496, 
  "es@@": 2497, 
  "shing": 2498, 
  "resolve": 2499, 
  "begin": 2500, 
  "joined": 2501, 
  "teams": 2502, 
  "felt": 2503, 
  "undertaking": 2504, 
  "stress": 2505, 
  "image": 2506, 
  "400": 2507, 
  "neither": 2508, 
  "definitely": 2509, 
  "communist": 2510, 
  "accommodation": 2511, 
  "75": 2512, 
  "46": 2513, 
  "tech": 2514, 
  "respond": 2515, 
  "earth": 2516, 
  "turning": 2517, 
  "mandatory": 2518, 
  "plane": 2519, 
  "er@@": 2520, 
  "broadcast": 2521, 
  "enacted": 2522, 
  "unique": 2523, 
  "valid": 2524, 
  "informed": 2525, 
  "fisheries": 2526, 
  "wanted": 2527, 
  "door": 2528, 
  "13@@": 2529, 
  "diseases": 2530, 
  "appears": 2531, 
  "1985": 2532, 
  "negative": 2533, 
  "played": 2534, 
  "photos": 2535, 
  "exceed": 2536, 
  "injuries": 2537, 
  "message": 2538, 
  "dynasty": 2539, 
  "useful": 2540, 
  "complaint": 2541, 
  "awards": 2542, 
  "millennium": 2543, 
  "accounting": 2544, 
  "discipline": 2545, 
  "trees": 2546, 
  "performed": 2547, 
  "removed": 2548, 
  "59": 2549, 
  "functional": 2550, 
  "deposit": 2551, 
  "contrary": 2552, 
  "reserves": 2553, 
  "choose": 2554, 
  "it@@": 2555, 
  "word": 2556, 
  "membership": 2557, 
  "text": 2558, 
  "san": 2559, 
  "core": 2560, 
  "unions": 2561, 
  "pursuant": 2562, 
  "india": 2563, 
  "depth": 2564, 
  "animal": 2565, 
  "negotiations": 2566, 
  "web": 2567, 
  "chun": 2568, 
  "consultancy": 2569, 
  "save": 2570, 
  "removal": 2571, 
  "feasibility": 2572, 
  "apec": 2573, 
  "firmly": 2574, 
  "increasingly": 2575, 
  "liberal": 2576, 
  "features": 2577, 
  "zoning": 2578, 
  "oppose": 2579, 
  "represent": 2580, 
  "lane": 2581, 
  "livelihood": 2582, 
  "modernization": 2583, 
  "collected": 2584, 
  "burden": 2585, 
  "agenda": 2586, 
  "discovered": 2587, 
  "putting": 2588, 
  "smooth": 2589, 
  "safeguard": 2590, 
  "routes": 2591, 
  "households": 2592, 
  "receipts": 2593, 
  "unemployed": 2594, 
  "trafficking": 2595, 
  "basically": 2596, 
  "52": 2597, 
  "businessmen": 2598, 
  "voluntary": 2599, 
  "via": 2600, 
  "protected": 2601, 
  "helping": 2602, 
  "someone": 2603, 
  "candidate": 2604, 
  "attending": 2605, 
  "anniversary": 2606, 
  "inquiry": 2607, 
  "feeling": 2608, 
  "testing": 2609, 
  "leaving": 2610, 
  "ai": 2611, 
  "directed": 2612, 
  "canada": 2613, 
  "hua": 2614, 
  "rice": 2615, 
  "holds": 2616, 
  "contents": 2617, 
  "encouraged": 2618, 
  "sex": 2619, 
  "constantly": 2620, 
  "summit": 2621, 
  "spend": 2622, 
  "mountain": 2623, 
  "york": 2624, 
  "grow": 2625, 
  "w": 2626, 
  "quantity": 2627, 
  "associated": 2628, 
  "greatest": 2629, 
  "transit": 2630, 
  "dh": 2631, 
  "settlement": 2632, 
  "ding": 2633, 
  "sometimes": 2634, 
  "electricity": 2635, 
  "relates": 2636, 
  "elements": 2637, 
  "identified": 2638, 
  "strongly": 2639, 
  "investments": 2640, 
  "productivity": 2641, 
  "ro@@": 2642, 
  "sought": 2643, 
  "financing": 2644, 
  "reducing": 2645, 
  "pleased": 2646, 
  "ex": 2647, 
  "weight": 2648, 
  "si@@": 2649, 
  "hk@@": 2650, 
  "selection": 2651, 
  "namely": 2652, 
  "proceeding": 2653, 
  "sh@@": 2654, 
  "vision": 2655, 
  "pace": 2656, 
  "disabled": 2657, 
  "conservation": 2658, 
  "queen": 2659, 
  "publications": 2660, 
  "54": 2661, 
  "favour": 2662, 
  "sars": 2663, 
  "tau": 2664, 
  "chiang": 2665, 
  "patent": 2666, 
  "closure": 2667, 
  "eyes": 2668, 
  "entertainment": 2669, 
  "repair": 2670, 
  "deceased": 2671, 
  "lantau": 2672, 
  "count": 2673, 
  "vacancies": 2674, 
  "opera": 2675, 
  "probably": 2676, 
  "strive": 2677, 
  "incorporated": 2678, 
  "wave": 2679, 
  "absolutely": 2680, 
  "creating": 2681, 
  "boards": 2682, 
  "totally": 2683, 
  "contacts": 2684, 
  "liaison": 2685, 
  "participating": 2686, 
  "differences": 2687, 
  "tak": 2688, 
  "reasonably": 2689, 
  "accession": 2690, 
  "allowance": 2691, 
  "boat": 2692, 
  "organs": 2693, 
  "recognition": 2694, 
  "recognized": 2695, 
  "18@@": 2696, 
  "concluded": 2697, 
  "visa": 2698, 
  "attempt": 2699, 
  "restaurants": 2700, 
  "solution": 2701, 
  "valuable": 2702, 
  "constructed": 2703, 
  "fifth": 2704, 
  "seats": 2705, 
  "offenders": 2706, 
  "expansion": 2707, 
  "n": 2708, 
  "eventually": 2709, 
  "nomination": 2710, 
  "'ve": 2711, 
  "equivalent": 2712, 
  "(iv)": 2713, 
  "(s)": 2714, 
  "strictly": 2715, 
  "london": 2716, 
  "zoned": 2717, 
  "tried": 2718, 
  "sentenced": 2719, 
  "installed": 2720, 
  "border": 2721, 
  "displayed": 2722, 
  "47": 2723, 
  "53": 2724, 
  "ended": 2725, 
  "as@@": 2726, 
  "guide": 2727, 
  "corporations": 2728, 
  "ordered": 2729, 
  "poultry": 2730, 
  "digital": 2731, 
  "el": 2732, 
  "sources": 2733, 
  "motorists": 2734, 
  "agents": 2735, 
  "fast": 2736, 
  "constitution": 2737, 
  "locations": 2738, 
  "definition": 2739, 
  "houses": 2740, 
  "excellent": 2741, 
  "resource": 2742, 
  "subsidiary": 2743, 
  "learned": 2744, 
  "virtue": 2745, 
  "description": 2746, 
  "establishing": 2747, 
  "britain": 2748, 
  "associations": 2749, 
  "subsequent": 2750, 
  "latter": 2751, 
  "brief": 2752, 
  "answered": 2753, 
  "yin": 2754, 
  "polling": 2755, 
  "realize": 2756, 
  "trip": 2757, 
  "truth": 2758, 
  "im@@": 2759, 
  "tide": 2760, 
  "summary": 2761, 
  "causes": 2762, 
  "sitting": 2763, 
  "ac@@": 2764, 
  "wishes": 2765, 
  "(h)": 2766, 
  "junction": 2767, 
  "briefed": 2768, 
  "wait": 2769, 
  "clerk": 2770, 
  "tons": 2771, 
  "beautiful": 2772, 
  "preliminary": 2773, 
  "crew": 2774, 
  "alternative": 2775, 
  "watch": 2776, 
  "factories": 2777, 
  "islands": 2778, 
  "opposition": 2779, 
  "identify": 2780, 
  "path": 2781, 
  "51": 2782, 
  "chapter": 2783, 
  "di@@": 2784, 
  "female": 2785, 
  "examples": 2786, 
  "travelling": 2787, 
  "guests": 2788, 
  "ourselves": 2789, 
  "previously": 2790, 
  "consult": 2791, 
  "rescue": 2792, 
  "remind": 2793, 
  "minor": 2794, 
  "dab": 2795, 
  "experiences": 2796, 
  "at@@": 2797, 
  "56": 2798, 
  "asking": 2799, 
  "entirely": 2800, 
  "comprising": 2801, 
  "entering": 2802, 
  "permits": 2803, 
  "piece": 2804, 
  "risks": 2805, 
  "outlets": 2806, 
  "covering": 2807, 
  "truly": 2808, 
  "famous": 2809, 
  "proved": 2810, 
  "62": 2811, 
  "ordinances": 2812, 
  "manufacturers": 2813, 
  "handled": 2814, 
  "killed": 2815, 
  "obviously": 2816, 
  "mm": 2817, 
  "retraining": 2818, 
  "aviation": 2819, 
  "ations": 2820, 
  "universities": 2821, 
  "smuggling": 2822, 
  "prc": 2823, 
  "male": 2824, 
  "hear": 2825, 
  "letters": 2826, 
  "continues": 2827, 
  "marks": 2828, 
  "hill": 2829, 
  "wants": 2830, 
  "prohibited": 2831, 
  "thanks": 2832, 
  "accordingly": 2833, 
  "regularly": 2834, 
  "objection": 2835, 
  "drawing": 2836, 
  "accompanied": 2837, 
  "launching": 2838, 
  "66": 2839, 
  "targets": 2840, 
  "recommended": 2841, 
  "thereby": 2842, 
  "resume": 2843, 
  "customer": 2844, 
  "liability": 2845, 
  "gambling": 2846, 
  "tseung": 2847, 
  "trades": 2848, 
  "signal": 2849, 
  "surplus": 2850, 
  "korean": 2851, 
  "resumption": 2852, 
  "possibility": 2853, 
  "object": 2854, 
  "ic@@": 2855, 
  "secondly": 2856, 
  "onto": 2857, 
  "considerable": 2858, 
  "crossing": 2859, 
  "adaptation": 2860, 
  "advantages": 2861, 
  "instructions": 2862, 
  "numerous": 2863, 
  "categories": 2864, 
  "@": 2865, 
  "inflation": 2866, 
  "swimming": 2867, 
  "shops": 2868, 
  "turmoil": 2869, 
  "satisfactory": 2870, 
  "ce": 2871, 
  "0.@@": 2872, 
  "contains": 2873, 
  "de": 2874, 
  "feature": 2875, 
  "/@@": 2876, 
  "mtr": 2877, 
  "robbery": 2878, 
  "bian": 2879, 
  "tel": 2880, 
  "roadside": 2881, 
  "ethnic": 2882, 
  "break": 2883, 
  "sustained": 2884, 
  "tree": 2885, 
  "channel": 2886, 
  "al": 2887, 
  "federation": 2888, 
  "lpg": 2889, 
  "highway": 2890, 
  "protecting": 2891, 
  "choi": 2892, 
  "redevelopment": 2893, 
  "command": 2894, 
  "scholars": 2895, 
  "gazetted": 2896, 
  "stands": 2897, 
  "tackle": 2898, 
  "clinton": 2899, 
  "perspective": 2900, 
  "experienced": 2901, 
  "hot": 2902, 
  "welcomed": 2903, 
  "introducing": 2904, 
  "establishments": 2905, 
  "severe": 2906, 
  "passing": 2907, 
  "operator": 2908, 
  "ta": 2909, 
  "exist": 2910, 
  "intelligence": 2911, 
  "aspect": 2912, 
  "s.": 2913, 
  "pool": 2914, 
  "58": 2915, 
  "impossible": 2916, 
  "resulting": 2917, 
  "danger": 2918, 
  "characters": 2919, 
  "76": 2920, 
  "claimed": 2921, 
  "confident": 2922, 
  "limits": 2923, 
  "recipients": 2924, 
  "aside": 2925, 
  "sheng": 2926, 
  "leong": 2927, 
  "rely": 2928, 
  "requiring": 2929, 
  "version": 2930, 
  "5%": 2931, 
  "height": 2932, 
  "adding": 2933, 
  "on@@": 2934, 
  "wo": 2935, 
  "distributed": 2936, 
  "extra": 2937, 
  "seeks": 2938, 
  "plants": 2939, 
  "partner": 2940, 
  "mental": 2941, 
  "examined": 2942, 
  "strike": 2943, 
  "supports": 2944, 
  "refer": 2945, 
  "co@@": 2946, 
  "box": 2947, 
  "preparation": 2948, 
  "dialogue": 2949, 
  "1982": 2950, 
  "becomes": 2951, 
  "attack": 2952, 
  "absence": 2953, 
  "en": 2954, 
  "block": 2955, 
  "video": 2956, 
  "reporter": 2957, 
  "am@@": 2958, 
  "curriculum": 2959, 
  "pieces": 2960, 
  "prospects": 2961, 
  "tei": 2962, 
  "legco": 2963, 
  "game": 2964, 
  "kin": 2965, 
  "linked": 2966, 
  "partners": 2967, 
  "films": 2968, 
  "audience": 2969, 
  "secure": 2970, 
  "enquiry": 2971, 
  "dropped": 2972, 
  "'re": 2973, 
  "holder": 2974, 
  "managed": 2975, 
  "tourists": 2976, 
  "spring": 2977, 
  "ensuring": 2978, 
  "causing": 2979, 
  "magistrate": 2980, 
  "offering": 2981, 
  "papers": 2982, 
  "warm": 2983, 
  "detail": 2984, 
  "vast": 2985, 
  "selina": 2986, 
  "strengthened": 2987, 
  "deck": 2988, 
  "managing": 2989, 
  "user": 2990, 
  "observe": 2991, 
  "capability": 2992, 
  "grants": 2993, 
  "represented": 2994, 
  "68": 2995, 
  "tsai": 2996, 
  "passport": 2997, 
  "properties": 2998, 
  "recreation": 2999, 
  "magistracy": 3000, 
  "triad": 3001, 
  "issuing": 3002, 
  "instrument": 3003, 
  "counterfeit": 3004, 
  "talking": 3005, 
  "assembly": 3006, 
  "estimates": 3007, 
  "newspaper": 3008, 
  "critical": 3009, 
  "c.": 3010, 
  "rapidly": 3011, 
  "bid": 3012, 
  "lay": 3013, 
  "vietnamese": 3014, 
  "reception": 3015, 
  "sustainable": 3016, 
  "q@@": 3017, 
  "drop": 3018, 
  "ab@@": 3019, 
  "therein": 3020, 
  "tour": 3021, 
  "repeatedly": 3022, 
  "helped": 3023, 
  "cast": 3024, 
  "formal": 3025, 
  "chiu": 3026, 
  "subsector": 3027, 
  "whenever": 3028, 
  "performances": 3029, 
  "61": 3030, 
  "paying": 3031, 
  "inter": 3032, 
  "pending": 3033, 
  "x@@": 3034, 
  "feelings": 3035, 
  "discharged": 3036, 
  "germany": 3037, 
  "qualifications": 3038, 
  "prepare": 3039, 
  "assessed": 3040, 
  "necessarily": 3041, 
  "31,": 3042, 
  "minute": 3043, 
  "150": 3044, 
  "proportion": 3045, 
  "passage": 3046, 
  "painting": 3047, 
  "surface": 3048, 
  "governing": 3049, 
  "judiciary": 3050, 
  "occasions": 3051, 
  "lunar": 3052, 
  "birds": 3053, 
  "restructuring": 3054, 
  "acceptable": 3055, 
  "emphasis": 3056, 
  "rehabilitation": 3057, 
  "notwithstanding": 3058, 
  "transparency": 3059, 
  "careful": 3060, 
  "song": 3061, 
  "cars": 3062, 
  "personally": 3063, 
  "superintendent": 3064, 
  "explore": 3065, 
  "reviewed": 3066, 
  "undertaken": 3067, 
  "reiterated": 3068, 
  "collect": 3069, 
  "comrade": 3070, 
  "deeply": 3071, 
  "clothing": 3072, 
  "upgrading": 3073, 
  "boy": 3074, 
  "thoroughly": 3075, 
  "farmers": 3076, 
  "continuously": 3077, 
  "troops": 3078, 
  "printed": 3079, 
  "divided": 3080, 
  "causeway": 3081, 
  "slightly": 3082, 
  "solid": 3083, 
  "containers": 3084, 
  "per@@": 3085, 
  "revolution": 3086, 
  "larger": 3087, 
  "apparatus": 3088, 
  "presentation": 3089, 
  "cope": 3090, 
  "disputes": 3091, 
  "terminal": 3092, 
  "be@@": 3093, 
  "waves": 3094, 
  "audit": 3095, 
  "subjects": 3096, 
  "expert": 3097, 
  "alliance": 3098, 
  "options": 3099, 
  "worried": 3100, 
  "ma@@": 3101, 
  "expression": 3102, 
  "sp@@": 3103, 
  "sentence": 3104, 
  "girl": 3105, 
  "ta@@": 3106, 
  "atmosphere": 3107, 
  "pirated": 3108, 
  "albert": 3109, 
  "replace": 3110, 
  "inspections": 3111, 
  "pre@@": 3112, 
  "amounts": 3113, 
  "title": 3114, 
  "+@@": 3115, 
  "losses": 3116, 
  "1981": 3117, 
  "macao": 3118, 
  "threat": 3119, 
  "30,": 3120, 
  "rising": 3121, 
  "consistent": 3122, 
  "tam": 3123, 
  "defined": 3124, 
  "closer": 3125, 
  "contribute": 3126, 
  "periods": 3127, 
  "occupation": 3128, 
  "offers": 3129, 
  "michael": 3130, 
  "normally": 3131, 
  "victoria": 3132, 
  "proposes": 3133, 
  "select": 3134, 
  "involve": 3135, 
  "lcsd": 3136, 
  "origin": 3137, 
  "mode": 3138, 
  "manage": 3139, 
  "hit": 3140, 
  "invitation": 3141, 
  "hundred": 3142, 
  "named": 3143, 
  "tremendous": 3144, 
  "bit": 3145, 
  "applying": 3146, 
  "proof": 3147, 
  "endorsed": 3148, 
  "formulate": 3149, 
  "widely": 3150, 
  "departure": 3151, 
  "urgent": 3152, 
  "significantly": 3153, 
  "fail": 3154, 
  "lose": 3155, 
  "winning": 3156, 
  "deficit": 3157, 
  "peoples": 3158, 
  "surveys": 3159, 
  "rooms": 3160, 
  "star": 3161, 
  "nmd": 3162, 
  "substance": 3163, 
  "interview": 3164, 
  "doctors": 3165, 
  "pension": 3166, 
  "v": 3167, 
  "57": 3168, 
  "strict": 3169, 
  "excuse": 3170, 
  "host": 3171, 
  "yes": 3172, 
  "10,000": 3173, 
  "pedestrian": 3174, 
  "indicate": 3175, 
  "64": 3176, 
  "ocean": 3177, 
  "voters": 3178, 
  "72": 3179, 
  "older": 3180, 
  "surveillance": 3181, 
  "academy": 3182, 
  "600": 3183, 
  "northern": 3184, 
  "listen": 3185, 
  "reporters": 3186, 
  "clearance": 3187, 
  "dr.": 3188, 
  "meters": 3189, 
  "dealt": 3190, 
  "picture": 3191, 
  "appeals": 3192, 
  "worker": 3193, 
  "taxis": 3194, 
  "valley": 3195, 
  "occasion": 3196, 
  "counter": 3197, 
  "owing": 3198, 
  "declare": 3199, 
  "tradition": 3200, 
  "hing": 3201, 
  "computers": 3202, 
  "wind": 3203, 
  "map": 3204, 
  "ordination": 3205, 
  "or@@": 3206, 
  "studied": 3207, 
  "technologies": 3208, 
  "qian": 3209, 
  "observed": 3210, 
  "1,000": 3211, 
  "fan": 3212, 
  "clinics": 3213, 
  "salaries": 3214, 
  "breach": 3215, 
  "promoted": 3216, 
  "briefing": 3217, 
  "murder": 3218, 
  "husband": 3219, 
  "merely": 3220, 
  "ad@@": 3221, 
  "1983": 3222, 
  "eye": 3223, 
  "didn": 3224, 
  "examinations": 3225, 
  "streets": 3226, 
  "requests": 3227, 
  "flexibility": 3228, 
  "mountains": 3229, 
  "fined": 3230, 
  "option": 3231, 
  "positions": 3232, 
  "involves": 3233, 
  "flight": 3234, 
  "birth": 3235, 
  "pleasure": 3236, 
  "conferred": 3237, 
  "finding": 3238, 
  "integrated": 3239, 
  "slopes": 3240, 
  "salary": 3241, 
  "contravention": 3242, 
  "biggest": 3243, 
  "page": 3244, 
  "67": 3245, 
  "talents": 3246, 
  "beneficial": 3247, 
  "civic": 3248, 
  "frequently": 3249, 
  "tonnes": 3250, 
  "receipt": 3251, 
  "temporarily": 3252, 
  "parent": 3253, 
  "circles": 3254, 
  "ings": 3255, 
  "detention": 3256, 
  "arrival": 3257, 
  "victim": 3258, 
  "funded": 3259, 
  "notices": 3260, 
  "regime": 3261, 
  "commodities": 3262, 
  "structures": 3263, 
  "mechanical": 3264, 
  "incurred": 3265, 
  "con@@": 3266, 
  "leg": 3267, 
  "ap@@": 3268, 
  "presence": 3269, 
  "forth": 3270, 
  "chemical": 3271, 
  "tertiary": 3272, 
  "prison": 3273, 
  "collective": 3274, 
  "shopping": 3275, 
  "situations": 3276, 
  "golden": 3277, 
  "dedicated": 3278, 
  "ri@@": 3279, 
  "ad": 3280, 
  "reporting": 3281, 
  "treaty": 3282, 
  "liabilities": 3283, 
  "is@@": 3284, 
  "mounted": 3285, 
  "appointments": 3286, 
  "blue": 3287, 
  "track": 3288, 
  "salt": 3289, 
  "stood": 3290, 
  "hom": 3291, 
  "steering": 3292, 
  "tank": 3293, 
  "supplied": 3294, 
  "sessions": 3295, 
  "summons": 3296, 
  "socialism": 3297, 
  "spoke": 3298, 
  "inter@@": 3299, 
  "obligations": 3300, 
  "vocational": 3301, 
  "assess": 3302, 
  "satisfaction": 3303, 
  "distance": 3304, 
  "reflected": 3305, 
  "bar": 3306, 
  "hsu": 3307, 
  "23@@": 3308, 
  "li@@": 3309, 
  "career": 3310, 
  "whatever": 3311, 
  "pursue": 3312, 
  "john": 3313, 
  "emphasized": 3314, 
  "wall": 3315, 
  "contravenes": 3316, 
  "ine": 3317, 
  "kuo": 3318, 
  "piracy": 3319, 
  "provident": 3320, 
  "cooperative": 3321, 
  "load": 3322, 
  "transition": 3323, 
  "trustee": 3324, 
  "commence": 3325, 
  "te@@": 3326, 
  "delay": 3327, 
  "quarterly": 3328, 
  "800": 3329, 
  "ly": 3330, 
  "decade": 3331, 
  "comparing": 3332, 
  "enormous": 3333, 
  "plus": 3334, 
  "complicated": 3335, 
  "busy": 3336, 
  "stance": 3337, 
  "virus": 3338, 
  "fares": 3339, 
  "narcotics": 3340, 
  "france": 3341, 
  "se@@": 3342, 
  "compatriots": 3343, 
  "2.@@": 3344, 
  "attorney": 3345, 
  "phone": 3346, 
  "el@@": 3347, 
  "heritage": 3348, 
  "upper": 3349, 
  "seem": 3350, 
  "spiritual": 3351, 
  "speeches": 3352, 
  "su@@": 3353, 
  "peasants": 3354, 
  "degrees": 3355, 
  "yen": 3356, 
  "deliver": 3357, 
  "witness": 3358, 
  "globalization": 3359, 
  "50,000": 3360, 
  "aids": 3361, 
  "warrant": 3362, 
  "africa": 3363, 
  "27@@": 3364, 
  "raw": 3365, 
  "reaching": 3366, 
  "begun": 3367, 
  "literature": 3368, 
  "63": 3369, 
  "assigned": 3370, 
  "dollars": 3371, 
  "enactment": 3372, 
  "seminars": 3373, 
  "remember": 3374, 
  "refused": 3375, 
  "fun": 3376, 
  "savings": 3377, 
  "wealth": 3378, 
  "clearing": 3379, 
  "innovative": 3380, 
  "supplies": 3381, 
  "98": 3382, 
  "geographical": 3383, 
  "objects": 3384, 
  "artists": 3385, 
  "77": 3386, 
  "quarters": 3387, 
  "suffered": 3388, 
  "witnessed": 3389, 
  "store": 3390, 
  "resolved": 3391, 
  "0.1": 3392, 
  "eat": 3393, 
  "preparatory": 3394, 
  "petition": 3395, 
  "residence": 3396, 
  "=": 3397, 
  "achieving": 3398, 
  "decades": 3399, 
  "electric": 3400, 
  "cl@@": 3401, 
  "specifically": 3402, 
  "transferred": 3403, 
  "determining": 3404, 
  "formation": 3405, 
  "fat": 3406, 
  "engage": 3407, 
  "unfair": 3408, 
  "tanks": 3409, 
  "highways": 3410, 
  "chih": 3411, 
  "10%": 3412, 
  "satellite": 3413, 
  "ec@@": 3414, 
  "consultants": 3415, 
  "donald": 3416, 
  "ko": 3417, 
  "separately": 3418, 
  "exhibitions": 3419, 
  "else": 3420, 
  "forced": 3421, 
  "cubic": 3422, 
  "flying": 3423, 
  "electors": 3424, 
  "lan": 3425, 
  "recommendation": 3426, 
  "fatal": 3427, 
  "autonomy": 3428, 
  "joining": 3429, 
  "whereas": 3430, 
  "newspapers": 3431, 
  "lift": 3432, 
  "ice": 3433, 
  "bed": 3434, 
  "uphold": 3435, 
  "flower": 3436, 
  "ninth": 3437, 
  "illicit": 3438, 
  "74": 3439, 
  "feng": 3440, 
  "mtrc": 3441, 
  "stalls": 3442, 
  "repeat": 3443, 
  "lei": 3444, 
  "languages": 3445, 
  "dragon": 3446, 
  "undertake": 3447, 
  "allowing": 3448, 
  "creative": 3449, 
  "73": 3450, 
  "signing": 3451, 
  "surrender": 3452, 
  "sfc": 3453, 
  "importation": 3454, 
  "fehd": 3455, 
  "topic": 3456, 
  "doesn": 3457, 
  "wonder": 3458, 
  "voice": 3459, 
  "write": 3460, 
  "graduates": 3461, 
  "toll": 3462, 
  "temperature": 3463, 
  "appeared": 3464, 
  "le@@": 3465, 
  "amounted": 3466, 
  "gap": 3467, 
  "stone": 3468, 
  "prejudice": 3469, 
  "closing": 3470, 
  "intend": 3471, 
  "impose": 3472, 
  "ded": 3473, 
  "afraid": 3474, 
  "th@@": 3475, 
  "discs": 3476, 
  "pui": 3477, 
  "controlled": 3478, 
  "constituencies": 3479, 
  "2%": 3480, 
  "beauty": 3481, 
  "bureaux": 3482, 
  "platform": 3483, 
  "genuine": 3484, 
  "ist": 3485, 
  "grew": 3486, 
  "custody": 3487, 
  "margaret": 3488, 
  "attracted": 3489, 
  "difficulty": 3490, 
  "hair": 3491, 
  "announcement": 3492, 
  "suspend": 3493, 
  "wearing": 3494, 
  "suspect": 3495, 
  "accountability": 3496, 
  "seat": 3497, 
  "affecting": 3498, 
  "mis@@": 3499, 
  "cc": 3500, 
  "yam": 3501, 
  "judges": 3502, 
  "output": 3503, 
  "conflict": 3504, 
  "references": 3505, 
  "cult": 3506, 
  "worry": 3507, 
  "receiver": 3508, 
  "grain": 3509, 
  "stages": 3510, 
  "bl@@": 3511, 
  "vigorously": 3512, 
  "yee": 3513, 
  "fever": 3514, 
  "expanding": 3515, 
  "crown": 3516, 
  "elsewhere": 3517, 
  "homepage": 3518, 
  "recovered": 3519, 
  "taxation": 3520, 
  "lo@@": 3521, 
  "ozp": 3522, 
  "hi": 3523, 
  "mosquito": 3524, 
  "restriction": 3525, 
  "99": 3526, 
  "roots": 3527, 
  "publishing": 3528, 
  "guard": 3529, 
  "venues": 3530, 
  "surely": 3531, 
  "lending": 3532, 
  "1980": 3533, 
  "macau": 3534, 
  "vicinity": 3535, 
  "conducive": 3536, 
  "existence": 3537, 
  "ous": 3538, 
  "civilization": 3539, 
  "commissioned": 3540, 
  "exactly": 3541, 
  "ministers": 3542, 
  "myself": 3543, 
  "dispute": 3544, 
  "kaohsiung": 3545, 
  "taxes": 3546, 
  "smoking": 3547, 
  "doors": 3548, 
  "ds": 3549, 
  "statistical": 3550, 
  "he@@": 3551, 
  "folk": 3552, 
  "appreciate": 3553, 
  "facility": 3554, 
  "71": 3555, 
  "op@@": 3556, 
  "expectations": 3557, 
  "decreases": 3558, 
  "season": 3559, 
  "slope": 3560, 
  "calling": 3561, 
  "strategies": 3562, 
  "franchised": 3563, 
  "happened": 3564, 
  "commodity": 3565, 
  "southeast": 3566, 
  "powerful": 3567, 
  "discussing": 3568, 
  "classified": 3569, 
  "cable": 3570, 
  "inspector": 3571, 
  "smoke": 3572, 
  "'m": 3573, 
  "car@@": 3574, 
  "departmental": 3575, 
  "prove": 3576, 
  "southbound": 3577, 
  "rank": 3578, 
  "colonial": 3579, 
  "undertakings": 3580, 
  "concert": 3581, 
  "rain": 3582, 
  "dates": 3583, 
  "24@@": 3584, 
  "exercises": 3585, 
  "le": 3586, 
  "entrance": 3587, 
  "zealand": 3588, 
  "flexible": 3589, 
  "ps": 3590, 
  "1%": 3591, 
  "ag@@": 3592, 
  "thousands": 3593, 
  "ending": 3594, 
  "shared": 3595, 
  "pw": 3596, 
  "tat": 3597, 
  "liquor": 3598, 
  "ec": 3599, 
  "shih": 3600, 
  "spot": 3601, 
  "88": 3602, 
  "orchestra": 3603, 
  "flowers": 3604, 
  "eu": 3605, 
  "consulted": 3606, 
  "epd": 3607, 
  "85": 3608, 
  "handed": 3609, 
  "topics": 3610, 
  "tu@@": 3611, 
  "typhoon": 3612, 
  "frequent": 3613, 
  "indices": 3614, 
  "ia": 3615, 
  "ideal": 3616, 
  "lease": 3617, 
  "optical": 3618, 
  "penalties": 3619, 
  "filled": 3620, 
  "seeing": 3621, 
  "yue": 3622, 
  "trained": 3623, 
  "reflects": 3624, 
  "ss": 3625, 
  "fireworks": 3626, 
  "cheuk": 3627, 
  "wild": 3628, 
  "ang": 3629, 
  "failing": 3630, 
  "hu@@": 3631, 
  "grand": 3632, 
  "belief": 3633, 
  "commenced": 3634, 
  "clarify": 3635, 
  "deployed": 3636, 
  "25@@": 3637, 
  "expertise": 3638, 
  "89": 3639, 
  "smoothly": 3640, 
  "outcome": 3641, 
  "mention": 3642, 
  "uk": 3643, 
  "reviewing": 3644, 
  "appreciation": 3645, 
  "ambassador": 3646, 
  "thorough": 3647, 
  "venue": 3648, 
  "10th": 3649, 
  "overcome": 3650, 
  "explanation": 3651, 
  "church": 3652, 
  "upgrade": 3653, 
  "suffer": 3654, 
  "adjustments": 3655, 
  "equipped": 3656, 
  "em@@": 3657, 
  "weak": 3658, 
  "merchandise": 3659, 
  "abode": 3660, 
  "emily": 3661, 
  "tan": 3662, 
  "safeguarding": 3663, 
  "intensive": 3664, 
  "eia": 3665, 
  "suggest": 3666, 
  "1977": 3667, 
  "declined": 3668, 
  "r.": 3669, 
  "tested": 3670, 
  "libraries": 3671, 
  "c)": 3672, 
  "choy": 3673, 
  "79": 3674, 
  "detection": 3675, 
  "gained": 3676, 
  "defence": 3677, 
  "28@@": 3678, 
  "sit": 3679, 
  "unlawful": 3680, 
  "crucial": 3681, 
  "nominated": 3682, 
  "fear": 3683, 
  "wider": 3684, 
  "subsidy": 3685, 
  "notify": 3686, 
  "opposed": 3687, 
  "reportedly": 3688, 
  "arise": 3689, 
  "~": 3690, 
  "creation": 3691, 
  "squad": 3692, 
  "precisely": 3693, 
  "suggestion": 3694, 
  "boost": 3695, 
  "edward": 3696, 
  "expanded": 3697, 
  "deng": 3698, 
  "hereby": 3699, 
  "100,000": 3700, 
  "clients": 3701, 
  "logistics": 3702, 
  "thousand": 3703, 
  "te": 3704, 
  "unfortunately": 3705, 
  "territorial": 3706, 
  "readers": 3707, 
  "context": 3708, 
  "2004": 3709, 
  "talent": 3710, 
  "washington": 3711, 
  "techniques": 3712, 
  "preventive": 3713, 
  "unlicensed": 3714, 
  "managers": 3715, 
  "recreational": 3716, 
  "theatre": 3717, 
  "returns": 3718, 
  "situated": 3719, 
  "none": 3720, 
  "ant": 3721, 
  "purchased": 3722, 
  "yuk": 3723, 
  "cancer": 3724, 
  "drink": 3725, 
  "http://www.info.gov.hk/@@": 3726, 
  "employ": 3727, 
  "excessive": 3728, 
  "notification": 3729, 
  "wrote": 3730, 
  "grown": 3731, 
  "2,000": 3732, 
  "6.@@": 3733, 
  "specially": 3734, 
  "unity": 3735, 
  "ons": 3736, 
  "married": 3737, 
  "push": 3738, 
  "5,000": 3739, 
  "frederick": 3740, 
  "steel": 3741, 
  "depends": 3742, 
  "i.e.": 3743, 
  "sexual": 3744, 
  "preparations": 3745, 
  "explains": 3746, 
  "theft": 3747, 
  "15,": 3748, 
  "combined": 3749, 
  "b.": 3750, 
  "poverty": 3751, 
  "eastbound": 3752, 
  "under@@": 3753, 
  "preventing": 3754, 
  "suffering": 3755, 
  "respondents": 3756, 
  "mo@@": 3757, 
  "thailand": 3758, 
  "consultant": 3759, 
  "junior": 3760, 
  "appealed": 3761, 
  "ul@@": 3762, 
  "unchanged": 3763, 
  "bankruptcy": 3764, 
  "profound": 3765, 
  "songs": 3766, 
  "flooding": 3767, 
  "workshop": 3768, 
  "intercepted": 3769, 
  "statements": 3770, 
  "universal": 3771, 
  "69": 3772, 
  "cutting": 3773, 
  "odd": 3774, 
  "impression": 3775, 
  "wholesale": 3776, 
  "correctional": 3777, 
  "smaller": 3778, 
  "samples": 3779, 
  "(v)": 3780, 
  "looked": 3781, 
  "recover": 3782, 
  "grass": 3783, 
  "asset": 3784, 
  "yung": 3785, 
  "me@@": 3786, 
  "camp": 3787, 
  "certification": 3788, 
  "messages": 3789, 
  "edge": 3790, 
  "obvious": 3791, 
  "700": 3792, 
  "loh": 3793, 
  "chien": 3794, 
  "ranks": 3795, 
  "liang": 3796, 
  "relatives": 3797, 
  "approve": 3798, 
  "communists": 3799, 
  "younger": 3800, 
  "canton": 3801, 
  "cleansing": 3802, 
  "suddenly": 3803, 
  "movements": 3804, 
  "prize": 3805, 
  "78": 3806, 
  "evil": 3807, 
  "components": 3808, 
  "dogs": 3809, 
  "transaction": 3810, 
  "battle": 3811, 
  "26@@": 3812, 
  "unnecessary": 3813, 
  "addressed": 3814, 
  "gr@@": 3815, 
  "stopped": 3816, 
  "chuen": 3817, 
  "quota": 3818, 
  "saving": 3819, 
  "noon": 3820, 
  "instruments": 3821, 
  "intervention": 3822, 
  "sky": 3823, 
  "castle": 3824, 
  "vital": 3825, 
  "timely": 3826, 
  "submission": 3827, 
  "ment": 3828, 
  "arculli": 3829, 
  "filling": 3830, 
  "substantially": 3831, 
  "lawyers": 3832, 
  "tower": 3833, 
  "joseph": 3834, 
  "merchant": 3835, 
  "zones": 3836, 
  "lots": 3837, 
  "entries": 3838, 
  "falling": 3839, 
  "chosen": 3840, 
  "exchanged": 3841, 
  "artistic": 3842, 
  "checks": 3843, 
  "3%": 3844, 
  "3.@@": 3845, 
  "hsiao": 3846, 
  "historic": 3847, 
  "mao": 3848, 
  "7,": 3849, 
  "94": 3850, 
  "developers": 3851, 
  "estimate": 3852, 
  "95": 3853, 
  "marketing": 3854, 
  "concessions": 3855, 
  "ease": 3856, 
  "tonight": 3857, 
  "mostly": 3858, 
  "serves": 3859, 
  "3,": 3860, 
  "lu@@": 3861, 
  "kilograms": 3862, 
  "qu@@": 3863, 
  "fang": 3864, 
  "fax": 3865, 
  "ill": 3866, 
  "cppcc": 3867, 
  "preceding": 3868, 
  "sub@@": 3869, 
  "disclosure": 3870, 
  "resulted": 3871, 
  "81": 3872, 
  "bail": 3873, 
  "appliances": 3874, 
  "equally": 3875, 
  "lawful": 3876, 
  "82": 3877, 
  "stepped": 3878, 
  "considerations": 3879, 
  "bo@@": 3880, 
  "stories": 3881, 
  "stipulated": 3882, 
  "evaluation": 3883, 
  "printing": 3884, 
  "peninsula": 3885, 
  "advertising": 3886, 
  "pressing": 3887, 
  "outward": 3888, 
  "'ll": 3889, 
  "1,@@": 3890, 
  "instruction": 3891, 
  "retain": 3892, 
  "pier": 3893, 
  "ph@@": 3894, 
  "graduate": 3895, 
  "punishment": 3896, 
  "friend": 3897, 
  "convenient": 3898, 
  "pipes": 3899, 
  "rating": 3900, 
  "journey": 3901, 
  "oriented": 3902, 
  "productive": 3903, 
  "israel": 3904, 
  "coast": 3905, 
  "driven": 3906, 
  "regulate": 3907, 
  "attach": 3908, 
  "participated": 3909, 
  "interference": 3910, 
  "inland": 3911, 
  "ballot": 3912, 
  "tr@@": 3913, 
  "meant": 3914, 
  "firstly": 3915, 
  "foot": 3916, 
  "interim": 3917, 
  "21,": 3918, 
  "resumed": 3919, 
  "to@@": 3920, 
  "usual": 3921, 
  "telecommunication": 3922, 
  "afford": 3923, 
  "inspect": 3924, 
  "les": 3925, 
  "oral": 3926, 
  "counselling": 3927, 
  "ar": 3928, 
  "zhou": 3929, 
  "nearby": 3930, 
  "french": 3931, 
  "28,": 3932, 
  "recognize": 3933, 
  "concepts": 3934, 
  "composition": 3935, 
  "ir@@": 3936, 
  "hos": 3937, 
  "alleged": 3938, 
  "seasonally": 3939, 
  "24,": 3940, 
  "iv": 3941, 
  "doctor": 3942, 
  "calculated": 3943, 
  "fraud": 3944, 
  "producing": 3945, 
  "reputation": 3946, 
  "leaves": 3947, 
  "olympic": 3948, 
  "enemy": 3949, 
  "stanley": 3950, 
  "pick": 3951, 
  "reservoirs": 3952, 
  "su": 3953, 
  "desire": 3954, 
  "shi": 3955, 
  "trends": 3956, 
  "nationality": 3957, 
  "founding": 3958, 
  "enhancement": 3959, 
  "preparing": 3960, 
  "networks": 3961, 
  "consultations": 3962, 
  "ol@@": 3963, 
  "prosecuted": 3964, 
  "subregulation": 3965, 
  "pe@@": 3966, 
  "breakdown": 3967, 
  "escape": 3968, 
  "ronald": 3969, 
  "invite": 3970, 
  "shortage": 3971, 
  "eating": 3972, 
  "120": 3973, 
  "1978": 3974, 
  "villages": 3975, 
  "devices": 3976, 
  "pro@@": 3977, 
  "maritime": 3978, 
  "magazine": 3979, 
  "everybody": 3980, 
  "formulated": 3981, 
  "feels": 3982, 
  "counsel": 3983, 
  "implications": 3984, 
  "stores": 3985, 
  "hire": 3986, 
  "device": 3987, 
  "01": 3988, 
  "00@@": 3989, 
  "publish": 3990, 
  "brings": 3991, 
  "westbound": 3992, 
  "ists": 3993, 
  "14,": 3994, 
  "4.@@": 3995, 
  "heading": 3996, 
  "subcommittee": 3997, 
  "exposed": 3998, 
  "2,": 3999, 
  "fruit": 4000, 
  "gu@@": 4001, 
  "chaired": 4002, 
  "stephen": 4003, 
  "1972": 4004, 
  "perfect": 4005, 
  "16,": 4006, 
  "progressive": 4007, 
  "cater": 4008, 
  "recruitment": 4009, 
  "representation": 4010, 
  "localities": 4011, 
  "portion": 4012, 
  "23,": 4013, 
  "20,": 4014, 
  "familiar": 4015, 
  "ha@@": 4016, 
  "integration": 4017, 
  "rushed": 4018, 
  "consequences": 4019, 
  "fallen": 4020, 
  "comment": 4021, 
  "deputies": 4022, 
  "pla": 4023, 
  "constitute": 4024, 
  "slow": 4025, 
  "convenience": 4026, 
  "stadium": 4027, 
  "ies": 4028, 
  "frequency": 4029, 
  "der": 4030, 
  "rc": 4031, 
  "harm": 4032, 
  "ong": 4033, 
  "update": 4034, 
  "1979": 4035, 
  "composite": 4036, 
  "metal": 4037, 
  "guiding": 4038, 
  "moral": 4039, 
  "ex@@": 4040, 
  "missiles": 4041, 
  "cs": 4042, 
  "4%": 4043, 
  "87": 4044, 
  "17,": 4045, 
  "attendance": 4046, 
  "trouble": 4047, 
  "indicates": 4048, 
  "dream": 4049, 
  "couple": 4050, 
  "12.@@": 4051, 
  "forget": 4052, 
  "controls": 4053, 
  "3,@@": 4054, 
  "ranging": 4055, 
  "winter": 4056, 
  "replacement": 4057, 
  "formulating": 4058, 
  "disabilities": 4059, 
  "sharing": 4060, 
  "bird": 4061, 
  "soil": 4062, 
  "9,": 4063, 
  "lived": 4064, 
  "memorial": 4065, 
  "vigorous": 4066, 
  "ages": 4067, 
  "shape": 4068, 
  "1976": 4069, 
  "happen": 4070, 
  "coastal": 4071, 
  "rents": 4072, 
  "stringent": 4073, 
  "talked": 4074, 
  "appearance": 4075, 
  "wine": 4076, 
  "feet": 4077, 
  "y2k": 4078, 
  "22,": 4079, 
  "pearl": 4080, 
  "alarm": 4081, 
  "yeoh": 4082, 
  "kcrc": 4083, 
  "xiaoping": 4084, 
  "looks": 4085, 
  "spoken": 4086, 
  "native": 4087, 
  "argument": 4088, 
  "rok": 4089, 
  "responded": 4090, 
  "6%": 4091, 
  "remuneration": 4092, 
  "warned": 4093, 
  "twice": 4094, 
  "8%": 4095, 
  "suicide": 4096, 
  "putin": 4097, 
  "goals": 4098, 
  "amongst": 4099, 
  "50%": 4100, 
  "86": 4101, 
  "prosecutions": 4102, 
  "qichen": 4103, 
  "treat": 4104, 
  "excess": 4105, 
  "26,": 4106, 
  "whilst": 4107, 
  "downturn": 4108, 
  "broken": 4109, 
  "disaster": 4110, 
  "opposite": 4111, 
  "nathan": 4112, 
  "daughter": 4113, 
  "vietnam": 4114, 
  "29,": 4115, 
  "thereto": 4116, 
  "grassroots": 4117, 
  "00": 4118, 
  "controlling": 4119, 
  "proceeds": 4120, 
  "programs": 4121, 
  "autonomous": 4122, 
  "enjoyed": 4123, 
  "aggregate": 4124, 
  "glad": 4125, 
  "sw@@": 4126, 
  "10,": 4127, 
  "stresses": 4128, 
  "pl@@": 4129, 
  "flood": 4130, 
  "grasp": 4131, 
  "sensitive": 4132, 
  "recurrent": 4133, 
  "comrades": 4134, 
  "mpfa": 4135, 
  "engineer": 4136, 
  "postal": 4137, 
  "steady": 4138, 
  "intent": 4139, 
  "charging": 4140, 
  "discretion": 4141, 
  "vii": 4142, 
  "miscellaneous": 4143, 
  "township": 4144, 
  "generations": 4145, 
  "ter": 4146, 
  "reservations": 4147, 
  "workplace": 4148, 
  "largely": 4149, 
  "laboratory": 4150, 
  "dog": 4151, 
  "4,": 4152, 
  "lie": 4153, 
  "constant": 4154, 
  "27,": 4155, 
  "disability": 4156, 
  "premium": 4157, 
  "fashion": 4158, 
  "1000": 4159, 
  "timetable": 4160, 
  "plastic": 4161, 
  "ning": 4162, 
  "collision": 4163, 
  "contributed": 4164, 
  "suspects": 4165, 
  "lodged": 4166, 
  "criticized": 4167, 
  "northbound": 4168, 
  "8,": 4169, 
  "complied": 4170, 
  "th": 4171, 
  "tobacco": 4172, 
  "criticism": 4173, 
  "meets": 4174, 
  "exceeds": 4175, 
  "violence": 4176, 
  "92": 4177, 
  "reward": 4178, 
  "roles": 4179, 
  "falls": 4180, 
  "vary": 4181, 
  "acceptance": 4182, 
  "comprises": 4183, 
  "5,": 4184, 
  "hotels": 4185, 
  "ends": 4186, 
  "preserve": 4187, 
  "suit": 4188, 
  "14@@": 4189, 
  "walk": 4190, 
  "cyberport": 4191, 
  "societies": 4192, 
  "emission": 4193, 
  "proprietor": 4194, 
  "transformation": 4195, 
  "compete": 4196, 
  "cancelled": 4197, 
  "stolen": 4198, 
  "obtaining": 4199, 
  "swimmers": 4200, 
  "advertisement": 4201, 
  "19,": 4202, 
  "fairly": 4203, 
  "18,": 4204, 
  "ters": 4205, 
  "masters": 4206, 
  "notified": 4207, 
  "column": 4208, 
  "ke": 4209, 
  "founded": 4210, 
  "default": 4211, 
  "updated": 4212, 
  "pak": 4213, 
  "textiles": 4214, 
  "chicken": 4215, 
  "p.": 4216, 
  "arrange": 4217, 
  "peter": 4218, 
  "kids": 4219, 
  "specialist": 4220, 
  "12,": 4221, 
  "shatin": 4222, 
  "6,": 4223, 
  "recall": 4224, 
  "pattern": 4225, 
  "tenancy": 4226, 
  "smashed": 4227, 
  "inner": 4228, 
  "1973": 4229, 
  "petrol": 4230, 
  "16@@": 4231, 
  "25,": 4232, 
  "recycling": 4233, 
  "demonstrate": 4234, 
  "acquire": 4235, 
  "expiry": 4236, 
  "hardly": 4237, 
  "carriage": 4238, 
  "communities": 4239, 
  "ness": 4240, 
  "bright": 4241, 
  "touch": 4242, 
  "minority": 4243, 
  "rare": 4244, 
  "ism": 4245, 
  "fill": 4246, 
  "sharp": 4247, 
  "interchange": 4248, 
  "creativity": 4249, 
  "gathering": 4250, 
  "15@@": 4251, 
  "listing": 4252, 
  "mar@@": 4253, 
  "competent": 4254, 
  "concerted": 4255, 
  "consultative": 4256, 
  "carriageway": 4257, 
  "deployment": 4258, 
  "visual": 4259, 
  "answers": 4260, 
  "11.@@": 4261, 
  "raymond": 4262, 
  "sized": 4263, 
  "girls": 4264, 
  "yellow": 4265, 
  "granting": 4266, 
  "tions": 4267, 
  "sixth": 4268, 
  "absolute": 4269, 
  "focused": 4270, 
  "outlook": 4271, 
  "dry": 4272, 
  "out@@": 4273, 
  "seal": 4274, 
  "influenza": 4275, 
  "20%": 4276, 
  "cigarettes": 4277, 
  "thereafter": 4278, 
  "ke@@": 4279, 
  "drama": 4280, 
  "carnival": 4281, 
  "adoption": 4282, 
  "vitality": 4283, 
  "ans": 4284, 
  "96": 4285, 
  "revision": 4286, 
  ".@@": 4287, 
  "mechanisms": 4288, 
  "jp": 4289, 
  "17@@": 4290, 
  "eric": 4291, 
  "___": 4292, 
  "coverage": 4293, 
  "injury": 4294, 
  "soldiers": 4295, 
  "pipe": 4296, 
  "presidential": 4297, 
  "isn": 4298, 
  "mentally": 4299, 
  "kan": 4300, 
  "craft": 4301, 
  "dutiable": 4302, 
  "arbitration": 4303, 
  "balanced": 4304, 
  "providers": 4305, 
  "distinguished": 4306, 
  "mankind": 4307, 
  "inspected": 4308, 
  "indian": 4309, 
  "13,": 4310, 
  "exit": 4311, 
  "aa": 4312, 
  "staged": 4313, 
  "exercised": 4314, 
  "marxism": 4315, 
  "traders": 4316, 
  "duly": 4317, 
  "drafting": 4318, 
  "stall": 4319, 
  "luk": 4320, 
  "ap": 4321, 
  "debts": 4322, 
  "blocks": 4323, 
  "settle": 4324, 
  "phenomenon": 4325, 
  "83": 4326, 
  "organ": 4327, 
  "psychological": 4328, 
  "damaged": 4329, 
  "lowest": 4330, 
  "ambrose": 4331, 
  "depend": 4332, 
  "grateful": 4333, 
  "11,": 4334, 
  "worldwide": 4335, 
  "concession": 4336, 
  "kuang": 4337, 
  "unauthorised": 4338, 
  "solely": 4339, 
  "ho@@": 4340, 
  "commit": 4341, 
  "generated": 4342, 
  "attractive": 4343, 
  "crowd": 4344, 
  "locally": 4345, 
  "installations": 4346, 
  "worries": 4347, 
  "accused": 4348, 
  "97": 4349, 
  "exempted": 4350, 
  "sung": 4351, 
  "sake": 4352, 
  "clinic": 4353, 
  "min@@": 4354, 
  "execution": 4355, 
  "kindergartens": 4356, 
  "ecological": 4357, 
  "po@@": 4358, 
  "ators": 4359, 
  "stronger": 4360, 
  "partly": 4361, 
  "speeding": 4362, 
  "adjust": 4363, 
  "filed": 4364, 
  "brand": 4365, 
  "manufacture": 4366, 
  "voted": 4367, 
  "il@@": 4368, 
  "theater": 4369, 
  "miriam": 4370, 
  "strengths": 4371, 
  "phases": 4372, 
  "pledge": 4373, 
  "diverted": 4374, 
  "annually": 4375, 
  "construed": 4376, 
  "la@@": 4377, 
  "foster": 4378, 
  "nominal": 4379, 
  "chou": 4380, 
  "ladies": 4381, 
  "withdraw": 4382, 
  "levy": 4383, 
  "collaboration": 4384, 
  "solved": 4385, 
  "advances": 4386, 
  "machine": 4387, 
  "dpp": 4388, 
  "tenders": 4389, 
  "hosted": 4390, 
  "milk": 4391, 
  "05": 4392, 
  "adopting": 4393, 
  "counterparts": 4394, 
  "occupied": 4395, 
  "catch": 4396, 
  "interesting": 4397, 
  "mon@@": 4398, 
  "welcomes": 4399, 
  "hongzhi": 4400, 
  "demonstrated": 4401, 
  "eliminate": 4402, 
  "jintao": 4403, 
  "7%": 4404, 
  "workforce": 4405, 
  "millimetres": 4406, 
  "os@@": 4407, 
  "clinical": 4408, 
  "ru@@": 4409, 
  "obligation": 4410, 
  "sample": 4411, 
  "farm": 4412, 
  "promotional": 4413, 
  "om@@": 4414, 
  "liao": 4415, 
  "allows": 4416, 
  "5.@@": 4417, 
  "icac": 4418, 
  "lights": 4419, 
  "philatelic": 4420, 
  "sort": 4421, 
  "automatic": 4422, 
  "solicitors": 4423, 
  "teach": 4424, 
  "breaking": 4425, 
  "destroyed": 4426, 
  "supreme": 4427, 
  "250": 4428, 
  "depending": 4429, 
  "s)": 4430, 
  "cease": 4431, 
  "christine": 4432, 
  "recording": 4433, 
  "repeated": 4434, 
  "wood": 4435, 
  "autumn": 4436, 
  "aberdeen": 4437, 
  "insurer": 4438, 
  "signals": 4439, 
  "god": 4440, 
  "virtually": 4441, 
  "examining": 4442, 
  "metre": 4443, 
  "9%": 4444, 
  "sheet": 4445, 
  "1975": 4446, 
  "jun": 4447, 
  "exposure": 4448, 
  "finished": 4449, 
  "damages": 4450, 
  "illness": 4451, 
  "ka": 4452, 
  "quick": 4453, 
  "medicines": 4454, 
  "tropical": 4455, 
  "angle": 4456, 
  "observatory": 4457, 
  "arguments": 4458, 
  "broke": 4459, 
  "guangzhou": 4460, 
  "19@@": 4461, 
  "internationally": 4462, 
  "investigate": 4463, 
  "readily": 4464, 
  "carries": 4465, 
  "formulation": 4466, 
  "a)": 4467, 
  "syndicate": 4468, 
  "conflicts": 4469, 
  "unprecedented": 4470, 
  "collecting": 4471, 
  "dinner": 4472, 
  "sa@@": 4473, 
  "online": 4474, 
  "kmt": 4475, 
  "engineers": 4476, 
  "prominent": 4477, 
  "10.@@": 4478, 
  "3,000": 4479, 
  "deeds": 4480, 
  "tenant": 4481, 
  "indigenous": 4482, 
  "laundering": 4483, 
  "coordination": 4484, 
  "900": 4485, 
  "congestion": 4486, 
  "gets": 4487, 
  "inviting": 4488, 
  "walls": 4489, 
  "adverse": 4490, 
  "leaflets": 4491, 
  "inadequate": 4492, 
  "fortune": 4493, 
  "boats": 4494, 
  "occur": 4495, 
  "enforce": 4496, 
  "drinking": 4497, 
  "claiming": 4498, 
  "satisfy": 4499, 
  "feasible": 4500, 
  "honour": 4501, 
  "ticket": 4502, 
  "constructive": 4503, 
  "provinces": 4504, 
  "appellant": 4505, 
  "designs": 4506, 
  "proud": 4507, 
  "substances": 4508, 
  "bs": 4509, 
  "advertisements": 4510, 
  "christmas": 4511, 
  "admit": 4512, 
  "youngsters": 4513, 
  "aided": 4514, 
  "african": 4515, 
  "transmission": 4516, 
  "worse": 4517, 
  "shu": 4518, 
  "attributable": 4519, 
  "accurate": 4520, 
  "robert": 4521, 
  "remote": 4522, 
  "sending": 4523, 
  "choices": 4524, 
  "1974": 4525, 
  "93": 4526, 
  "realized": 4527, 
  "citizen": 4528, 
  "plays": 4529, 
  "seize": 4530, 
  "machines": 4531, 
  "marking": 4532, 
  "headed": 4533, 
  "comprehensively": 4534, 
  "no@@": 4535, 
  "listening": 4536, 
  "enthusiasm": 4537, 
  "acquired": 4538, 
  "buying": 4539, 
  "addresses": 4540, 
  "semi": 4541, 
  "winners": 4542, 
  "circularized": 4543, 
  "glass": 4544, 
  "band": 4545, 
  "respects": 4546, 
  "7.@@": 4547, 
  "fred": 4548, 
  "nam": 4549, 
  "forged": 4550, 
  "man@@": 4551, 
  "everywhere": 4552, 
  "emissions": 4553, 
  "yield": 4554, 
  "exclusive": 4555, 
  "survival": 4556, 
  "84": 4557, 
  "relative": 4558, 
  "caught": 4559, 
  "bottom": 4560, 
  "catering": 4561, 
  "victory": 4562, 
  "bought": 4563, 
  "organize": 4564, 
  "fanling": 4565, 
  "alteration": 4566, 
  "ah": 4567, 
  "affidavit": 4568, 
  "kim": 4569, 
  "sport": 4570, 
  "governmental": 4571, 
  "pays": 4572, 
  "solutions": 4573, 
  "cooked": 4574, 
  "liberation": 4575, 
  "models": 4576, 
  "incorporation": 4577, 
  "als": 4578, 
  "cleaning": 4579, 
  "trustees": 4580, 
  "commander": 4581, 
  "prudent": 4582, 
  "grave": 4583, 
  "match": 4584, 
  "unreasonable": 4585, 
  "tse": 4586, 
  "tic": 4587, 
  "bar@@": 4588, 
  "infection": 4589, 
  "tunnels": 4590, 
  "horse": 4591, 
  "essence": 4592, 
  "commonly": 4593, 
  "seekers": 4594, 
  "helps": 4595, 
  "contemporary": 4596, 
  "ity": 4597, 
  "motions": 4598, 
  "paul": 4599, 
  "assisting": 4600, 
  "notable": 4601, 
  "deadline": 4602, 
  "continually": 4603, 
  "memorandum": 4604, 
  "arrivals": 4605, 
  "promptly": 4606, 
  "ve": 4607, 
  "annum": 4608, 
  "howard": 4609, 
  "avenue": 4610, 
  "dark": 4611, 
  "insufficient": 4612, 
  "religion": 4613, 
  "accessible": 4614, 
  "adjourned": 4615, 
  "minds": 4616, 
  "landscape": 4617, 
  "inevitably": 4618, 
  "ne@@": 4619, 
  "ves": 4620, 
  "accounted": 4621, 
  "observation": 4622, 
  "um": 4623, 
  "remarkable": 4624, 
  "heat": 4625, 
  "deciding": 4626, 
  "circulation": 4627, 
  "malaysia": 4628, 
  "ultimate": 4629, 
  "accountable": 4630, 
  "mal@@": 4631, 
  "rock": 4632, 
  "storm": 4633, 
  "exception": 4634, 
  "supervisory": 4635, 
  "translation": 4636, 
  "1.5": 4637, 
  "villagers": 4638, 
  "achievement": 4639, 
  "emperor": 4640, 
  "20@@": 4641, 
  "ci@@": 4642, 
  "favourable": 4643, 
  "ator": 4644, 
  "s.@@": 4645, 
  "fl@@": 4646, 
  "boxes": 4647, 
  "screening": 4648, 
  "element": 4649, 
  "formally": 4650, 
  "chao": 4651, 
  "jol": 4652, 
  "favorable": 4653, 
  "embassy": 4654, 
  "kindergarten": 4655, 
  "jurisdictions": 4656, 
  "settled": 4657, 
  "ride": 4658, 
  "somewhat": 4659, 
  "se": 4660, 
  "baby": 4661, 
  "counting": 4662, 
  "so@@": 4663, 
  "regardless": 4664, 
  "paragraphs": 4665, 
  "airlines": 4666, 
  "palace": 4667, 
  "(dh)": 4668, 
  "hub": 4669, 
  "(p@@": 4670, 
  "textile": 4671, 
  "separation": 4672, 
  "bruce": 4673, 
  "postmaster": 4674, 
  "phones": 4675, 
  "competitions": 4676, 
  "render": 4677, 
  "bi@@": 4678, 
  "involvement": 4679, 
  "merits": 4680, 
  "equity": 4681, 
  "cd": 4682, 
  "opens": 4683, 
  "thanked": 4684, 
  "ical": 4685, 
  "signature": 4686, 
  "combating": 4687, 
  "consistently": 4688, 
  "faces": 4689, 
  "vehicular": 4690, 
  "bamboo": 4691, 
  "devoted": 4692, 
  "for@@": 4693, 
  "winding": 4694, 
  "0.2": 4695, 
  "engine": 4696, 
  "commitments": 4697, 
  "paintings": 4698, 
  "attacks": 4699, 
  "unified": 4700, 
  "players": 4701, 
  "ban": 4702, 
  "voter": 4703, 
  "equality": 4704, 
  "football": 4705, 
  "exceeded": 4706, 
  "emphasize": 4707, 
  "indoor": 4708, 
  "tokyo": 4709, 
  "encountered": 4710, 
  "buddhist": 4711, 
  "borne": 4712, 
  "1970": 4713, 
  "compiled": 4714, 
  "senate": 4715, 
  "g.": 4716, 
  "succeed": 4717, 
  "vested": 4718, 
  "cfa": 4719, 
  "swd": 4720, 
  "earnestly": 4721, 
  "(hk@@": 4722, 
  "iraq": 4723, 
  "mixed": 4724, 
  "adhere": 4725, 
  "herself": 4726, 
  "wear": 4727, 
  "practitioner": 4728, 
  "movie": 4729, 
  "allowances": 4730, 
  "navy": 4731, 
  "interfere": 4732, 
  "multiple": 4733, 
  "ty": 4734, 
  "2734": 4735, 
  "courtesy": 4736, 
  "branches": 4737, 
  "resolutely": 4738, 
  "attained": 4739, 
  "understood": 4740, 
  "stream": 4741, 
  "z": 4742, 
  "subparagraph": 4743, 
  "measured": 4744, 
  "8.@@": 4745, 
  "christian": 4746, 
  "pictures": 4747, 
  "exempt": 4748, 
  "amending": 4749, 
  "fi@@": 4750, 
  "valuation": 4751, 
  "renowned": 4752, 
  "exists": 4753, 
  "warfare": 4754, 
  "theoretical": 4755, 
  "ered": 4756, 
  "musical": 4757, 
  "climate": 4758, 
  "identification": 4759, 
  "covenant": 4760, 
  "recognised": 4761, 
  "us@@": 4762, 
  "shelters": 4763, 
  "flows": 4764, 
  "representations": 4765, 
  "auxiliary": 4766, 
  "component": 4767, 
  "fellow": 4768, 
  "empty": 4769, 
  "os": 4770, 
  "breeding": 4771, 
  "j.": 4772, 
  "respiratory": 4773, 
  "dealer": 4774, 
  "photographs": 4775, 
  "ju": 4776, 
  "edition": 4777, 
  "enabling": 4778, 
  "stimulate": 4779, 
  "surveyor": 4780, 
  "creditors": 4781, 
  "submissions": 4782, 
  "boundaries": 4783, 
  "wars": 4784, 
  "delta": 4785, 
  "underground": 4786, 
  "(hkma)": 4787, 
  "http://www.@@": 4788, 
  "mayor": 4789, 
  "mh": 4790, 
  "qing": 4791, 
  "carrier": 4792, 
  "franchise": 4793, 
  "do@@": 4794, 
  "gloucester": 4795, 
  "est": 4796, 
  "possess": 4797, 
  "batch": 4798, 
  "magistrates": 4799, 
  "tive": 4800, 
  "disclosed": 4801, 
  "sinorama": 4802, 
  "fai": 4803, 
  "deposited": 4804, 
  "br@@": 4805, 
  "issuance": 4806, 
  "royal": 4807, 
  "retired": 4808, 
  "20,000": 4809, 
  "regulating": 4810, 
  "wholly": 4811, 
  "1.2": 4812, 
  "(amendment)": 4813, 
  "behavior": 4814, 
  "transcript": 4815, 
  "heung": 4816, 
  "dengue": 4817, 
  "api": 4818, 
  "au": 4819, 
  "momentum": 4820, 
  "spots": 4821, 
  "outbreak": 4822, 
  "dated": 4823, 
  "complying": 4824, 
  "processed": 4825, 
  "vetting": 4826, 
  "foods": 4827, 
  "booking": 4828, 
  "pa@@": 4829, 
  "prof": 4830, 
  "heroin": 4831, 
  "hkmc": 4832, 
  "withdrawn": 4833, 
  "bonds": 4834, 
  "secured": 4835, 
  "iron": 4836, 
  "(j)": 4837, 
  "+": 4838, 
  "literary": 4839, 
  "consist": 4840, 
  "root": 4841, 
  "mu@@": 4842, 
  "id": 4843, 
  "extreme": 4844, 
  "ministerial": 4845, 
  "gentlemen": 4846, 
  "ought": 4847, 
  "transparent": 4848, 
  "yun": 4849, 
  "parallel": 4850, 
  "chain": 4851, 
  "faster": 4852, 
  "par@@": 4853, 
  "couldn": 4854, 
  "upholding": 4855, 
  "furniture": 4856, 
  "invested": 4857, 
  "turns": 4858, 
  "grades": 4859, 
  "orderly": 4860, 
  "silver": 4861, 
  "athletes": 4862, 
  "trips": 4863, 
  "artist": 4864, 
  "sight": 4865, 
  "witnesses": 4866, 
  "detected": 4867, 
  "ra@@": 4868, 
  "trainees": 4869, 
  "min": 4870, 
  "prosperous": 4871, 
  "reliable": 4872, 
  "pair": 4873, 
  "illegally": 4874, 
  "authorised": 4875, 
  "suppliers": 4876, 
  "australian": 4877, 
  "ed@@": 4878, 
  "derived": 4879, 
  "accommodate": 4880, 
  "attaches": 4881, 
  "wisdom": 4882, 
  "kei": 4883, 
  "soft": 4884, 
  "martin": 4885, 
  "ipcc": 4886, 
  "bu@@": 4887, 
  "margin": 4888, 
  "contingency": 4889, 
  "km": 4890, 
  "acute": 4891, 
  "similarly": 4892, 
  "reviews": 4893, 
  "2,@@": 4894, 
  "jiaxuan": 4895, 
  "faith": 4896, 
  "centers": 4897, 
  "knew": 4898, 
  "fleet": 4899, 
  "cholera": 4900, 
  "contradictions": 4901, 
  "abide": 4902, 
  "fujian": 4903, 
  "fe@@": 4904, 
  "precious": 4905, 
  "destination": 4906, 
  "adult": 4907, 
  "men@@": 4908, 
  "narrow": 4909, 
  "abilities": 4910, 
  "ou": 4911, 
  "celebrate": 4912, 
  "asks": 4913, 
  "midnight": 4914, 
  "compulsory": 4915, 
  "solving": 4916, 
  "textbooks": 4917, 
  "pursuing": 4918, 
  "stepping": 4919, 
  "d)": 4920, 
  "flags": 4921, 
  "exercising": 4922, 
  "adjacent": 4923, 
  "singing": 4924, 
  "pain": 4925, 
  "nursing": 4926, 
  "poll": 4927, 
  "130": 4928, 
  "ascertain": 4929, 
  "adviser": 4930, 
  "belonging": 4931, 
  "refers": 4932, 
  "lessons": 4933, 
  "chickens": 4934, 
  "elizabeth": 4935, 
  "philippines": 4936, 
  "suen": 4937, 
  "intervals": 4938, 
  "sanctions": 4939, 
  "screen": 4940, 
  "vegetables": 4941, 
  "objections": 4942, 
  "demonstration": 4943, 
  "earned": 4944, 
  "visible": 4945, 
  "respondent": 4946, 
  "4,@@": 4947, 
  "meter": 4948, 
  "organise": 4949, 
  "ultimately": 4950, 
  "transitional": 4951, 
  "consecutive": 4952, 
  "legitimate": 4953, 
  "contracting": 4954, 
  "spare": 4955, 
  "nato": 4956, 
  "proven": 4957, 
  "30%": 4958, 
  "privatization": 4959, 
  "easier": 4960, 
  "heaven": 4961, 
  "requesting": 4962, 
  "cycle": 4963, 
  "jockey": 4964, 
  "philosophy": 4965, 
  "uniform": 4966, 
  "possibly": 4967, 
  "plaza": 4968, 
  "deaths": 4969, 
  "farms": 4970, 
  "prohibition": 4971, 
  "sustaining": 4972, 
  "workshops": 4973, 
  "mutually": 4974, 
  "ca@@": 4975, 
  "switch": 4976, 
  "sponsored": 4977, 
  "gardens": 4978, 
  "fong": 4979, 
  "sincere": 4980, 
  "deception": 4981, 
  "fate": 4982, 
  "sc@@": 4983, 
  "rehousing": 4984, 
  "editor": 4985, 
  "initiated": 4986, 
  "practising": 4987, 
  "shen": 4988, 
  "discovery": 4989, 
  "format": 4990, 
  "nationals": 4991, 
  "conscientiously": 4992, 
  "souvenir": 4993, 
  "no.2": 4994, 
  "secret": 4995, 
  "volunteers": 4996, 
  "ventilation": 4997, 
  "prisoners": 4998, 
  "retained": 4999, 
  "qualification": 5000, 
  "lc": 5001, 
  "ver@@": 5002, 
  "accumulated": 5003, 
  "writ": 5004, 
  "rational": 5005, 
  "moon": 5006, 
  "afterwards": 5007, 
  "prisoner": 5008, 
  "expo": 5009, 
  "hsi": 5010, 
  "ig@@": 5011, 
  "academics": 5012, 
  "executed": 5013, 
  "planes": 5014, 
  "forest": 5015, 
  "rejected": 5016, 
  "judging": 5017, 
  "typical": 5018, 
  "ya": 5019, 
  "ang@@": 5020, 
  "venture": 5021, 
  "indonesia": 5022, 
  "2005": 5023, 
  "ao": 5024, 
  "02": 5025, 
  "separated": 5026, 
  "openly": 5027, 
  "flights": 5028, 
  "discount": 5029, 
  "ful": 5030, 
  "defend": 5031, 
  "surrounding": 5032, 
  "tables": 5033, 
  "pi@@": 5034, 
  "freeze": 5035, 
  "presents": 5036, 
  "oi": 5037, 
  "raided": 5038, 
  "corner": 5039, 
  "5,@@": 5040, 
  "steadily": 5041, 
  "expensive": 5042, 
  "refusal": 5043, 
  "taxpayers": 5044, 
  "hi@@": 5045, 
  "ring": 5046, 
  "loading": 5047, 
  "lien": 5048, 
  "ji": 5049, 
  "forming": 5050, 
  "manual": 5051, 
  "underway": 5052, 
  "resistance": 5053, 
  "procurement": 5054, 
  "adults": 5055, 
  "reserved": 5056, 
  "assume": 5057, 
  "1971": 5058, 
  "ste@@": 5059, 
  "rendered": 5060, 
  "schedules": 5061, 
  "sl@@": 5062, 
  "pupils": 5063, 
  "bankrupt": 5064, 
  "6,@@": 5065, 
  "moves": 5066, 
  "hawker": 5067, 
  "yeh": 5068, 
  "hsin": 5069, 
  "operates": 5070, 
  "concentrate": 5071, 
  "mrs.": 5072, 
  "gear": 5073, 
  "blind": 5074, 
  "obscene": 5075, 
  "91": 5076, 
  "opposing": 5077, 
  "doubts": 5078, 
  "fu@@": 5079, 
  "fishermen": 5080, 
  "priced": 5081, 
  "client": 5082, 
  "ur@@": 5083, 
  "adapt": 5084, 
  "architecture": 5085, 
  "urgently": 5086, 
  "guided": 5087, 
  "fly": 5088, 
  "(c@@": 5089, 
  "15th": 5090, 
  "pose": 5091, 
  "kang": 5092, 
  "gathered": 5093, 
  "peking": 5094, 
  "lighting": 5095, 
  "secretaries": 5096, 
  "vacancy": 5097, 
  "passports": 5098, 
  "author": 5099, 
  "resolving": 5100, 
  "cr@@": 5101, 
  "pork": 5102, 
  "petroleum": 5103, 
  "lap": 5104, 
  "prince": 5105, 
  "circular": 5106, 
  "stating": 5107, 
  "29@@": 5108, 
  "engaging": 5109, 
  "facilitating": 5110, 
  "kuan": 5111, 
  "15.@@": 5112, 
  "mature": 5113, 
  "concurrently": 5114, 
  "ji@@": 5115, 
  "watching": 5116, 
  "gate": 5117, 
  "pu": 5118, 
  "warnings": 5119, 
  "walking": 5120, 
  "j": 5121, 
  "institutional": 5122, 
  "intends": 5123, 
  "tie": 5124, 
  "sole": 5125, 
  "codes": 5126, 
  "restore": 5127, 
  "landing": 5128, 
  "20th": 5129, 
  "brother": 5130, 
  "prevailing": 5131, 
  "planting": 5132, 
  "ent": 5133, 
  "towns": 5134, 
  "twenty": 5135, 
  "noting": 5136, 
  "governance": 5137, 
  "assurance": 5138, 
  "110": 5139, 
  "lunch": 5140, 
  "mine": 5141, 
  "colour": 5142, 
  "briefly": 5143, 
  "propaganda": 5144, 
  "500,000": 5145, 
  "ti": 5146, 
  "et": 5147, 
  "combination": 5148, 
  "promised": 5149, 
  "museums": 5150, 
  "makers": 5151, 
  "approximately": 5152, 
  "hoi": 5153, 
  "shoulder": 5154, 
  "inward": 5155, 
  "poisons": 5156, 
  "tongue": 5157, 
  "xu": 5158, 
  "german": 5159, 
  "hearts": 5160, 
  "whichever": 5161, 
  "kinmen": 5162, 
  "yu@@": 5163, 
  "undoubtedly": 5164, 
  "id@@": 5165, 
  "economics": 5166, 
  "b)": 5167, 
  "str@@": 5168, 
  "www.@@": 5169, 
  "primarily": 5170, 
  "railways": 5171, 
  "contracted": 5172, 
  "skill": 5173, 
  "soviet": 5174, 
  "chong": 5175, 
  "announces": 5176, 
  "patrol": 5177, 
  "charitable": 5178, 
  "ber@@": 5179, 
  "diameter": 5180, 
  "auction": 5181, 
  "authorize": 5182, 
  "alert": 5183, 
  "freight": 5184, 
  "sal@@": 5185, 
  "suggests": 5186, 
  "americans": 5187, 
  "authorization": 5188, 
  "fairness": 5189, 
  "can@@": 5190, 
  "extending": 5191, 
  "har@@": 5192, 
  "counts": 5193, 
  "13.@@": 5194, 
  "thoughts": 5195, 
  "announce": 5196, 
  "demonstrations": 5197, 
  "hakka": 5198, 
  "associate": 5199, 
  "thirdly": 5200, 
  "com@@": 5201, 
  "mouth": 5202, 
  "images": 5203, 
  "infrastructural": 5204, 
  "jade": 5205, 
  "pedestrians": 5206, 
  "earn": 5207, 
  "processes": 5208, 
  "martial": 5209, 
  "scrutiny": 5210, 
  "resort": 5211, 
  "cooking": 5212, 
  "queensway": 5213, 
  "ten@@": 5214, 
  "begins": 5215, 
  "03": 5216, 
  "nominations": 5217, 
  "tabled": 5218, 
  "prohibit": 5219, 
  "9.@@": 5220, 
  "consists": 5221, 
  "institutes": 5222, 
  "addressing": 5223, 
  "agrees": 5224, 
  "sums": 5225, 
  "duration": 5226, 
  "smart": 5227, 
  "subsidies": 5228, 
  "abandoned": 5229, 
  "approached": 5230, 
  "helpers": 5231, 
  "tool": 5232, 
  "2.30": 5233, 
  "inevitable": 5234, 
  "ceased": 5235, 
  "descriptions": 5236, 
  "merger": 5237, 
  "describe": 5238, 
  "playground": 5239, 
  "assessing": 5240, 
  "unification": 5241, 
  "15%": 5242, 
  "lion": 5243, 
  "courage": 5244, 
  "pan": 5245, 
  "delete": 5246, 
  "officially": 5247, 
  "sincerely": 5248, 
  "go@@": 5249, 
  "twelve": 5250, 
  "vi@@": 5251, 
  "tools": 5252, 
  "hau": 5253, 
  "xi": 5254, 
  "ku": 5255, 
  "targeted": 5256, 
  "keen": 5257, 
  "color": 5258, 
  "disclose": 5259, 
  "elementary": 5260, 
  "keung": 5261, 
  "slip": 5262, 
  "delegates": 5263, 
  "tonnage": 5264, 
  "repeal": 5265, 
  "importantly": 5266, 
  "criticisms": 5267, 
  "handover": 5268, 
  "analysed": 5269, 
  "guest": 5270, 
  "td": 5271, 
  "henry": 5272, 
  "colleges": 5273, 
  "clothes": 5274, 
  "ugc": 5275, 
  "reaction": 5276, 
  "160": 5277, 
  "ba": 5278, 
  "ranking": 5279, 
  "pneumonia": 5280, 
  "relate": 5281, 
  "ments": 5282, 
  "stops": 5283, 
  "cultivation": 5284, 
  "classical": 5285, 
  "4,000": 5286, 
  "whereabouts": 5287, 
  "ton": 5288, 
  "corrupt": 5289, 
  "alleviate": 5290, 
  "blow": 5291, 
  "adpl": 5292, 
  "importing": 5293, 
  "pig": 5294, 
  "ser@@": 5295, 
  "expiration": 5296, 
  "shareholders": 5297, 
  "au@@": 5298, 
  "ised": 5299, 
  "vacant": 5300, 
  "ideals": 5301, 
  "widespread": 5302, 
  "assumed": 5303, 
  "acted": 5304, 
  "availability": 5305, 
  "troupe": 5306, 
  "water@@": 5307, 
  "nan": 5308, 
  "capabilities": 5309, 
  "rthk": 5310, 
  "sir": 5311, 
  "arrive": 5312, 
  "eve": 5313, 
  "ally": 5314, 
  "boys": 5315, 
  "70%": 5316, 
  "(sar)": 5317, 
  "buyers": 5318, 
  "filing": 5319, 
  "pu@@": 5320, 
  "ants": 5321, 
  "taught": 5322, 
  "attempted": 5323, 
  "behaviour": 5324, 
  "(ha)": 5325, 
  "seemed": 5326, 
  "bond": 5327, 
  "honest": 5328, 
  "ura": 5329, 
  "cancellation": 5330, 
  "celebration": 5331, 
  "legislators": 5332, 
  "renewed": 5333, 
  "tao": 5334, 
  "ors": 5335, 
  "employing": 5336, 
  "105": 5337, 
  "window": 5338, 
  "lifting": 5339, 
  "nets": 5340, 
  "─": 5341, 
  "ob@@": 5342, 
  "og@@": 5343, 
  "inflow": 5344, 
  "recommend": 5345, 
  "instituted": 5346, 
  "sugar": 5347, 
  "plenary": 5348, 
  "straight": 5349, 
  "entrepreneurs": 5350, 
  "investigated": 5351, 
  "crack": 5352, 
  "il": 5353, 
  "zhao": 5354, 
  "ni@@": 5355, 
  "netherlands": 5356, 
  "(epd)": 5357, 
  "2.5": 5358, 
  "viii": 5359, 
  "investing": 5360, 
  "multilateral": 5361, 
  "classification": 5362, 
  "realistic": 5363, 
  "indication": 5364, 
  "ter@@": 5365, 
  "inappropriate": 5366, 
  "stocks": 5367, 
  "16.@@": 5368, 
  "whereby": 5369, 
  "tend": 5370, 
  "interviewed": 5371, 
  "harmony": 5372, 
  "emerged": 5373, 
  "ours": 5374, 
  "aspirations": 5375, 
  "ge@@": 5376, 
  "referring": 5377, 
  "14.@@": 5378, 
  "mistakes": 5379, 
  "garrison": 5380, 
  "air@@": 5381, 
  "designate": 5382, 
  "controller": 5383, 
  "widening": 5384, 
  "privacy": 5385, 
  "sur@@": 5386, 
  "architectural": 5387, 
  "ance": 5388, 
  "e.g.": 5389, 
  "333": 5390, 
  "des": 5391, 
  "fewer": 5392, 
  "placement": 5393, 
  "18.@@": 5394, 
  "attracting": 5395, 
  "preservation": 5396, 
  "ising": 5397, 
  "ian": 5398, 
  "eligibility": 5399, 
  "reservoir": 5400, 
  "cabinet": 5401, 
  "corps": 5402, 
  "refuses": 5403, 
  "relieve": 5404, 
  "publicly": 5405, 
  "shun": 5406, 
  "supervisor": 5407, 
  "termination": 5408, 
  "hai": 5409, 
  "honor": 5410, 
  "concentrated": 5411, 
  "2nd": 5412, 
  "occurrence": 5413, 
  "undergo": 5414, 
  "ceiling": 5415, 
  "fuels": 5416, 
  "princess": 5417, 
  "contest": 5418, 
  "convey": 5419, 
  "organizing": 5420, 
  "xinjiang": 5421, 
  "relationships": 5422, 
  "reflecting": 5423, 
  "ce@@": 5424, 
  "construct": 5425, 
  "chuan": 5426, 
  "shelter": 5427, 
  "ep@@": 5428, 
  "wherever": 5429, 
  "regret": 5430, 
  "pao": 5431, 
  "fei": 5432, 
  "laughter": 5433, 
  "yip": 5434, 
  "circuit": 5435, 
  "barriers": 5436, 
  "dependent": 5437, 
  "beat": 5438, 
  "rch": 5439, 
  "runs": 5440, 
  "comprise": 5441, 
  "regulated": 5442, 
  "symptoms": 5443, 
  "split": 5444, 
  "oath": 5445, 
  "corridor": 5446, 
  "hundreds": 5447, 
  "visitor": 5448, 
  "aroused": 5449, 
  "indirectly": 5450, 
  "no.3": 5451, 
  "servant": 5452, 
  "pride": 5453, 
  "1st": 5454, 
  "undergoing": 5455, 
  "ngau": 5456, 
  "wi@@": 5457, 
  "pursuit": 5458, 
  "confirm": 5459, 
  "withdrawal": 5460, 
  "st": 5461, 
  "belong": 5462, 
  "harmful": 5463, 
  "massive": 5464, 
  "protest": 5465, 
  "burst": 5466, 
  "demolition": 5467, 
  "consents": 5468, 
  "youths": 5469, 
  "moderate": 5470, 
  "powell": 5471, 
  "bags": 5472, 
  "fs": 5473, 
  "casualties": 5474, 
  "enthusiastic": 5475, 
  "temples": 5476, 
  "i.": 5477, 
  "fuk": 5478, 
  "pledged": 5479, 
  "forever": 5480, 
  "remedial": 5481, 
  "ks": 5482, 
  "apartment": 5483, 
  "frozen": 5484, 
  "gallery": 5485, 
  "assured": 5486, 
  "protective": 5487, 
  "correctly": 5488, 
  "pools": 5489, 
  "we@@": 5490, 
  "revolutionary": 5491, 
  "careers": 5492, 
  "tibetan": 5493, 
  "terrorist": 5494, 
  "stars": 5495, 
  "mistake": 5496, 
  "debates": 5497, 
  "volunteer": 5498, 
  "indictment": 5499, 
  "soccer": 5500, 
  "dalai": 5501, 
  "enforced": 5502, 
  "concentration": 5503, 
  "posted": 5504, 
  "praised": 5505, 
  "heavily": 5506, 
  "proficiency": 5507, 
  "anson": 5508, 
  "maybe": 5509, 
  "npcsc": 5510, 
  "affects": 5511, 
  "aforesaid": 5512, 
  "spouse": 5513, 
  "afcd": 5514, 
  "di": 5515, 
  "underemployment": 5516, 
  "ns": 5517, 
  "realizing": 5518, 
  "om": 5519, 
  "highlight": 5520, 
  "sincerity": 5521, 
  "alcohol": 5522, 
  "seventh": 5523, 
  "roving": 5524, 
  "procession": 5525, 
  "completing": 5526, 
  "lastly": 5527, 
  "licensees": 5528, 
  "endangered": 5529, 
  "hoping": 5530, 
  "forthwith": 5531, 
  "finds": 5532, 
  "talented": 5533, 
  "describes": 5534, 
  "abusers": 5535, 
  "overnight": 5536, 
  "explosion": 5537, 
  "initially": 5538, 
  "unusual": 5539, 
  "seafarer": 5540, 
  "oc@@": 5541, 
  "infectious": 5542, 
  "advancement": 5543, 
  "onwards": 5544, 
  "disposed": 5545, 
  "ac": 5546, 
  "wooden": 5547, 
  "formula": 5548, 
  "toilet": 5549, 
  "expense": 5550, 
  "ology": 5551, 
  "conjunction": 5552, 
  "contrast": 5553, 
  "suspicious": 5554, 
  "nationalities": 5555, 
  "file": 5556, 
  "shift": 5557, 
  "panels": 5558, 
  "pursued": 5559, 
  "routine": 5560, 
  "delighted": 5561, 
  "sees": 5562, 
  "relaxed": 5563, 
  "la": 5564, 
  "ized": 5565, 
  "et@@": 5566, 
  "meantime": 5567, 
  "stoppage": 5568, 
  "indicators": 5569, 
  "inspectors": 5570, 
  "06": 5571, 
  "attain": 5572, 
  "ach@@": 5573, 
  "prizes": 5574, 
  "consulting": 5575, 
  "sciences": 5576, 
  "sts": 5577, 
  "farming": 5578, 
  "accelerate": 5579, 
  "respected": 5580, 
  "posting": 5581, 
  "watermains": 5582, 
  "offender": 5583, 
  "die": 5584, 
  "yourself": 5585, 
  "guaranteed": 5586, 
  "privileges": 5587, 
  "learnt": 5588, 
  "jen": 5589, 
  "5000": 5590, 
  "dealers": 5591, 
  "enables": 5592, 
  "terminus": 5593, 
  "maintains": 5594, 
  "sudden": 5595, 
  "pin": 5596, 
  "telling": 5597, 
  "betting": 5598, 
  "lowered": 5599, 
  "ideology": 5600, 
  "(ozp)": 5601, 
  "offshore": 5602, 
  "consolidate": 5603, 
  "assignment": 5604, 
  "aw@@": 5605, 
  "1999-2000": 5606, 
  "hsieh": 5607, 
  "132": 5608, 
  "bargaining": 5609, 
  "woo": 5610, 
  "holdings": 5611, 
  "effected": 5612, 
  "veterinary": 5613, 
  "donations": 5614, 
  "du@@": 5615, 
  "sick": 5616, 
  "ts@@": 5617, 
  "ence": 5618, 
  "30,000": 5619, 
  "specifications": 5620, 
  "mini": 5621, 
  "pen@@": 5622, 
  "diplomacy": 5623, 
  "nan@@": 5624, 
  "pitch": 5625, 
  "delivering": 5626, 
  "relying": 5627, 
  "04": 5628, 
  "7,@@": 5629, 
  "cu@@": 5630, 
  "pleaded": 5631, 
  "tes": 5632, 
  "prh": 5633, 
  "varied": 5634, 
  "cur@@": 5635, 
  "compare": 5636, 
  "fa": 5637, 
  "pharmaceutical": 5638, 
  "offensive": 5639, 
  "remark": 5640, 
  "102": 5641, 
  "hardship": 5642, 
  "belt": 5643, 
  "writer": 5644, 
  "livestock": 5645, 
  "anti@@": 5646, 
  "postmark": 5647, 
  "england": 5648, 
  "jung": 5649, 
  "(k)": 5650, 
  "140": 5651, 
  "earliest": 5652, 
  "striving": 5653, 
  "attempts": 5654, 
  "skin": 5655, 
  "stick": 5656, 
  "listened": 5657, 
  "od@@": 5658, 
  "surprise": 5659, 
  "obstacles": 5660, 
  "sed": 5661, 
  "reservation": 5662, 
  "intensify": 5663, 
  "plate": 5664, 
  "confrontation": 5665, 
  "infected": 5666, 
  "cemetery": 5667, 
  "res@@": 5668, 
  "thereon": 5669, 
  "steam": 5670, 
  "sorry": 5671, 
  "freely": 5672, 
  "pei": 5673, 
  "input": 5674, 
  "chancellor": 5675, 
  "hsiung": 5676, 
  "17.@@": 5677, 
  "ative": 5678, 
  "flyover": 5679, 
  "confined": 5680, 
  "iis": 5681, 
  "allocate": 5682, 
  "backing": 5683, 
  "refund": 5684, 
  "tu": 5685, 
  "graduated": 5686, 
  "empowered": 5687, 
  "tackling": 5688, 
  "pushing": 5689, 
  "8,@@": 5690, 
  "arduous": 5691, 
  "fer@@": 5692, 
  "unauthorized": 5693, 
  "lesson": 5694, 
  "aren": 5695, 
  "weapon": 5696, 
  "charter": 5697, 
  "divisions": 5698, 
  "assure": 5699, 
  "worthy": 5700, 
  "matsu": 5701, 
  "define": 5702, 
  "dignity": 5703, 
  "the@@": 5704, 
  "hennessy": 5705, 
  "ses": 5706, 
  "popularity": 5707, 
  "sustain": 5708, 
  "avian": 5709, 
  "forecasts": 5710, 
  "(f@@": 5711, 
  "tall": 5712, 
  "ou@@": 5713, 
  "severely": 5714, 
  "lying": 5715, 
  "arriving": 5716, 
  "manufactured": 5717, 
  "matching": 5718, 
  "tight": 5719, 
  "protocol": 5720, 
  "1969": 5721, 
  "stored": 5722, 
  "optimistic": 5723, 
  "regina": 5724, 
  "phil": 5725, 
  "no.@@": 5726, 
  "tennis": 5727, 
  "che@@": 5728, 
  "cooperate": 5729, 
  "travellers": 5730, 
  "disciplined": 5731, 
  "releases": 5732, 
  "ably": 5733, 
  "trans@@": 5734, 
  "divisional": 5735, 
  "advisers": 5736, 
  "lin@@": 5737, 
  "roll": 5738, 
  "erected": 5739, 
  "aggression": 5740, 
  "purchasing": 5741, 
  "betterment": 5742, 
  "lui": 5743, 
  "preserving": 5744, 
  "urbtix": 5745, 
  "180": 5746, 
  "luncheon": 5747, 
  "till": 5748, 
  "measuring": 5749, 
  "survive": 5750, 
  "sentences": 5751, 
  "chair": 5752, 
  "festive": 5753, 
  "deliberations": 5754, 
  "rear": 5755, 
  "fines": 5756, 
  "earnings": 5757, 
  "bag": 5758, 
  "atypical": 5759, 
  "pc": 5760, 
  "ality": 5761, 
  "meaningful": 5762, 
  "usage": 5763, 
  "symposium": 5764, 
  "guideline": 5765, 
  "wake": 5766, 
  "dare": 5767, 
  "newell": 5768, 
  "outflow": 5769, 
  "accord": 5770, 
  "artificial": 5771, 
  "alized": 5772, 
  "controversial": 5773, 
  "ordinate": 5774, 
  "fatf": 5775, 
  "george": 5776, 
  "likewise": 5777, 
  "shot": 5778, 
  "12@@": 5779, 
  "excluding": 5780, 
  "helpful": 5781, 
  "1980s": 5782, 
  "revise": 5783, 
  "outdoor": 5784, 
  "booklet": 5785, 
  "fulfill": 5786, 
  "confusion": 5787, 
  "liquidator": 5788, 
  "parliament": 5789, 
  "puts": 5790, 
  "ise": 5791, 
  "utmost": 5792, 
  "arena": 5793, 
  "foreigners": 5794, 
  "shi@@": 5795, 
  "tours": 5796, 
  "navigation": 5797, 
  "puc": 5798, 
  "mandarin": 5799, 
  "liquid": 5800, 
  "exceptional": 5801, 
  "cheong": 5802, 
  "cultures": 5803, 
  "thai": 5804, 
  "ing@@": 5805, 
  "viewed": 5806, 
  "indicating": 5807, 
  "everyday": 5808, 
  "ngos": 5809, 
  "gradual": 5810, 
  "1950": 5811, 
  "wash": 5812, 
  "funeral": 5813, 
  "proposing": 5814, 
  "countryside": 5815, 
  "cordial": 5816, 
  "pragmatic": 5817, 
  "auditor": 5818, 
  "pr@@": 5819, 
  "1.3": 5820, 
  "eng": 5821, 
  "electronics": 5822, 
  "principals": 5823, 
  "orientation": 5824, 
  "starts": 5825, 
  "soul": 5826, 
  "undermine": 5827, 
  "banquet": 5828, 
  "tier": 5829, 
  "radar": 5830, 
  "specialized": 5831, 
  "convictions": 5832, 
  "handicapped": 5833, 
  "taichung": 5834, 
  "keeps": 5835, 
  "losing": 5836, 
  "ins": 5837, 
  "exploring": 5838, 
  "ars": 5839, 
  "laying": 5840, 
  "toys": 5841, 
  "shoes": 5842, 
  "sau": 5843, 
  "115": 5844, 
  "communicate": 5845, 
  "asean": 5846, 
  "emotional": 5847, 
  "eggs": 5848, 
  "washing": 5849, 
  "earthquake": 5850, 
  "war@@": 5851, 
  "non@@": 5852, 
  "(fehd)": 5853, 
  "accepting": 5854, 
  "debtor": 5855, 
  "amid": 5856, 
  "ard": 5857, 
  "ammunition": 5858, 
  "dr@@": 5859, 
  "movies": 5860, 
  "gains": 5861, 
  "anticipated": 5862, 
  "expressing": 5863, 
  "may.": 5864, 
  "knowing": 5865, 
  "ct": 5866, 
  "rectification": 5867, 
  "ran": 5868, 
  "integrate": 5869, 
  "constituted": 5870, 
  "rush": 5871, 
  "ports": 5872, 
  "purely": 5873, 
  "firearms": 5874, 
  "pump": 5875, 
  "ren@@": 5876, 
  "mainlanders": 5877, 
  "israeli": 5878, 
  "dual": 5879, 
  "slowly": 5880, 
  "eng@@": 5881, 
  "san@@": 5882, 
  "fruits": 5883, 
  "featuring": 5884, 
  "hsing": 5885, 
  "bylaw": 5886, 
  "leads": 5887, 
  "valves": 5888, 
  "nuisance": 5889, 
  "gh@@": 5890, 
  "noticed": 5891, 
  "mainstream": 5892, 
  "resist": 5893, 
  "organising": 5894, 
  "pang": 5895, 
  "exported": 5896, 
  "clock": 5897, 
  "interactive": 5898, 
  "ats": 5899, 
  "haven": 5900, 
  "robust": 5901, 
  "stipulates": 5902, 
  "ics": 5903, 
  "emblem": 5904, 
  "tw@@": 5905, 
  "kennedy": 5906, 
  "ombudsman": 5907, 
  "adequately": 5908, 
  "responses": 5909, 
  "euro": 5910, 
  "ofta": 5911, 
  "19.@@": 5912, 
  "liquidity": 5913, 
  "plot": 5914, 
  "consequence": 5915, 
  "pop": 5916, 
  "furnished": 5917, 
  "consular": 5918, 
  "fitness": 5919, 
  "tseng": 5920, 
  "promise": 5921, 
  "chek": 5922, 
  "enjoying": 5923, 
  "convinced": 5924, 
  "selecting": 5925, 
  "scientists": 5926, 
  "tion": 5927, 
  "pigs": 5928, 
  "distinct": 5929, 
  "60%": 5930, 
  "prospective": 5931, 
  "ba@@": 5932, 
  "duplicate": 5933, 
  "imf": 5934, 
  "themes": 5935, 
  "disappointed": 5936, 
  "ay@@": 5937, 
  "install": 5938, 
  "xiamen": 5939, 
  "manufacturer": 5940, 
  "aboriginal": 5941, 
  "frontline": 5942, 
  "designation": 5943, 
  "hazards": 5944, 
  "impacts": 5945, 
  "constraints": 5946, 
  "terminals": 5947, 
  "restraint": 5948, 
  "elders": 5949, 
  "treasure": 5950, 
  "canadian": 5951, 
  "excellence": 5952, 
  "ish": 5953, 
  "repairs": 5954, 
  "1949": 5955, 
  "receives": 5956, 
  "manufactures": 5957, 
  "pursuance": 5958, 
  "conspiracy": 5959, 
  "down@@": 5960, 
  "ders": 5961, 
  "minimise": 5962, 
  "dioxide": 5963, 
  "hawkers": 5964, 
  "buddhism": 5965, 
  "answering": 5966, 
  "assign": 5967, 
  "upgraded": 5968, 
  "kau": 5969, 
  "up@@": 5970, 
  "judgement": 5971, 
  "recruit": 5972, 
  "ongoing": 5973, 
  "inconvenience": 5974, 
  "imagine": 5975, 
  "1-@@": 5976, 
  "furnish": 5977, 
  "bigger": 5978, 
  "lasting": 5979, 
  "forthcoming": 5980, 
  "fok": 5981, 
  "nonetheless": 5982, 
  "nobody": 5983, 
  "subsections": 5984, 
  "proactive": 5985, 
  "hd": 5986, 
  "80%": 5987, 
  "breaching": 5988, 
  "hidden": 5989, 
  "advancing": 5990, 
  "ary": 5991, 
  "tenth": 5992, 
  "gang": 5993, 
  "duo": 5994, 
  "gather": 5995, 
  "journalists": 5996, 
  "intense": 5997, 
  "subscription": 5998, 
  "25%": 5999, 
  "deterrent": 6000, 
  "consciousness": 6001, 
  "attitudes": 6002, 
  "ft": 6003, 
  "sc": 6004, 
  "telecom": 6005, 
  "stationed": 6006, 
  "6,000": 6007, 
  "gen@@": 6008, 
  "minimize": 6009, 
  "struck": 6010, 
  "extensively": 6011, 
  "packaging": 6012, 
  "seconds": 6013, 
  "desirable": 6014, 
  "cotton": 6015, 
  "enjoys": 6016, 
  "freedoms": 6017, 
  "fans": 6018, 
  "incoming": 6019, 
  "modifications": 6020, 
  "pan@@": 6021, 
  "'d": 6022, 
  "stayed": 6023, 
  "chairmen": 6024, 
  "juvenile": 6025, 
  "politicians": 6026, 
  "misleading": 6027, 
  "composed": 6028, 
  "deeper": 6029, 
  "expeditiously": 6030, 
  "criminals": 6031, 
  "sovereign": 6032, 
  "academia": 6033, 
  "coal": 6034, 
  "ering": 6035, 
  "quarry": 6036, 
  "sewerage": 6037, 
  "wasn": 6038, 
  "bulk": 6039, 
  "pressures": 6040, 
  "conveyed": 6041, 
  "relax": 6042, 
  "rivers": 6043, 
  "stopping": 6044, 
  "density": 6045, 
  "producer": 6046, 
  "revoked": 6047, 
  "calculation": 6048, 
  "enrolment": 6049, 
  "unwilling": 6050, 
  "40%": 6051, 
  "altogether": 6052, 
  "expressions": 6053, 
  "isolated": 6054, 
  "lake": 6055, 
  "relaxation": 6056, 
  "identifying": 6057, 
  "lodge": 6058, 
  "assisted": 6059, 
  "9,@@": 6060, 
  "af@@": 6061, 
  "gratitude": 6062, 
  "ink": 6063, 
  "finances": 6064, 
  "pensions": 6065, 
  "modes": 6066, 
  "2006": 6067, 
  "toilets": 6068, 
  "grading": 6069, 
  "*@@": 6070, 
  "strange": 6071, 
  "dismissed": 6072, 
  "yao": 6073, 
  "cadre": 6074, 
  "vulnerable": 6075, 
  "sealed": 6076, 
  "kao": 6077, 
  "letting": 6078, 
  "posters": 6079, 
  "latin": 6080, 
  "purchases": 6081, 
  "professions": 6082, 
  "zheng": 6083, 
  "iz@@": 6084, 
  "deepening": 6085, 
  "happens": 6086, 
  "rarely": 6087, 
  "0.3": 6088, 
  "rectify": 6089, 
  "positively": 6090, 
  "pakistan": 6091, 
  "dispose": 6092, 
  "8,000": 6093, 
  "200,000": 6094, 
  "straits": 6095, 
  "deliberately": 6096, 
  "tor@@": 6097, 
  "reiterate": 6098, 
  "inmates": 6099, 
  "(zxs)": 6100, 
  "tough": 6101, 
  "skilled": 6102, 
  "90%": 6103, 
  "timing": 6104, 
  "sister": 6105, 
  "enabled": 6106, 
  "responding": 6107, 
  "chambers": 6108, 
  "endorsement": 6109, 
  "exhibits": 6110, 
  "pledges": 6111, 
  "ju@@": 6112, 
  "federal": 6113, 
  "committing": 6114, 
  "recession": 6115, 
  "downloaded": 6116, 
  "utilization": 6117, 
  "burning": 6118, 
  "firemen": 6119, 
  "deepen": 6120, 
  "memory": 6121, 
  "variation": 6122, 
  "reinforce": 6123, 
  "conversion": 6124, 
  "vtc": 6125, 
  "automatically": 6126, 
  "clp": 6127, 
  "mok": 6128, 
  "tri@@": 6129, 
  "lowering": 6130, 
  "nos": 6131, 
  "incentive": 6132, 
  "usa": 6133, 
  "sand": 6134, 
  "checking": 6135, 
  "missions": 6136, 
  "raid": 6137, 
  "environmentally": 6138, 
  "res": 6139, 
  "portable": 6140, 
  "deploy": 6141, 
  "tens": 6142, 
  "sophisticated": 6143, 
  "loaded": 6144, 
  "innovations": 6145, 
  "eighth": 6146, 
  "joy": 6147, 
  "appliance": 6148, 
  "ble": 6149, 
  "lock": 6150, 
  "ldc": 6151, 
  "f)": 6152, 
  "profile": 6153, 
  "nowadays": 6154, 
  "ned": 6155, 
  "impressed": 6156, 
  "ruled": 6157, 
  "modified": 6158, 
  "incomes": 6159, 
  "extraordinary": 6160, 
  "destruction": 6161, 
  "imposing": 6162, 
  "monitored": 6163, 
  "compartment": 6164, 
  "hazard": 6165, 
  "elector": 6166, 
  "feedback": 6167, 
  "shau": 6168, 
  "(l)": 6169, 
  "bases": 6170, 
  "choosing": 6171, 
  "guesthouse": 6172, 
  "considerably": 6173, 
  "no.4": 6174, 
  "spirits": 6175, 
  "encouragement": 6176, 
  "wishing": 6177, 
  "bidding": 6178, 
  "happiness": 6179, 
  "gift": 6180, 
  "generate": 6181, 
  "mix": 6182, 
  "scenes": 6183, 
  "syndrome": 6184, 
  "diversity": 6185, 
  "tells": 6186, 
  "encounter": 6187, 
  "07": 6188, 
  "carpark": 6189, 
  "ously": 6190, 
  "comprised": 6191, 
  "complement": 6192, 
  "birthday": 6193, 
  "viewing": 6194, 
  "palestinian": 6195, 
  "erb": 6196, 
  "exhibit": 6197, 
  "liberalization": 6198, 
  "naval": 6199, 
  "lawfully": 6200, 
  "maturity": 6201, 
  "colony": 6202, 
  "mat@@": 6203, 
  "differ": 6204, 
  "chia": 6205, 
  "pages": 6206, 
  "validity": 6207, 
  "legally": 6208, 
  "floating": 6209, 
  "commencing": 6210, 
  "traditions": 6211, 
  "putonghua": 6212, 
  "amidst": 6213, 
  "engines": 6214, 
  "1.1": 6215, 
  "arouse": 6216, 
  "unlike": 6217, 
  "commended": 6218, 
  "ku@@": 6219, 
  "ambulance": 6220, 
  "privately": 6221, 
  "watches": 6222, 
  "bedspace": 6223, 
  "poetry": 6224, 
  "interviews": 6225, 
  "ilan": 6226, 
  "italy": 6227, 
  "politically": 6228, 
  "fault": 6229, 
  "attachment": 6230, 
  "(g@@": 6231, 
  "shrine": 6232, 
  "dynamic": 6233, 
  "cup": 6234, 
  "urgency": 6235, 
  "indecent": 6236, 
  "decisive": 6237, 
  "bo": 6238, 
  "du": 6239, 
  "risen": 6240, 
  "claimant": 6241, 
  "elsie": 6242, 
  "creditor": 6243, 
  "kit": 6244, 
  "da": 6245, 
  "lacking": 6246, 
  "entitlement": 6247, 
  "breakthrough": 6248, 
  "row": 6249, 
  "demanded": 6250, 
  "precautions": 6251, 
  "1911": 6252, 
  "wa@@": 6253, 
  "culprits": 6254, 
  "gl@@": 6255, 
  "tiger": 6256, 
  "packages": 6257, 
  "feed": 6258, 
  "speedpost": 6259, 
  "arrears": 6260, 
  "ceases": 6261, 
  "lab": 6262, 
  "mothers": 6263, 
  "sundays": 6264, 
  "sme": 6265, 
  "expenditures": 6266, 
  "d.": 6267, 
  "abolition": 6268, 
  "circle": 6269, 
  "conservative": 6270, 
  "morale": 6271, 
  "av@@": 6272, 
  "pok": 6273, 
  "flu": 6274, 
  "bars": 6275, 
  "authentic": 6276, 
  "fa@@": 6277, 
  "practicing": 6278, 
  "dumping": 6279, 
  "hsiang": 6280, 
  "mor@@": 6281, 
  "van": 6282, 
  "beds": 6283, 
  "guardian": 6284, 
  "recalls": 6285, 
  "precautionary": 6286, 
  "clarification": 6287, 
  "pretty": 6288, 
  "divorce": 6289, 
  "para": 6290, 
  "(lcsd)": 6291, 
  "infringement": 6292, 
  "searched": 6293, 
  "moneys": 6294, 
  "educated": 6295, 
  "sentiment": 6296, 
  "quantities": 6297, 
  "9009": 6298, 
  "dreams": 6299, 
  "inch": 6300, 
  "valued": 6301, 
  "assault": 6302, 
  "wh@@": 6303, 
  "conferences": 6304, 
  "passes": 6305, 
  "disasters": 6306, 
  "photography": 6307, 
  "nurses": 6308, 
  "super@@": 6309, 
  "invites": 6310, 
  "valve": 6311, 
  "incorporate": 6312, 
  "outlet": 6313, 
  "mentality": 6314, 
  "commenting": 6315, 
  "picked": 6316, 
  "der@@": 6317, 
  "1967": 6318, 
  "websites": 6319, 
  "seafood": 6320, 
  "ancestors": 6321, 
  "approaches": 6322, 
  "habits": 6323, 
  "ve@@": 6324, 
  "limitations": 6325, 
  "inclusion": 6326, 
  "reconnaissance": 6327, 
  "incidental": 6328, 
  "roof": 6329, 
  "faculty": 6330, 
  "professionalism": 6331, 
  "lord": 6332, 
  "improper": 6333, 
  "grace": 6334, 
  "shell": 6335, 
  "undergone": 6336, 
  "criterion": 6337, 
  "packed": 6338, 
  "zedong": 6339, 
  "lecture": 6340, 
  "advocate": 6341, 
  "scholar": 6342, 
  "clubs": 6343, 
  "bangzao": 6344, 
  "cultivate": 6345, 
  "lantern": 6346, 
  "destroy": 6347, 
  "backward": 6348, 
  "baseball": 6349, 
  "parade": 6350, 
  "quiet": 6351, 
  "reveal": 6352, 
  "merit": 6353, 
  "roa": 6354, 
  "lady": 6355, 
  "searching": 6356, 
  "bell": 6357, 
  "prompt": 6358, 
  "gratia": 6359, 
  "revocation": 6360, 
  "lacks": 6361, 
  "boiler": 6362, 
  "golf": 6363, 
  "den@@": 6364, 
  "haotian": 6365, 
  "criticize": 6366, 
  "staying": 6367, 
  "st.": 6368, 
  "diet": 6369, 
  "tap": 6370, 
  "ol": 6371, 
  "northeast": 6372, 
  "denied": 6373, 
  "unacceptable": 6374, 
  "her@@": 6375, 
  "ethics": 6376, 
  "classroom": 6377, 
  "collapse": 6378, 
  "ample": 6379, 
  "focusing": 6380, 
  "controversy": 6381, 
  "superior": 6382, 
  "league": 6383, 
  "walks": 6384, 
  "tainan": 6385, 
  "winds": 6386, 
  "violation": 6387, 
  "esd": 6388, 
  "jin": 6389, 
  "guns": 6390, 
  "intermediaries": 6391, 
  "taste": 6392, 
  "shu@@": 6393, 
  "renew": 6394, 
  "comparable": 6395, 
  "luo": 6396, 
  "ignored": 6397, 
  "pharmacy": 6398, 
  "ker": 6399, 
  "acquisition": 6400, 
  "speakers": 6401, 
  "1968": 6402, 
  "writers": 6403, 
  "paris": 6404, 
  "dedication": 6405, 
  "ches": 6406, 
  "audio": 6407, 
  "occurs": 6408, 
  "star@@": 6409, 
  "a.m.": 6410, 
  "tactics": 6411, 
  "diversified": 6412, 
  "payroll": 6413, 
  "viewpoint": 6414, 
  "slight": 6415, 
  "transmitted": 6416, 
  "theories": 6417, 
  "placing": 6418, 
  "hunting": 6419, 
  "worst": 6420, 
  "unlikely": 6421, 
  "indispensable": 6422, 
  "presiding": 6423, 
  "binding": 6424, 
  "chuang": 6425, 
  "truck": 6426, 
  "appealing": 6427, 
  "09": 6428, 
  "apparent": 6429, 
  "buddha": 6430, 
  "neighbors": 6431, 
  "1.6": 6432, 
  "bal@@": 6433, 
  "watertight": 6434, 
  "ingly": 6435, 
  "subvented": 6436, 
  "performers": 6437, 
  "substantive": 6438, 
  "08": 6439, 
  "passive": 6440, 
  "portfolio": 6441, 
  "interior": 6442, 
  "conspicuous": 6443, 
  "fied": 6444, 
  "replied": 6445, 
  "attempting": 6446, 
  "integral": 6447, 
  "izing": 6448, 
  "possessing": 6449, 
  "outer": 6450, 
  "restoration": 6451, 
  "outlined": 6452, 
  "sion": 6453, 
  "mi@@": 6454, 
  "lawyer": 6455, 
  "storey": 6456, 
  "quorum": 6457, 
  "blame": 6458, 
  "fruitful": 6459, 
  "lists": 6460, 
  "(i@@": 6461, 
  "disney": 6462, 
  "compromise": 6463, 
  "sin@@": 6464, 
  "resign": 6465, 
  "anxious": 6466, 
  "salisbury": 6467, 
  "halls": 6468, 
  "sen": 6469, 
  "prefer": 6470, 
  "pure": 6471, 
  "specialists": 6472, 
  "treating": 6473, 
  "106": 6474, 
  "hand@@": 6475, 
  "seng": 6476, 
  "gifts": 6477, 
  "thin": 6478, 
  "subsidized": 6479, 
  "offset": 6480, 
  "insurers": 6481, 
  "donation": 6482, 
  "speaker": 6483, 
  "whatsoever": 6484, 
  "guo": 6485, 
  "parliamentary": 6486, 
  "culprit": 6487, 
  "neglect": 6488, 
  "wouldn": 6489, 
  "tian": 6490, 
  "brilliant": 6491, 
  "downward": 6492, 
  "plates": 6493, 
  "kilometers": 6494, 
  "civilian": 6495, 
  "frank": 6496, 
  "(vi)": 6497, 
  "mexico": 6498, 
  "wales": 6499, 
  "123": 6500, 
  "explaining": 6501, 
  "negotiation": 6502, 
  "demanding": 6503, 
  "realization": 6504, 
  "adjudication": 6505, 
  "vincent": 6506, 
  "voyage": 6507, 
  "consequently": 6508, 
  "campus": 6509, 
  "shooting": 6510, 
  "pri@@": 6511, 
  "digest": 6512, 
  "editorial": 6513, 
  "cul@@": 6514, 
  "/96": 6515, 
  "ven@@": 6516, 
  "wan@@": 6517, 
  "millions": 6518, 
  "irrespective": 6519, 
  "surcharge": 6520, 
  "flushing": 6521, 
  "replies": 6522, 
  "est@@": 6523, 
  "0000": 6524, 
  "submarine": 6525, 
  "weekly": 6526, 
  "cre@@": 6527, 
  "p.m.": 6528, 
  "speculation": 6529, 
  "patterns": 6530, 
  "ked": 6531, 
  "caring": 6532, 
  "dancing": 6533, 
  "capita": 6534, 
  "calendar": 6535, 
  "fortunately": 6536, 
  "researchers": 6537, 
  "diverse": 6538, 
  "educate": 6539, 
  "tendering": 6540, 
  "coins": 6541, 
  "supplier": 6542, 
  "urges": 6543, 
  "fr@@": 6544, 
  "specification": 6545, 
  "supplement": 6546, 
  "tariff": 6547, 
  "visas": 6548, 
  "counties": 6549, 
  "um@@": 6550, 
  "debated": 6551, 
  "harder": 6552, 
  "executives": 6553, 
  "magic": 6554, 
  "1/@@": 6555, 
  "priorities": 6556, 
  "terrorism": 6557, 
  "sang": 6558, 
  "p)": 6559, 
  "ftu": 6560, 
  "dec@@": 6561, 
  "camera": 6562, 
  "checked": 6563, 
  "ingredients": 6564, 
  "cancel": 6565, 
  "defendants": 6566, 
  "presided": 6567, 
  "ize": 6568, 
  "willingness": 6569, 
  ".gov.hk": 6570, 
  "festivals": 6571, 
  "chi@@": 6572, 
  "forfeiture": 6573, 
  "1998-99": 6574, 
  "bur@@": 6575, 
  "misconduct": 6576, 
  "guarantees": 6577, 
  "phenomena": 6578, 
  "permanently": 6579, 
  "promulgated": 6580, 
  "expedient": 6581, 
  "identical": 6582, 
  "markedly": 6583, 
  "elect": 6584, 
  "reveals": 6585, 
  "unknown": 6586, 
  "securing": 6587, 
  "developer": 6588, 
  "restrict": 6589, 
  "viewers": 6590, 
  "avoided": 6591, 
  "therefor": 6592, 
  "1997-98": 6593, 
  "ines": 6594, 
  "reminds": 6595, 
  "sharply": 6596, 
  "ki": 6597, 
  "kun": 6598, 
  "styles": 6599, 
  "labelling": 6600, 
  "ward": 6601, 
  "claimants": 6602, 
  "casting": 6603, 
  "plain": 6604, 
  "10000": 6605, 
  "hsien": 6606, 
  "confidential": 6607, 
  "si": 6608, 
  "regrettably": 6609, 
  "ler": 6610, 
  "fled": 6611, 
  "evident": 6612, 
  "ty@@": 6613, 
  "calligraphy": 6614, 
  "memories": 6615, 
  "ups": 6616, 
  "contingent": 6617, 
  "pa": 6618, 
  "usable": 6619, 
  "fo@@": 6620, 
  "displays": 6621, 
  "mar": 6622, 
  "zeng": 6623, 
  "2-@@": 6624, 
  "ved": 6625, 
  "competitors": 6626, 
  "understands": 6627, 
  "neighbouring": 6628, 
  "ir": 6629, 
  "cautious": 6630, 
  "textbook": 6631, 
  "retailers": 6632, 
  "refugees": 6633, 
  "label": 6634, 
  "tzu": 6635, 
  "wen@@": 6636, 
  "conform": 6637, 
  "kuomintang": 6638, 
  "finish": 6639, 
  "utility": 6640, 
  "motive": 6641, 
  "efficiently": 6642, 
  "praise": 6643, 
  "qualities": 6644, 
  "overwhelming": 6645, 
  "bulkhead": 6646, 
  "depart": 6647, 
  "350": 6648, 
  "(n@@": 6649, 
  "economically": 6650, 
  "ancillary": 6651, 
  "justified": 6652, 
  "tly": 6653, 
  "ped": 6654, 
  "diamond": 6655, 
  "revenues": 6656, 
  "ud@@": 6657, 
  "voices": 6658, 
  "bro@@": 6659, 
  "aggrieved": 6660, 
  "seaborne": 6661, 
  "simultaneously": 6662, 
  "harmonious": 6663, 
  "imperative": 6664, 
  "apartments": 6665, 
  "deliberation": 6666, 
  "wanchai": 6667, 
  "del@@": 6668, 
  "burglary": 6669, 
  "knocked": 6670, 
  "constitutes": 6671, 
  "launches": 6672, 
  "refuge": 6673, 
  "voluntarily": 6674, 
  "adversely": 6675, 
  "windows": 6676, 
  "demonstrates": 6677, 
  "pushed": 6678, 
  "grams": 6679, 
  "mapping": 6680, 
  "encourages": 6681, 
  "reconstruction": 6682, 
  "appropriation": 6683, 
  "parked": 6684, 
  "burdens": 6685, 
  "hsueh": 6686, 
  "systematic": 6687, 
  "cool": 6688, 
  "yugoslavia": 6689, 
  "supportive": 6690, 
  "litigation": 6691, 
  "comfortable": 6692, 
  "chest": 6693, 
  "and@@": 6694, 
  "interpret": 6695, 
  "altered": 6696, 
  "0%": 6697, 
  "head@@": 6698, 
  "emerge": 6699, 
  "(t@@": 6700, 
  "ley": 6701, 
  "conventional": 6702, 
  "kill": 6703, 
  "opposes": 6704, 
  "accreditation": 6705, 
  "directorate": 6706, 
  "dental": 6707, 
  "chronic": 6708, 
  "assessments": 6709, 
  "paradise": 6710, 
  "effluent": 6711, 
  "(d@@": 6712, 
  "prescribe": 6713, 
  "removing": 6714, 
  "queries": 6715, 
  "childhood": 6716, 
  "eleven": 6717, 
  "surprised": 6718, 
  "excluded": 6719, 
  "conditioning": 6720, 
  "cults": 6721, 
  "mak": 6722, 
  "concessionary": 6723, 
  "shiu": 6724, 
  "ung": 6725, 
  "conclude": 6726, 
  "hsinchu": 6727, 
  "revoke": 6728, 
  "currencies": 6729, 
  "0.5%": 6730, 
  "fix": 6731, 
  "abundant": 6732, 
  "chemicals": 6733, 
  "declarations": 6734, 
  "projected": 6735, 
  "yat": 6736, 
  "incorporating": 6737, 
  "lifted": 6738, 
  "medal": 6739, 
  "devote": 6740, 
  "chu@@": 6741, 
  "imperial": 6742, 
  "republican": 6743, 
  "hainan": 6744, 
  "accelerated": 6745, 
  "relocation": 6746, 
  "sm@@": 6747, 
  "prolonged": 6748, 
  "ets": 6749, 
  "tied": 6750, 
  "deleting": 6751, 
  "wording": 6752, 
  "partial": 6753, 
  "comparatively": 6754, 
  "incentives": 6755, 
  "informal": 6756, 
  "tac": 6757, 
  "{": 6758, 
  "quarantine": 6759, 
  "1970s": 6760, 
  "absent": 6761, 
  "logic": 6762, 
  "commented": 6763, 
  "50@@": 6764, 
  "inclusive": 6765, 
  "obstruction": 6766, 
  "gs": 6767, 
  "sen@@": 6768, 
  "ay": 6769, 
  "chim": 6770, 
  "presently": 6771, 
  "breathing": 6772, 
  "adjusting": 6773, 
  "lucky": 6774, 
  "winner": 6775, 
  "calm": 6776, 
  "zero": 6777, 
  "interface": 6778, 
  "firing": 6779, 
  "anthony": 6780, 
  "punished": 6781, 
  "beg": 6782, 
  "amounting": 6783, 
  "discover": 6784, 
  "followers": 6785, 
  "officiating": 6786, 
  "dramatic": 6787, 
  "inconsistent": 6788, 
  "linking": 6789, 
  "invention": 6790, 
  "103": 6791, 
  "cor@@": 6792, 
  "benefited": 6793, 
  "connections": 6794, 
  "disseminate": 6795, 
  "quoted": 6796, 
  "campaigns": 6797, 
  "preserved": 6798, 
  "acknowledged": 6799, 
  "generality": 6800, 
  "renovation": 6801, 
  "adds": 6802, 
  "obliged": 6803, 
  "chances": 6804, 
  "resignation": 6805, 
  "camps": 6806, 
  "mere": 6807, 
  "boilers": 6808, 
  "satellites": 6809, 
  "jo@@": 6810, 
  "symbol": 6811, 
  "numbered": 6812, 
  "surrounded": 6813, 
  "e.": 6814, 
  "xiang": 6815, 
  "pin@@": 6816, 
  "spite": 6817, 
  "exclusively": 6818, 
  "attraction": 6819, 
  "heated": 6820, 
  "rainstorm": 6821, 
  "scored": 6822, 
  "heng": 6823, 
  "posed": 6824, 
  "specifying": 6825, 
  "u.s.": 6826, 
  "lanes": 6827, 
  "reflection": 6828, 
  "mp@@": 6829, 
  "sorts": 6830, 
  "hy@@": 6831, 
  "lifestyle": 6832, 
  "impetus": 6833, 
  "(s@@": 6834, 
  "reject": 6835, 
  "officio": 6836, 
  "labels": 6837, 
  "tendency": 6838, 
  "%": 6839, 
  "welcoming": 6840, 
  "insert": 6841, 
  "mo": 6842, 
  "ball": 6843, 
  "trials": 6844, 
  "violating": 6845, 
  "113": 6846, 
  "bounded": 6847, 
  "ge": 6848, 
  "painful": 6849, 
  "attacked": 6850, 
  "ization": 6851, 
  "practise": 6852, 
  "qi": 6853, 
  "lovers": 6854, 
  "litter": 6855, 
  "heed": 6856, 
  "audiences": 6857, 
  "lockhart": 6858, 
  "subjected": 6859, 
  "commemorate": 6860, 
  "pat": 6861, 
  "feeding": 6862, 
  "substitute": 6863, 
  "ly@@": 6864, 
  "fierce": 6865, 
  "consolidation": 6866, 
  "utilities": 6867, 
  "scholarship": 6868, 
  "plaintiff": 6869, 
  "surgery": 6870, 
  "trader": 6871, 
  "los": 6872, 
  "cleared": 6873, 
  "roasting": 6874, 
  "java": 6875, 
  "1990s": 6876, 
  "milestone": 6877, 
  "minded": 6878, 
  "bylaws": 6879, 
  "competency": 6880, 
  "sweet": 6881, 
  "rowse": 6882, 
  "owed": 6883, 
  "symphony": 6884, 
  "deterioration": 6885, 
  "pai": 6886, 
  "(hksar)": 6887, 
  "200@@": 6888, 
  "hsi@@": 6889, 
  "reliance": 6890, 
  "tension": 6891, 
  "remedy": 6892, 
  "approaching": 6893, 
  "intermediate": 6894, 
  "workload": 6895, 
  "deduction": 6896, 
  "landfills": 6897, 
  "outlying": 6898, 
  "tuition": 6899, 
  "substituted": 6900, 
  "emphasised": 6901, 
  "1.7": 6902, 
  "harbor": 6903, 
  "accountants": 6904, 
  "2007": 6905, 
  "underlying": 6906, 
  "seasonal": 6907, 
  "delegate": 6908, 
  "pct": 6909, 
  "wn": 6910, 
  "bilingual": 6911, 
  "seafarers": 6912, 
  "leaflet": 6913, 
  "adjourn": 6914, 
  "alter": 6915, 
  "sol@@": 6916, 
  "banned": 6917, 
  "acknowledge": 6918, 
  "enclosed": 6919, 
  "colors": 6920, 
  "saved": 6921, 
  "rainfall": 6922, 
  "40,000": 6923, 
  "readings": 6924, 
  "1965": 6925, 
  "post@@": 6926, 
  "coordinated": 6927, 
  "ati@@": 6928, 
  "win@@": 6929, 
  "complies": 6930, 
  "hosting": 6931, 
  "postage": 6932, 
  "mui": 6933, 
  "foodstuffs": 6934, 
  "broadly": 6935, 
  "lively": 6936, 
  "enact": 6937, 
  "afd": 6938, 
  "generating": 6939, 
  "dc": 6940, 
  "surrendered": 6941, 
  "terminate": 6942, 
  "observations": 6943, 
  "bridges": 6944, 
  "3.5": 6945, 
  "cyber": 6946, 
  "brothers": 6947, 
  "sichuan": 6948, 
  "sons": 6949, 
  "print": 6950, 
  "lifeboat": 6951, 
  "frontier": 6952, 
  "wise": 6953, 
  "delayed": 6954, 
  "exploration": 6955, 
  "tablets": 6956, 
  "prospect": 6957, 
  "reverse": 6958, 
  "(o)": 6959, 
  "tears": 6960, 
  "wedding": 6961, 
  "settling": 6962, 
  "cuts": 6963, 
  "arises": 6964, 
  "influenced": 6965, 
  "enters": 6966, 
  "wa": 6967, 
  "recovering": 6968, 
  "summonses": 6969, 
  "bears": 6970, 
  "sk@@": 6971, 
  "p.@@": 6972, 
  "substituting": 6973, 
  "tom@@": 6974, 
  "superiority": 6975, 
  "landlord": 6976, 
  "accomplished": 6977, 
  "karaoke": 6978, 
  "112": 6979, 
  "negatived": 6980, 
  "anywhere": 6981, 
  "www.info.gov.hk/@@": 6982, 
  "laden": 6983, 
  "emerging": 6984, 
  "knife": 6985, 
  "6-@@": 6986, 
  "insist": 6987, 
  "prosecute": 6988, 
  "threatened": 6989, 
  "1962": 6990, 
  "investor": 6991, 
  "mau": 6992, 
  "spreading": 6993, 
  "scenery": 6994, 
  "submitting": 6995, 
  "warmly": 6996, 
  "retaining": 6997, 
  "independently": 6998, 
  "interaction": 6999, 
  "trio": 7000, 
  "warrants": 7001, 
  "destinations": 7002, 
  "o)": 7003, 
  "coloured": 7004, 
  "administer": 7005, 
  "insolvency": 7006, 
  "monopoly": 7007, 
  "technique": 7008, 
  "supplying": 7009, 
  "1.4": 7010, 
  "impaired": 7011, 
  "toxic": 7012, 
  "modification": 7013, 
  "blitz": 7014, 
  "alike": 7015, 
  "violent": 7016, 
  "pricing": 7017, 
  "distant": 7018, 
  "advocated": 7019, 
  "forests": 7020, 
  "dong": 7021, 
  "lanqing": 7022, 
  "violated": 7023, 
  "evaluate": 7024, 
  "ignore": 7025, 
  "octopus": 7026, 
  "pal@@": 7027, 
  "tdc": 7028, 
  "distress": 7029, 
  "wilfully": 7030, 
  "gong": 7031, 
  "celebrations": 7032, 
  "declining": 7033, 
  "plenty": 7034, 
  "delineated": 7035, 
  "meal": 7036, 
  "airline": 7037, 
  "recruited": 7038, 
  "fulfilled": 7039, 
  "ched": 7040, 
  "jury": 7041, 
  "urging": 7042, 
  "goodwill": 7043, 
  "persist": 7044, 
  "ze": 7045, 
  "gender": 7046, 
  "arranging": 7047, 
  "enforcing": 7048, 
  "pumping": 7049, 
  "piano": 7050, 
  "contractual": 7051, 
  "expedite": 7052, 
  "chose": 7053, 
  "dust": 7054, 
  "supervise": 7055, 
  "borrow": 7056, 
  "chin@@": 7057, 
  "consequential": 7058, 
  "ess": 7059, 
  "t.": 7060, 
  "avoidance": 7061, 
  "convened": 7062, 
  "des@@": 7063, 
  "sounds": 7064, 
  "prerequisite": 7065, 
  "shore": 7066, 
  "2008": 7067, 
  "satisfactorily": 7068, 
  "platforms": 7069, 
  "studio": 7070, 
  "commend": 7071, 
  "belongs": 7072, 
  "ster": 7073, 
  "recipient": 7074, 
  "hurt": 7075, 
  "fundamentally": 7076, 
  "definite": 7077, 
  "sive": 7078, 
  "exciting": 7079, 
  "seeds": 7080, 
  "concerts": 7081, 
  "registers": 7082, 
  "fitting": 7083, 
  "shirt": 7084, 
  "renminbi": 7085, 
  "patten": 7086, 
  "hkta": 7087, 
  "fying": 7088, 
  "shuttle": 7089, 
  "aw": 7090, 
  "drew": 7091, 
  "allies": 7092, 
  "determines": 7093, 
  "contributing": 7094, 
  "score": 7095, 
  "accompanying": 7096, 
  "cigarette": 7097, 
  "pot": 7098, 
  "impressive": 7099, 
  "abolished": 7100, 
  "uncertainty": 7101, 
  "consolidated": 7102, 
  "vertical": 7103, 
  "deleted": 7104, 
  "0.3%": 7105, 
  "fires": 7106, 
  "governed": 7107, 
  "complexity": 7108, 
  "pol@@": 7109, 
  "aging": 7110, 
  "solemn": 7111, 
  "subvention": 7112, 
  "anyway": 7113, 
  "consisting": 7114, 
  "exhibited": 7115, 
  "touched": 7116, 
  "57@@": 7117, 
  "sch@@": 7118, 
  "attributed": 7119, 
  "col@@": 7120, 
  "titles": 7121, 
  "homicide": 7122, 
  "bottles": 7123, 
  "poisoning": 7124, 
  "bold": 7125, 
  "tal@@": 7126, 
  "hal@@": 7127, 
  "22.@@": 7128, 
  "vigilance": 7129, 
  "catholic": 7130, 
  "hardware": 7131, 
  "sacred": 7132, 
  "exporting": 7133, 
  "credibility": 7134, 
  "threats": 7135, 
  "greetings": 7136, 
  "crux": 7137, 
  "deals": 7138, 
  "turtle": 7139, 
  "m.": 7140, 
  "highlighted": 7141, 
  "inert": 7142, 
  "acid": 7143, 
  "preferential": 7144, 
  "sydney": 7145, 
  "intensified": 7146, 
  "organizational": 7147, 
  "1948": 7148, 
  "secrets": 7149, 
  "shadow": 7150, 
  "blackspots": 7151, 
  "maps": 7152, 
  "habit": 7153, 
  "bel@@": 7154, 
  "dismissal": 7155, 
  "barrister": 7156, 
  "layout": 7157, 
  "hksarg": 7158, 
  "100%": 7159, 
  "1.8": 7160, 
  "continuity": 7161, 
  "accorded": 7162, 
  "disc": 7163, 
  "connecting": 7164, 
  "ple@@": 7165, 
  "sampling": 7166, 
  "necessity": 7167, 
  "forgotten": 7168, 
  "mil@@": 7169, 
  "publishers": 7170, 
  "experimental": 7171, 
  "psychotropic": 7172, 
  "northwest": 7173, 
  "guards": 7174, 
  "suffrage": 7175, 
  "jia": 7176, 
  "luck": 7177, 
  "button": 7178, 
  "oc": 7179, 
  "illnesses": 7180, 
  "moscow": 7181, 
  "coordinate": 7182, 
  "tribute": 7183, 
  "worship": 7184, 
  "dai": 7185, 
  "indirect": 7186, 
  "negotiate": 7187, 
  "highlights": 7188, 
  "fulfil": 7189, 
  "tolls": 7190, 
  "reaches": 7191, 
  "arm": 7192, 
  "101": 7193, 
  "vaccination": 7194, 
  "300,000": 7195, 
  "nitrogen": 7196, 
  "thirty": 7197, 
  "jordan": 7198, 
  "attractions": 7199, 
  "170": 7200, 
  "infringing": 7201, 
  "conclusions": 7202, 
  "no.1": 7203, 
  "gods": 7204, 
  "brokers": 7205, 
  "replacing": 7206, 
  "30@@": 7207, 
  "m2": 7208, 
  "compact": 7209, 
  "contravened": 7210, 
  "garments": 7211, 
  "accomplish": 7212, 
  "m3": 7213, 
  "banner": 7214, 
  "val@@": 7215, 
  "expressly": 7216, 
  "audited": 7217, 
  "sufficiently": 7218, 
  "lily": 7219, 
  "ious": 7220, 
  "striking": 7221, 
  "cal@@": 7222, 
  "foreshore": 7223, 
  "rateable": 7224, 
  "landfill": 7225, 
  "graduation": 7226, 
  "pretext": 7227, 
  "leveraged": 7228, 
  "surveyed": 7229, 
  "cm": 7230, 
  "hualien": 7231, 
  "jul": 7232, 
  "vigilant": 7233, 
  "ware": 7234, 
  "jewellery": 7235, 
  "adapted": 7236, 
  "forty": 7237, 
  "struggles": 7238, 
  "accountant": 7239, 
  "reforming": 7240, 
  "wireless": 7241, 
  "lectures": 7242, 
  "verbal": 7243, 
  "giant": 7244, 
  "apr": 7245, 
  "stones": 7246, 
  "iso": 7247, 
  "modest": 7248, 
  "ruihuan": 7249, 
  "proves": 7250, 
  "0.4": 7251, 
  "carcasses": 7252, 
  "blueprint": 7253, 
  "pack": 7254, 
  "accurately": 7255, 
  "countless": 7256, 
  "f.": 7257, 
  "tube": 7258, 
  "dissemination": 7259, 
  "fired": 7260, 
  "upheld": 7261, 
  "streamlining": 7262, 
  "wished": 7263, 
  "crowds": 7264, 
  "councillors": 7265, 
  "lip": 7266, 
  "error": 7267, 
  "patents": 7268, 
  "weighing": 7269, 
  "7.30": 7270, 
  "defects": 7271, 
  "gar@@": 7272, 
  "expectation": 7273, 
  "ak@@": 7274, 
  "distribute": 7275, 
  "promises": 7276, 
  "mu": 7277, 
  "csd": 7278, 
  "stri@@": 7279, 
  "formerly": 7280, 
  "premiums": 7281, 
  "/97": 7282, 
  "administered": 7283, 
  "explosives": 7284, 
  "refusing": 7285, 
  "ving": 7286, 
  "constructing": 7287, 
  "fsd": 7288, 
  "olympics": 7289, 
  "explanations": 7290, 
  "ths": 7291, 
  "inf@@": 7292, 
  "commissioning": 7293, 
  "super": 7294, 
  "emphasizes": 7295, 
  "cape": 7296, 
  "shue": 7297, 
  "uncertain": 7298, 
  "back@@": 7299, 
  "5-@@": 7300, 
  "occupier": 7301, 
  "spectrum": 7302, 
  "hiring": 7303, 
  "professors": 7304, 
  "cure": 7305, 
  "lend": 7306, 
  "desired": 7307, 
  "decides": 7308, 
  "multinational": 7309, 
  "comfort": 7310, 
  "sleep": 7311, 
  "contaminated": 7312, 
  "ai@@": 7313, 
  "refrain": 7314, 
  "frankly": 7315, 
  "amusement": 7316, 
  "geneva": 7317, 
  "12%": 7318, 
  "varieties": 7319, 
  "ming@@": 7320, 
  "ascertained": 7321, 
  "indicator": 7322, 
  "photograph": 7323, 
  "abandon": 7324, 
  "alive": 7325, 
  "(q)": 7326, 
  "flavor": 7327, 
  "relied": 7328, 
  "streamline": 7329, 
  "ther@@": 7330, 
  "produces": 7331, 
  "ambassadors": 7332, 
  "crowded": 7333, 
  "ens": 7334, 
  "(m)": 7335, 
  "cumulative": 7336, 
  "revising": 7337, 
  "4th": 7338, 
  "confiscation": 7339, 
  "hao": 7340, 
  "cleanliness": 7341, 
  "que": 7342, 
  "scenic": 7343, 
  "domain": 7344, 
  "ear": 7345, 
  "gulf": 7346, 
  "ki@@": 7347, 
  "ery": 7348, 
  "ards": 7349, 
  "tolerate": 7350, 
  "deed": 7351, 
  "affirmed": 7352, 
  "0.5": 7353, 
  "simplified": 7354, 
  "converted": 7355, 
  "neglected": 7356, 
  "diversions": 7357, 
  "decoration": 7358, 
  "chang@@": 7359, 
  "therapy": 7360, 
  "thick": 7361, 
  "chuk": 7362, 
  "expired": 7363, 
  "wound": 7364, 
  "prosecutors": 7365, 
  "ner": 7366, 
  "hotlines": 7367, 
  "bul@@": 7368, 
  "tors": 7369, 
  "patience": 7370, 
  "appropriately": 7371, 
  "waterfront": 7372, 
  "yearly": 7373, 
  "succeeded": 7374, 
  "jail": 7375, 
  "migrants": 7376, 
  "sun@@": 7377, 
  "presenting": 7378, 
  "4-@@": 7379, 
  "affair": 7380, 
  "tape": 7381, 
  "musicians": 7382, 
  "23.@@": 7383, 
  "hor@@": 7384, 
  "form@@": 7385, 
  "organic": 7386, 
  "kg": 7387, 
  "dozen": 7388, 
  "california": 7389, 
  "vi": 7390, 
  "dy": 7391, 
  "gun": 7392, 
  "immunity": 7393, 
  "explicitly": 7394, 
  "immigrant": 7395, 
  "gateway": 7396, 
  "liquefied": 7397, 
  "atory": 7398, 
  "ot@@": 7399, 
  "planted": 7400, 
  "2527": 7401, 
  "qin": 7402, 
  "fittings": 7403, 
  "wastes": 7404, 
  "aborigines": 7405, 
  "disparity": 7406, 
  "fugitive": 7407, 
  "sticks": 7408, 
  "porcelain": 7409, 
  "chaos": 7410, 
  "stipulations": 7411, 
  "competing": 7412, 
  "novel": 7413, 
  "happening": 7414, 
  "2.5%": 7415, 
  "characteristic": 7416, 
  "honoured": 7417, 
  "27.@@": 7418, 
  "ises": 7419, 
  "palestine": 7420, 
  "24.@@": 7421, 
  "readjustment": 7422, 
  "verification": 7423, 
  "brazil": 7424, 
  "114": 7425, 
  "trail": 7426, 
  "elimination": 7427, 
  "fighter": 7428, 
  "104": 7429, 
  "disqualified": 7430, 
  "shouldn": 7431, 
  "inches": 7432, 
  "reminder": 7433, 
  "misunderstanding": 7434, 
  "ye": 7435, 
  "150,000": 7436, 
  "fin@@": 7437, 
  "monument": 7438, 
  "0.4%": 7439, 
  "documentary": 7440, 
  "intervene": 7441, 
  "ff@@": 7442, 
  "equitable": 7443, 
  "honorary": 7444, 
  "appendix": 7445, 
  "counters": 7446, 
  "kwu": 7447, 
  "enrolled": 7448, 
  "1998/99": 7449, 
  "safely": 7450, 
  "lightly": 7451, 
  "prevented": 7452, 
  "physically": 7453, 
  "na@@": 7454, 
  "sanitary": 7455, 
  "counter@@": 7456, 
  "phrase": 7457, 
  "breast": 7458, 
  "w.": 7459, 
  "chairperson": 7460, 
  "supervisors": 7461, 
  "mount": 7462, 
  "suited": 7463, 
  "pntr": 7464, 
  "nai": 7465, 
  "bronze": 7466, 
  "questioned": 7467, 
  "announcing": 7468, 
  "fake": 7469, 
  "ry": 7470, 
  "smuggled": 7471, 
  "covenants": 7472, 
  "vegetable": 7473, 
  "accuracy": 7474, 
  "ordinating": 7475, 
  "premise": 7476, 
  "mou": 7477, 
  "ill@@": 7478, 
  "fronts": 7479, 
  "kilometres": 7480, 
  "abm": 7481, 
  "hoc": 7482, 
  "loving": 7483, 
  "liberalisation": 7484, 
  "ballet": 7485, 
  "producers": 7486, 
  "curb": 7487, 
  "hay": 7488, 
  "prohibiting": 7489, 
  "antly": 7490, 
  "t)": 7491, 
  "briefings": 7492, 
  "drastic": 7493, 
  "patrick": 7494, 
  "cables": 7495, 
  "throw": 7496, 
  "ecology": 7497, 
  "lamp": 7498, 
  "bulkheads": 7499, 
  "pillar": 7500, 
  "complainant": 7501, 
  "dutch": 7502, 
  "chatham": 7503, 
  "earning": 7504, 
  "thirds": 7505, 
  "dan": 7506, 
  "majesty": 7507, 
  "needy": 7508, 
  "bao": 7509, 
  "insofar": 7510, 
  "han@@": 7511, 
  "weekend": 7512, 
  "openness": 7513, 
  "cheap": 7514, 
  "jailed": 7515, 
  "dies": 7516, 
  "pointing": 7517, 
  "measurement": 7518, 
  "announcements": 7519, 
  "racial": 7520, 
  "lifts": 7521, 
  "ducks": 7522, 
  "rigorous": 7523, 
  "ef@@": 7524, 
  "eliminated": 7525, 
  "directs": 7526, 
  "tanker": 7527, 
  "kiu": 7528, 
  "gao": 7529, 
  "painted": 7530, 
  "spotted": 7531, 
  "challenging": 7532, 
  "fighters": 7533, 
  "safeguards": 7534, 
  "smile": 7535, 
  "imminent": 7536, 
  "favor": 7537, 
  "qualifying": 7538, 
  "undesirable": 7539, 
  "picking": 7540, 
  "usd": 7541, 
  "drafted": 7542, 
  "h.": 7543, 
  "defeat": 7544, 
  "fy": 7545, 
  "374": 7546, 
  "affordable": 7547, 
  "argue": 7548, 
  "11%": 7549, 
  "wu@@": 7550, 
  "operative": 7551, 
  "conveyance": 7552, 
  "sd": 7553, 
  "riding": 7554, 
  "1.5%": 7555, 
  "11@@": 7556, 
  "repatriation": 7557, 
  "ver": 7558, 
  "(h@@": 7559, 
  "clarified": 7560, 
  "ordinarily": 7561, 
  "origins": 7562, 
  "raids": 7563, 
  "drought": 7564, 
  "keynote": 7565, 
  "pull": 7566, 
  "intensity": 7567, 
  "hiv": 7568, 
  "quote": 7569, 
  "1955": 7570, 
  "conductor": 7571, 
  "cen@@": 7572, 
  "matches": 7573, 
  "mary": 7574, 
  "dly": 7575, 
  "conscious": 7576, 
  "shark": 7577, 
  "cum": 7578, 
  "micro@@": 7579, 
  "ballast": 7580, 
  "unanimously": 7581, 
  "lets": 7582, 
  "evolution": 7583, 
  "regiment": 7584, 
  "med@@": 7585, 
  "tk": 7586, 
  "220": 7587, 
  "9.30": 7588, 
  "cuba": 7589, 
  "loc@@": 7590, 
  "originating": 7591, 
  "kuk": 7592, 
  "vacation": 7593, 
  "analyses": 7594, 
  "retire": 7595, 
  "ils": 7596, 
  "schooling": 7597, 
  "correction": 7598, 
  "lamma": 7599, 
  "caroline": 7600, 
  "25.@@": 7601, 
  "cultivating": 7602, 
  "glorious": 7603, 
  "pac": 7604, 
  "cyd": 7605, 
  "rec@@": 7606, 
  "unexpected": 7607, 
  "isolation": 7608, 
  "1960s": 7609, 
  "0,000": 7610, 
  "readiness": 7611, 
  "56@@": 7612, 
  "motorcycle": 7613, 
  "tor": 7614, 
  "existed": 7615, 
  "grey": 7616, 
  "tation": 7617, 
  "bomb": 7618, 
  "appointing": 7619, 
  "ei": 7620, 
  "racing": 7621, 
  "ite": 7622, 
  "sponsorship": 7623, 
  "ventures": 7624, 
  "turnover": 7625, 
  "balances": 7626, 
  "treasures": 7627, 
  "saturdays": 7628, 
  "genetic": 7629, 
  "supposed": 7630, 
  "discharging": 7631, 
  "incumbent": 7632, 
  "tariffs": 7633, 
  "ngan": 7634, 
  "rom": 7635, 
  "allegation": 7636, 
  "cha": 7637, 
  "szeto": 7638, 
  "exert": 7639, 
  "kmb": 7640, 
  "zh@@": 7641, 
  "sa": 7642, 
  "routed": 7643, 
  "fundamentals": 7644, 
  "insider": 7645, 
  "pertaining": 7646, 
  "inquiries": 7647, 
  "(p)": 7648, 
  "coupled": 7649, 
  "drain": 7650, 
  "gaining": 7651, 
  "ms.": 7652, 
  "reductions": 7653, 
  "expresses": 7654, 
  "foundations": 7655, 
  "1929": 7656, 
  "dissatisfied": 7657, 
  "concluding": 7658, 
  "ayes": 7659, 
  "netted": 7660, 
  "bing": 7661, 
  "beings": 7662, 
  "litres": 7663, 
  "database": 7664, 
  "certify": 7665, 
  "ok@@": 7666, 
  "carriers": 7667, 
  "favorite": 7668, 
  "sleeping": 7669, 
  "buried": 7670, 
  "brain": 7671, 
  "apparently": 7672, 
  "salts": 7673, 
  "proceeded": 7674, 
  "tragedy": 7675, 
  "apprehended": 7676, 
  "transhipment": 7677, 
  "19th": 7678, 
  "0.1%": 7679, 
  "ls": 7680, 
  "kcr": 7681, 
  "succession": 7682, 
  "tai@@": 7683, 
  "coach": 7684, 
  "1961": 7685, 
  "practically": 7686, 
  "legend": 7687, 
  "donated": 7688, 
  "5th": 7689, 
  "initiate": 7690, 
  "killing": 7691, 
  "expire": 7692, 
  "throughput": 7693, 
  "chargeable": 7694, 
  "(ed)": 7695, 
  "actors": 7696, 
  "forums": 7697, 
  "sq": 7698, 
  "worrying": 7699, 
  "crude": 7700, 
  "thrown": 7701, 
  "ceremonies": 7702, 
  "alize": 7703, 
  "layer": 7704, 
  "freezing": 7705, 
  "cy@@": 7706, 
  "26.@@": 7707, 
  "oxygen": 7708, 
  "wheel": 7709, 
  "congratulations": 7710, 
  "1800": 7711, 
  "(cssa)": 7712, 
  "emsd": 7713, 
  "levied": 7714, 
  "argentina": 7715, 
  "marxist": 7716, 
  "architects": 7717, 
  "jan": 7718, 
  "laser": 7719, 
  "55@@": 7720, 
  "zhong": 7721, 
  "transform": 7722, 
  "polls": 7723, 
  "remarked": 7724, 
  "deficits": 7725, 
  "trains": 7726, 
  "negligence": 7727, 
  "ethical": 7728, 
  "discretionary": 7729, 
  "caution": 7730, 
  "tsung": 7731, 
  "els": 7732, 
  "contacted": 7733, 
  "shut": 7734, 
  "cas": 7735, 
  "detect": 7736, 
  "slogan": 7737, 
  "lobby": 7738, 
  "kitchen": 7739, 
  "ically": 7740, 
  "mixture": 7741, 
  "hel@@": 7742, 
  "suspicion": 7743, 
  "broaden": 7744, 
  "unfortunate": 7745, 
  "beliefs": 7746, 
  "cook": 7747, 
  "diversion": 7748, 
  "gary": 7749, 
  "tactical": 7750, 
  "assistants": 7751, 
  "ation@@": 7752, 
  "errors": 7753, 
  "proliferation": 7754, 
  "happily": 7755, 
  "harvard": 7756, 
  "sehk": 7757, 
  "ratings": 7758, 
  "appearing": 7759, 
  "deter": 7760, 
  "gy@@": 7761, 
  "broader": 7762, 
  "bitter": 7763, 
  "median": 7764, 
  "pt@@": 7765, 
  "contamination": 7766, 
  "judgments": 7767, 
  "dangers": 7768, 
  "believing": 7769, 
  "democratization": 7770, 
  "clearer": 7771, 
  "boarding": 7772, 
  "tso": 7773, 
  "pi": 7774, 
  "anna": 7775, 
  "neighboring": 7776, 
  "endless": 7777, 
  "sooner": 7778, 
  "pity": 7779, 
  "births": 7780, 
  "rationale": 7781, 
  "tragic": 7782, 
  "sighted": 7783, 
  "mood": 7784, 
  "aerial": 7785, 
  "commemorative": 7786, 
  "125": 7787, 
  "aspiration": 7788, 
  "likes": 7789, 
  "keng": 7790, 
  "functioning": 7791, 
  "pt": 7792, 
  "gore": 7793, 
  "yun@@": 7794, 
  "sions": 7795, 
  "posing": 7796, 
  "reorganization": 7797, 
  "annette": 7798, 
  "bombing": 7799, 
  "gi@@": 7800, 
  "locked": 7801, 
  "cream": 7802, 
  "tter": 7803, 
  "viable": 7804, 
  "floors": 7805, 
  "limitation": 7806, 
  "sue": 7807, 
  "cameras": 7808, 
  "abolish": 7809, 
  "fies": 7810, 
  "c.@@": 7811, 
  "municipalities": 7812, 
  "sentiments": 7813, 
  "drinks": 7814, 
  "lesser": 7815, 
  "mg": 7816, 
  "obstacle": 7817, 
  "tro@@": 7818, 
  "administrator": 7819, 
  "sulphur": 7820, 
  "7177": 7821, 
  "charity": 7822, 
  "humans": 7823, 
  "emergence": 7824, 
  "classic": 7825, 
  "monitors": 7826, 
  "ie": 7827, 
  "earmarked": 7828, 
  "incapacitated": 7829, 
  "aries": 7830, 
  "explosive": 7831, 
  "approving": 7832, 
  "4.5": 7833, 
  "mer@@": 7834, 
  "hom@@": 7835, 
  "liferaft": 7836, 
  "hsia": 7837, 
  "competence": 7838, 
  "3rd": 7839, 
  "experiments": 7840, 
  "prescribing": 7841, 
  "6.30": 7842, 
  "rsd": 7843, 
  "privilege": 7844, 
  "runner": 7845, 
  "radiation": 7846, 
  "elling": 7847, 
  "mt": 7848, 
  "mas@@": 7849, 
  "brush": 7850, 
  "detain": 7851, 
  "rebate": 7852, 
  "hardships": 7853, 
  "leighton": 7854, 
  "garment": 7855, 
  "conversation": 7856, 
  "tighten": 7857, 
  "aiming": 7858, 
  "generous": 7859, 
  "lasted": 7860, 
  "limiting": 7861, 
  "(api)": 7862, 
  "budgets": 7863, 
  "tis": 7864, 
  "pumps": 7865, 
  "turnout": 7866, 
  "heights": 7867, 
  "hearings": 7868, 
  "restored": 7869, 
  "arats": 7870, 
  "rid": 7871, 
  "footwear": 7872, 
  "terminated": 7873, 
  "rounds": 7874, 
  "describing": 7875, 
  "eg@@": 7876, 
  "conducts": 7877, 
  "bernard": 7878, 
  "beef": 7879, 
  "badly": 7880, 
  "intake": 7881, 
  "focal": 7882, 
  "biological": 7883, 
  "affixed": 7884, 
  "inspired": 7885, 
  "virtual": 7886, 
  "hon@@": 7887, 
  "ageing": 7888, 
  "butterfly": 7889, 
  "austin": 7890, 
  "consulate": 7891, 
  "lofty": 7892, 
  "47@@": 7893, 
  "tsz": 7894, 
  "1960": 7895, 
  "spouses": 7896, 
  "1900": 7897, 
  "bi": 7898, 
  "upcoming": 7899, 
  "equip": 7900, 
  "exact": 7901, 
  "抯": 7902, 
  "municipality": 7903, 
  "sat": 7904, 
  "ently": 7905, 
  "omission": 7906, 
  "dic@@": 7907, 
  "queuing": 7908, 
  "benchmark": 7909, 
  "magnificent": 7910, 
  "entrusted": 7911, 
  "1500": 7912, 
  "alterations": 7913, 
  "shorter": 7914, 
  "closures": 7915, 
  "thomas": 7916, 
  "instant": 7917, 
  "snow": 7918, 
  "magazines": 7919, 
  "dried": 7920, 
  "mediation": 7921, 
  "frame": 7922, 
  "def@@": 7923, 
  "declines": 7924, 
  "sailing": 7925, 
  "m)": 7926, 
  "155": 7927, 
  "leases": 7928, 
  "confirmation": 7929, 
  "mortem": 7930, 
  "bulletin": 7931, 
  "(dab)": 7932, 
  "endeavour": 7933, 
  "xi@@": 7934, 
  "paint": 7935, 
  "rs": 7936, 
  "coral": 7937, 
  "silicon": 7938, 
  "alist": 7939, 
  "observing": 7940, 
  "repayment": 7941, 
  "complementary": 7942, 
  "mud": 7943, 
  "comic": 7944, 
  "no.5": 7945, 
  "ws": 7946, 
  "10.30": 7947, 
  "fry": 7948, 
  "seas": 7949, 
  "lam@@": 7950, 
  "ot": 7951, 
  "innocent": 7952, 
  "stressing": 7953, 
  "fortunate": 7954, 
  "2.2": 7955, 
  "calculating": 7956, 
  "3.1": 7957, 
  "occupy": 7958, 
  "financially": 7959, 
  "argued": 7960, 
  "examiner": 7961, 
  "hired": 7962, 
  "ut@@": 7963, 
  "emotions": 7964, 
  "reads": 7965, 
  "capture": 7966, 
  "diploma": 7967, 
  "alism": 7968, 
  "insisted": 7969, 
  "persistently": 7970, 
  "slaughterhouse": 7971, 
  "battlefield": 7972, 
  "ow@@": 7973, 
  "occurring": 7974, 
  "administering": 7975, 
  "prestige": 7976, 
  "tics": 7977, 
  "rentals": 7978, 
  "width": 7979, 
  "coaches": 7980, 
  "harvest": 7981, 
  "respecting": 7982, 
  "ami": 7983, 
  "@@@": 7984, 
  "license": 7985, 
  "drill": 7986, 
  "speaks": 7987, 
  "preference": 7988, 
  "shed": 7989, 
  "gordon": 7990, 
  "industrialization": 7991, 
  "teus": 7992, 
  "focuses": 7993, 
  "spur": 7994, 
  "pilots": 7995, 
  "patriotic": 7996, 
  "fac@@": 7997, 
  "clouds": 7998, 
  "hazardous": 7999, 
  "ne": 8000, 
  "shock": 8001, 
  "smoky": 8002, 
  "surprising": 8003, 
  "280": 8004, 
  "0.2%": 8005, 
  "16th": 8006, 
  "coroner": 8007, 
  "60,000": 8008, 
  "creates": 8009, 
  "ranked": 8010, 
  "cargoes": 8011, 
  "conscience": 8012, 
  "dear": 8013, 
  "announcers": 8014, 
  "verify": 8015, 
  "canal": 8016, 
  "rescued": 8017, 
  "neighborhood": 8018, 
  "allegations": 8019, 
  "overtime": 8020, 
  "elaborate": 8021, 
  "of@@": 8022, 
  "referendum": 8023, 
  "orchid": 8024, 
  "foremost": 8025, 
  "appreciated": 8026, 
  "centuries": 8027, 
  "alization": 8028, 
  "irresponsible": 8029, 
  "stipulate": 8030, 
  "revival": 8031, 
  "counted": 8032, 
  "kosovo": 8033, 
  "observers": 8034, 
  "ely": 8035, 
  "remedies": 8036, 
  "tenement": 8037, 
  "nicholas": 8038, 
  "sti@@": 8039, 
  "450": 8040, 
  "cracking": 8041, 
  "surge": 8042, 
  "kin@@": 8043, 
  "upward": 8044, 
  "deny": 8045, 
  "basketball": 8046, 
  "stimulating": 8047, 
  "1956": 8048, 
  "dialogues": 8049, 
  "ori@@": 8050, 
  "troupes": 8051, 
  "bribery": 8052, 
  "guardianship": 8053, 
  "ish@@": 8054, 
  "jiabao": 8055, 
  "guang@@": 8056, 
  "departing": 8057, 
  "ure": 8058, 
  "accepts": 8059, 
  "shaped": 8060, 
  "embarked": 8061, 
  "humanitarian": 8062, 
  "separatist": 8063, 
  "artillery": 8064, 
  "sha@@": 8065, 
  "sheetlet": 8066, 
  "subordinate": 8067, 
  "abstained": 8068, 
  "predicted": 8069, 
  "cinema": 8070, 
  "omitted": 8071, 
  "ip@@": 8072, 
  "kes": 8073, 
  "impartial": 8074, 
  "ticketing": 8075, 
  "ber": 8076, 
  "breaks": 8077, 
  "featured": 8078, 
  "cyclone": 8079, 
  "penghu": 8080, 
  "1966": 8081, 
  "prostitution": 8082, 
  "peasant": 8083, 
  "combine": 8084, 
  "exploitation": 8085, 
  "powered": 8086, 
  "directing": 8087, 
  "29.@@": 8088, 
  "1959": 8089, 
  "rough": 8090, 
  "conventions": 8091, 
  "seller": 8092, 
  "bone": 8093, 
  "seriousness": 8094, 
  "14th": 8095, 
  "crops": 8096, 
  "poison": 8097, 
  "essentially": 8098, 
  "daughters": 8099, 
  "50th": 8100, 
  "incorrect": 8101, 
  "totalling": 8102, 
  "`": 8103, 
  "refined": 8104, 
  "processions": 8105, 
  "hydro@@": 8106, 
  "manned": 8107, 
  "avoiding": 8108, 
  "roughly": 8109, 
  "macroeconomic": 8110, 
  "disruption": 8111, 
  "recruiting": 8112, 
  "champion": 8113, 
  "helicopter": 8114, 
  "lun": 8115, 
  "humanity": 8116, 
  "successes": 8117, 
  "loved": 8118, 
  "promotes": 8119, 
  "progressively": 8120, 
  "zhejiang": 8121, 
  "displaying": 8122, 
  "puppet": 8123, 
  "chips": 8124, 
  "fold": 8125, 
  "distinctive": 8126, 
  "7,000": 8127, 
  "135": 8128, 
  "chiao": 8129, 
  "random": 8130, 
  "piling": 8131, 
  "collector": 8132, 
  "ga@@": 8133, 
  "ali@@": 8134, 
  "107": 8135, 
  "legislate": 8136, 
  "1/2": 8137, 
  "compatible": 8138, 
  "elder": 8139, 
  "trace": 8140, 
  "contravene": 8141, 
  "cry": 8142, 
  "bands": 8143, 
  "leap": 8144, 
  "influential": 8145, 
  "brown": 8146, 
  "weaponry": 8147, 
  "hyf": 8148, 
  "arbitral": 8149, 
  "fostering": 8150, 
  "meals": 8151, 
  "indebtedness": 8152, 
  "disappeared": 8153, 
  "alizing": 8154, 
  "tailor": 8155, 
  "spectacular": 8156, 
  "0.6%": 8157, 
  "christopher": 8158, 
  "illustrate": 8159, 
  "fication": 8160, 
  "1945": 8161, 
  "fought": 8162, 
  "25,000": 8163, 
  "dissatisfaction": 8164, 
  "tiny": 8165, 
  "trunk": 8166, 
  "singers": 8167, 
  "itsd": 8168, 
  "158": 8169, 
  "2582": 8170, 
  "philip": 8171, 
  "personality": 8172, 
  "recruits": 8173, 
  "til@@": 8174, 
  "kilogrammes": 8175, 
  "repatriated": 8176, 
  "ale": 8177, 
  "defending": 8178, 
  "lions": 8179, 
  "cement": 8180, 
  "gauge": 8181, 
  "distinguish": 8182, 
  "ana": 8183, 
  "ancestral": 8184, 
  "disneyland": 8185, 
  "crises": 8186, 
  "shang": 8187, 
  "122": 8188, 
  "pavilion": 8189, 
  "temperatures": 8190, 
  "certifying": 8191, 
  "jian": 8192, 
  "colleague": 8193, 
  "painter": 8194, 
  "sor@@": 8195, 
  "kenneth": 8196, 
  "new@@": 8197, 
  "capo": 8198, 
  "ff": 8199, 
  "trousers": 8200, 
  "deprived": 8201, 
  "mains": 8202, 
  "yuxi": 8203, 
  "silk": 8204, 
  "drains": 8205, 
  "dishes": 8206, 
  "breath": 8207, 
  "instructors": 8208, 
  "possesses": 8209, 
  "bun@@": 8210, 
  "custom": 8211, 
  "_": 8212, 
  "vcds": 8213, 
  "yasukuni": 8214, 
  "belgium": 8215, 
  "carving": 8216, 
  "tone": 8217, 
  "boro": 8218, 
  "deserve": 8219, 
  "fed": 8220, 
  "'en": 8221, 
  "tel@@": 8222, 
  "leg@@": 8223, 
  "monuments": 8224, 
  "ial": 8225, 
  "knowingly": 8226, 
  "rainy": 8227, 
  "pottery": 8228, 
  "resolute": 8229, 
  "residing": 8230, 
  "crossings": 8231, 
  "sters": 8232, 
  "scores": 8233, 
  "antiquities": 8234, 
  "critics": 8235, 
  "flame": 8236, 
  "quietly": 8237, 
  "159": 8238, 
  "translated": 8239, 
  "jing@@": 8240, 
  "anxiety": 8241, 
  "easing": 8242, 
  "nor@@": 8243, 
  "cmc": 8244, 
  "116": 8245, 
  "reader": 8246, 
  "taitung": 8247, 
  "markings": 8248, 
  "jin@@": 8249, 
  "sponsor": 8250, 
  "111": 8251, 
  "ents": 8252, 
  "unmanifested": 8253, 
  "1964": 8254, 
  "bop": 8255, 
  "burn": 8256, 
  "applause": 8257, 
  "lodging": 8258, 
  "rel@@": 8259, 
  "relocated": 8260, 
  "ened": 8261, 
  "eliminating": 8262, 
  "grantee": 8263, 
  "endorse": 8264, 
  "watched": 8265, 
  "vers": 8266, 
  "intending": 8267, 
  "ging": 8268, 
  "5.5": 8269, 
  "230": 8270, 
  "importers": 8271, 
  "rolling": 8272, 
  "watermain": 8273, 
  "mid@@": 8274, 
  "sympathy": 8275, 
  "farmland": 8276, 
  "catching": 8277, 
  "instructed": 8278, 
  "continuation": 8279, 
  "arrests": 8280, 
  "gratuity": 8281, 
  "pollutants": 8282, 
  "climbing": 8283, 
  "span": 8284, 
  "footman": 8285, 
  "assuming": 8286, 
  "lieu": 8287, 
  "gran@@": 8288, 
  "accelerating": 8289, 
  "awaiting": 8290, 
  "switzerland": 8291, 
  "heavier": 8292, 
  "bas@@": 8293, 
  "hs": 8294, 
  "perfectly": 8295, 
  "puli": 8296, 
  "footbridge": 8297, 
  "tail": 8298, 
  "med": 8299, 
  "calculations": 8300, 
  "dish": 8301, 
  "3.5%": 8302, 
  "1,500": 8303, 
  "0.8%": 8304, 
  "kip": 8305, 
  "13%": 8306, 
  "mathematics": 8307, 
  "tankers": 8308, 
  "recognise": 8309, 
  "jonathan": 8310, 
  "engagement": 8311, 
  "cloud": 8312, 
  "ash@@": 8313, 
  "profoundly": 8314, 
  "33@@": 8315, 
  "geotechnical": 8316, 
  "iness": 8317, 
  "litre": 8318, 
  "religions": 8319, 
  "aps": 8320, 
  "blaze": 8321, 
  "fc": 8322, 
  "boss": 8323, 
  "violate": 8324, 
  "adhering": 8325, 
  "novels": 8326, 
  "plb": 8327, 
  "trucks": 8328, 
  "nurse": 8329, 
  "squarely": 8330, 
  "surgeons": 8331, 
  "yong": 8332, 
  "solicit": 8333, 
  "0.7%": 8334, 
  "lit@@": 8335, 
  "architect": 8336, 
  "tpb": 8337, 
  "collapsed": 8338, 
  "crop": 8339, 
  "21.@@": 8340, 
  "h)": 8341, 
  "109": 8342, 
  "unite": 8343, 
  "vo@@": 8344, 
  "iccpr": 8345, 
  "absorb": 8346, 
  "kers": 8347, 
  "teenagers": 8348, 
  "governors": 8349, 
  "48@@": 8350, 
  "discharges": 8351, 
  "bc": 8352, 
  "transplant": 8353, 
  "isation": 8354, 
  "charles": 8355, 
  "lorry": 8356, 
  "varying": 8357, 
  "tre@@": 8358, 
  "nominee": 8359, 
  "compiling": 8360, 
  "(r@@": 8361, 
  "mosquitoes": 8362, 
  "cycling": 8363, 
  "intellectuals": 8364, 
  "ham@@": 8365, 
  "14%": 8366, 
  "ocs": 8367, 
  "depot": 8368, 
  "threatening": 8369, 
  "reconsider": 8370, 
  "fame": 8371, 
  "rope": 8372, 
  "strikes": 8373, 
  "ologists": 8374, 
  "openings": 8375, 
  "compartments": 8376, 
  "educating": 8377, 
  "neutral": 8378, 
  "ash": 8379, 
  "chongqing": 8380, 
  "recommends": 8381, 
  "iran": 8382, 
  "purchaser": 8383, 
  "fraudulent": 8384, 
  "kick": 8385, 
  "1999/2000": 8386, 
  "breakthroughs": 8387, 
  "crane": 8388, 
  "ban@@": 8389, 
  "s6": 8390, 
  "cats": 8391, 
  "bin": 8392, 
  "speculators": 8393, 
  "chile": 8394, 
  "cs@@": 8395, 
  "tur@@": 8396, 
  "undue": 8397, 
  "extract": 8398, 
  "spokesperson": 8399, 
  "intentions": 8400, 
  "imposition": 8401, 
  "accumulation": 8402, 
  "traditionally": 8403, 
  "ue": 8404, 
  "rises": 8405, 
  "longest": 8406, 
  "methodology": 8407, 
  "unsatisfactory": 8408, 
  "interception": 8409, 
  "elite": 8410, 
  "transformed": 8411, 
  "scattered": 8412, 
  "koo": 8413, 
  "gri@@": 8414, 
  "forge": 8415, 
  "therewith": 8416, 
  "slowdown": 8417, 
  "nanjing": 8418, 
  "ordinated": 8419, 
  "protests": 8420, 
  "trapped": 8421, 
  "pur@@": 8422, 
  "intermediary": 8423, 
  "alised": 8424, 
  "undermined": 8425, 
  "ological": 8426, 
  "delegations": 8427, 
  "adequacy": 8428, 
  "mobility": 8429, 
  "genuinely": 8430, 
  "divide": 8431, 
  "speedy": 8432, 
  "wax": 8433, 
  "arab": 8434, 
  "5.30": 8435, 
  "ced": 8436, 
  "guarding": 8437, 
  "toy": 8438, 
  "ger@@": 8439, 
  "2.4": 8440, 
  "jasper": 8441, 
  "earnest": 8442, 
  "pen": 8443, 
  "alongside": 8444, 
  "barrier": 8445, 
  "carbon": 8446, 
  "cambodia": 8447, 
  "ld": 8448, 
  "(it)": 8449, 
  "cleaner": 8450, 
  "preferred": 8451, 
  "1950s": 8452, 
  "admits": 8453, 
  "dressed": 8454, 
  "immense": 8455, 
  "imp@@": 8456, 
  "13th": 8457, 
  "beforehand": 8458, 
  "revive": 8459, 
  "ghosts": 8460, 
  "99.@@": 8461, 
  "sad": 8462, 
  "voyages": 8463, 
  "miracle": 8464, 
  "(b@@": 8465, 
  "exhaust": 8466, 
  "inherent": 8467, 
  "dividend": 8468, 
  "dances": 8469, 
  "koizumi": 8470, 
  "borrowing": 8471, 
  "empower": 8472, 
  "miles": 8473, 
  "rigid": 8474, 
  "insects": 8475, 
  "ear@@": 8476, 
  "mortgages": 8477, 
  "recalled": 8478, 
  "souvenirs": 8479, 
  "'clock": 8480, 
  "nest": 8481, 
  "robberies": 8482, 
  "ballistic": 8483, 
  "htm": 8484, 
  "07@@": 8485, 
  "dawn": 8486, 
  "organisers": 8487, 
  "(w@@": 8488, 
  "laboratories": 8489, 
  "sam": 8490, 
  "allen": 8491, 
  "adopts": 8492, 
  "bil@@": 8493, 
  "epidemic": 8494, 
  "integrating": 8495, 
  "bathing": 8496, 
  "mc@@": 8497, 
  "/98": 8498, 
  "taylor": 8499, 
  "gnp": 8500, 
  "petitioner": 8501, 
  "okinawa": 8502, 
  "borrowed": 8503, 
  "flu@@": 8504, 
  "vis": 8505, 
  "supervising": 8506, 
  "merchants": 8507, 
  "yl@@": 8508, 
  "vibrant": 8509, 
  "neighborly": 8510, 
  "tune": 8511, 
  "shareholder": 8512, 
  "reg@@": 8513, 
  "tl": 8514, 
  "percival": 8515, 
  "sizes": 8516, 
  "28.@@": 8517, 
  "celebrating": 8518, 
  "inaugural": 8519, 
  "canvassing": 8520, 
  "advocating": 8521, 
  "metric": 8522, 
  "colorful": 8523, 
  "fulfilling": 8524, 
  "landed": 8525, 
  "string": 8526, 
  "interpreted": 8527, 
  "128": 8528, 
  "recoverable": 8529, 
  "1,0@@": 8530, 
  "dress": 8531, 
  "admissible": 8532, 
  "lobbying": 8533, 
  "tubes": 8534, 
  "volumes": 8535, 
  "endanger": 8536, 
  "ites": 8537, 
  "broadcasts": 8538, 
  "por@@": 8539, 
  "citybus": 8540, 
  "disinfection": 8541, 
  "sculpture": 8542, 
  "excavation": 8543, 
  "ile": 8544, 
  "leakage": 8545, 
  "escalator": 8546, 
  "purporting": 8547, 
  "legs": 8548, 
  "(m@@": 8549, 
  "tb": 8550, 
  "wire": 8551, 
  "11th": 8552, 
  "caritas": 8553, 
  "disturbance": 8554, 
  "cultivated": 8555, 
  "fleming": 8556, 
  "greening": 8557, 
  "ranged": 8558, 
  "motives": 8559, 
  "drum": 8560, 
  "quiz": 8561, 
  "closes": 8562, 
  "harsh": 8563, 
  "/95": 8564, 
  "foam": 8565, 
  "240": 8566, 
  "yi@@": 8567, 
  "sacrifice": 8568, 
  "bypass": 8569, 
  "procuratorial": 8570, 
  "postponed": 8571, 
  "compilation": 8572, 
  "(aa)": 8573, 
  "uploaded": 8574, 
  "lifetime": 8575, 
  "booth": 8576, 
  "ka@@": 8577, 
  "administrations": 8578, 
  "ird": 8579, 
  "ranges": 8580, 
  "zes": 8581, 
  "feb": 8582, 
  "cat@@": 8583, 
  "zed": 8584, 
  "injection": 8585, 
  "embrace": 8586, 
  "177": 8587, 
  "wet": 8588, 
  "persuade": 8589, 
  "eager": 8590, 
  "relies": 8591, 
  "slaughtering": 8592, 
  "nationwide": 8593, 
  "stakeholders": 8594, 
  "breakfast": 8595, 
  "negotiating": 8596, 
  "(ca)": 8597, 
  "tically": 8598, 
  "verdict": 8599, 
  "yunnan": 8600, 
  "troubles": 8601, 
  "ces": 8602, 
  "shorten": 8603, 
  "withstand": 8604, 
  "conciliation": 8605, 
  "clan": 8606, 
  "pregnant": 8607, 
  "veteran": 8608, 
  "perception": 8609, 
  "statute": 8610, 
  "entourage": 8611, 
  "reluctant": 8612, 
  "arthur": 8613, 
  "paramount": 8614, 
  "sinica": 8615, 
  "diligence": 8616, 
  "surveyors": 8617, 
  "turtles": 8618, 
  "economist": 8619, 
  "ram@@": 8620, 
  "h5n1": 8621, 
  "photographic": 8622, 
  "william": 8623, 
  "fixing": 8624, 
  "meteorological": 8625, 
  "7-@@": 8626, 
  "realm": 8627, 
  "deletion": 8628, 
  "searches": 8629, 
  "exclude": 8630, 
  "missed": 8631, 
  "260": 8632, 
  "exemplary": 8633, 
  "ko@@": 8634, 
  "hole": 8635, 
  "prosecutor": 8636, 
  "138": 8637, 
  "poster": 8638, 
  "kar@@": 8639, 
  "tan@@": 8640, 
  "136": 8641, 
  "plight": 8642, 
  "1700": 8643, 
  "queue": 8644, 
  "wives": 8645, 
  "edinburgh": 8646, 
  "tram": 8647, 
  "barnard": 8648, 
  "sted": 8649, 
  "scholarships": 8650, 
  "texts": 8651, 
  "hectare": 8652, 
  "crystal": 8653, 
  "incidence": 8654, 
  "(n)": 8655, 
  "equ@@": 8656, 
  "counterfeiting": 8657, 
  "hollywood": 8658, 
  "shocked": 8659, 
  "(l@@": 8660, 
  "globalisation": 8661, 
  "subsidised": 8662, 
  "crafts": 8663, 
  "work@@": 8664, 
  "restricting": 8665, 
  "viewpoints": 8666, 
  "granville": 8667, 
  "sweeping": 8668, 
  "sunny": 8669, 
  "bol@@": 8670, 
  "kee": 8671, 
  "psychiatric": 8672, 
  "dwelling": 8673, 
  "bones": 8674, 
  "bor@@": 8675, 
  "rooted": 8676, 
  "medals": 8677, 
  "guangsheng": 8678, 
  "ix": 8679, 
  "dealings": 8680, 
  "airspace": 8681, 
  "sensible": 8682, 
  "hsiu": 8683, 
  "falsely": 8684, 
  "races": 8685, 
  "silverstrand": 8686, 
  "cheng@@": 8687, 
  "backed": 8688, 
  "tapes": 8689, 
  "develops": 8690, 
  "robbed": 8691, 
  "player": 8692, 
  "15,000": 8693, 
  "instructor": 8694, 
  "washed": 8695, 
  "garbage": 8696, 
  "artifacts": 8697, 
  "rendering": 8698, 
  "quan": 8699, 
  "additionally": 8700, 
  "marriages": 8701, 
  "widen": 8702, 
  "tony": 8703, 
  "black@@": 8704, 
  "grows": 8705, 
  "broadband": 8706, 
  "cap@@": 8707, 
  "verified": 8708, 
  "arose": 8709, 
  "chairmanship": 8710, 
  "my@@": 8711, 
  "bauhinia": 8712, 
  "dismiss": 8713, 
  "syndicates": 8714, 
  "spar@@": 8715, 
  "tracks": 8716, 
  "lender": 8717, 
  "sze": 8718, 
  "cad": 8719, 
  "coffee": 8720, 
  "top@@": 8721, 
  "/99": 8722, 
  "2.3": 8723, 
  "authoritative": 8724, 
  "_@@": 8725, 
  "globe": 8726, 
  "journeys": 8727, 
  "leavers": 8728, 
  "1.9": 8729, 
  "elucidation": 8730, 
  "hostile": 8731, 
  "sef": 8732, 
  "accessories": 8733, 
  "crackdown": 8734, 
  "toronto": 8735, 
  "hou": 8736, 
  "dominant": 8737, 
  "discriminatory": 8738, 
  "pun": 8739, 
  "foregoing": 8740, 
  "activated": 8741, 
  "severance": 8742, 
  "2835": 8743, 
  "ears": 8744, 
  "wil@@": 8745, 
  "combining": 8746, 
  "atic": 8747, 
  "retrospective": 8748, 
  "positioning": 8749, 
  "3.2": 8750, 
  "smo@@": 8751, 
  "tvb": 8752, 
  "precedent": 8753, 
  "pensionable": 8754, 
  "successive": 8755, 
  "mic@@": 8756, 
  "sp": 8757, 
  "batteries": 8758, 
  "doubled": 8759, 
  "1930": 8760, 
  "tat@@": 8761, 
  "bilge": 8762, 
  "2.6": 8763, 
  "imagination": 8764, 
  "cooling": 8765, 
  "arbitrator": 8766, 
  "221": 8767, 
  "guangxi": 8768, 
  "rated": 8769, 
  "bachelor": 8770, 
  "stabilize": 8771, 
  "16%": 8772, 
  "understandable": 8773, 
  "liaise": 8774, 
  "124": 8775, 
  "asylum": 8776, 
  "ass@@": 8777, 
  "tenancies": 8778, 
  "1600": 8779, 
  "ell@@": 8780, 
  "cakes": 8781, 
  "66@@": 8782, 
  "75%": 8783, 
  "ais": 8784, 
  "fanny": 8785, 
  "hydraulic": 8786, 
  "leased": 8787, 
  "buyer": 8788, 
  "2.1": 8789, 
  "confused": 8790, 
  "ponds": 8791, 
  "appraisal": 8792, 
  "possibilities": 8793, 
  "bacteria": 8794, 
  "117": 8795, 
  "127": 8796, 
  "oneself": 8797, 
  "az@@": 8798, 
  "congresses": 8799, 
  "experiencing": 8800, 
  "sil@@": 8801, 
  "traveling": 8802, 
  "justification": 8803, 
  "contradiction": 8804, 
  "rubbish": 8805, 
  "mc": 8806, 
  "ese": 8807, 
  "fran@@": 8808, 
  "totalled": 8809, 
  "bio@@": 8810, 
  "inspiration": 8811, 
  "fishery": 8812, 
  "obstruct": 8813, 
  "minorities": 8814, 
  "whoever": 8815, 
  "therefrom": 8816, 
  "pleasant": 8817, 
  "mess": 8818, 
  "bri@@": 8819, 
  "pat@@": 8820, 
  "foo": 8821, 
  "chiung": 8822, 
  "lag": 8823, 
  "iting": 8824, 
  "civilized": 8825, 
  "mongolia": 8826, 
  "wonderful": 8827, 
  "trap": 8828, 
  "waiver": 8829, 
  "francisco": 8830, 
  "sophie": 8831, 
  "0-@@": 8832, 
  "retention": 8833, 
  "realities": 8834, 
  "tz@@": 8835, 
  "commissions": 8836, 
  "inauguration": 8837, 
  "bottle": 8838, 
  "decree": 8839, 
  "convince": 8840, 
  "dongjiang": 8841, 
  "exam": 8842, 
  "worthwhile": 8843, 
  "bids": 8844, 
  "guesthouses": 8845, 
  "automated": 8846, 
  "littering": 8847, 
  "0.9%": 8848, 
  "infections": 8849, 
  "egg": 8850, 
  "35@@": 8851, 
  "poon": 8852, 
  "'ang": 8853, 
  "aesthetic": 8854, 
  "outsiders": 8855, 
  "confronted": 8856, 
  "believers": 8857, 
  "sponsoring": 8858, 
  "inspecting": 8859, 
  "concludes": 8860, 
  "questionnaire": 8861, 
  "88@@": 8862, 
  "gentleman": 8863, 
  "angeles": 8864, 
  "classics": 8865, 
  "ensured": 8866, 
  "dri@@": 8867, 
  "relics": 8868, 
  "pressed": 8869, 
  "tasked": 8870, 
  "detainee": 8871, 
  "angry": 8872, 
  "ow": 8873, 
  "cage": 8874, 
  "distinction": 8875, 
  "pillars": 8876, 
  "ensemble": 8877, 
  "precise": 8878, 
  "mur@@": 8879, 
  "dered": 8880, 
  "founder": 8881, 
  "vigor": 8882, 
  "strain": 8883, 
  "affirmation": 8884, 
  "invariably": 8885, 
  "occupants": 8886, 
  "recurrence": 8887, 
  "hereinafter": 8888, 
  "17th": 8889, 
  "backgrounds": 8890, 
  "mines": 8891, 
  "tal": 8892, 
  "zing": 8893, 
  "oversee": 8894, 
  "scales": 8895, 
  "108": 8896, 
  "specifies": 8897, 
  "ture": 8898, 
  "cp@@": 8899, 
  "yong@@": 8900, 
  "interconnection": 8901, 
  "midst": 8902, 
  "nose": 8903, 
  "questioning": 8904, 
  "tenure": 8905, 
  "glory": 8906, 
  "gro@@": 8907, 
  "commonwealth": 8908, 
  "cli@@": 8909, 
  "entities": 8910, 
  "hegemonism": 8911, 
  "eradicate": 8912, 
  "119": 8913, 
  "100.@@": 8914, 
  "teeth": 8915, 
  "landslip": 8916, 
  "characterized": 8917, 
  "toc": 8918, 
  "ist@@": 8919, 
  "collectors": 8920, 
  "procuratorate": 8921, 
  "switched": 8922, 
  "46@@": 8923, 
  "165": 8924, 
  "persistent": 8925, 
  "by@@": 8926, 
  "cremation": 8927, 
  "perspectives": 8928, 
  "invisible": 8929, 
  "don@@": 8930, 
  "oning": 8931, 
  "ensures": 8932, 
  "managerial": 8933, 
  "gm": 8934, 
  "trainee": 8935, 
  "ishing": 8936, 
  "unloading": 8937, 
  "4.30": 8938, 
  "tsu": 8939, 
  "lotus": 8940, 
  "defraud": 8941, 
  "ored": 8942, 
  "tin@@": 8943, 
  "throwing": 8944, 
  "invaluable": 8945, 
  "tiananmen": 8946, 
  "ie@@": 8947, 
  "49@@": 8948, 
  "matched": 8949, 
  "op": 8950, 
  "rally": 8951, 
  "118": 8952, 
  "helper": 8953, 
  "hanging": 8954, 
  "guides": 8955, 
  "ro": 8956, 
  "auditing": 8957, 
  "restrained": 8958, 
  "bean": 8959, 
  "purchasers": 8960, 
  "designer": 8961, 
  "alignment": 8962, 
  "ina": 8963, 
  "aegis": 8964, 
  "50000": 8965, 
  "s.2": 8966, 
  "mild": 8967, 
  "deserves": 8968, 
  "analyze": 8969, 
  "versions": 8970, 
  "xian": 8971, 
  "dle": 8972, 
  "benchmarks": 8973, 
  "tim": 8974, 
  "graduating": 8975, 
  "mody": 8976, 
  "gene": 8977, 
  "speculative": 8978, 
  "loose": 8979, 
  "uncertainties": 8980, 
  "ev@@": 8981, 
  "variations": 8982, 
  "tense": 8983, 
  "ric@@": 8984, 
  "1996-97": 8985, 
  "advocates": 8986, 
  "tripartite": 8987, 
  "forestry": 8988, 
  "unlimited": 8989, 
  "tic@@": 8990, 
  "145": 8991, 
  "keeper": 8992, 
  "pistol": 8993, 
  "tion@@": 8994, 
  "reaffirmed": 8995, 
  "adhered": 8996, 
  "bins": 8997, 
  "outgoing": 8998, 
  "rap@@": 8999, 
  "cat": 9000, 
  "sheep": 9001, 
  "fifty": 9002, 
  "eac": 9003, 
  "promising": 9004, 
  "zhi": 9005, 
  "originated": 9006, 
  "registering": 9007, 
  "aiding": 9008, 
  "sec@@": 9009, 
  "submarines": 9010, 
  "mtrcl": 9011, 
  "pipeline": 9012, 
  "stir": 9013, 
  "lingnan": 9014, 
  "patronage": 9015, 
  "nowhere": 9016, 
  "1.4%": 9017, 
  "baggage": 9018, 
  "investigators": 9019, 
  "bly": 9020, 
  "qi@@": 9021, 
  "captain": 9022, 
  "antony": 9023, 
  "sd@@": 9024, 
  "advising": 9025, 
  "dynasties": 9026, 
  "trillion": 9027, 
  "breaches": 9028, 
  "hkcec": 9029, 
  "750": 9030, 
  "pictorial": 9031, 
  "sh": 9032, 
  "yard": 9033, 
  "tantamount": 9034, 
  "lan@@": 9035, 
  "philharmonic": 9036, 
  "ashes": 9037, 
  "potentials": 9038, 
  "subsidize": 9039, 
  "nominate": 9040, 
  "suitably": 9041, 
  "realise": 9042, 
  "consuming": 9043, 
  "vicious": 9044, 
  "yl": 9045, 
  "entity": 9046, 
  "deferred": 9047, 
  "cruise": 9048, 
  "viruses": 9049, 
  "prey": 9050, 
  "sn@@": 9051, 
  "judged": 9052, 
  "fringe": 9053, 
  "erroneous": 9054, 
  "silent": 9055, 
  "holes": 9056, 
  "tips": 9057, 
  "i)": 9058, 
  "swift": 9059, 
  "999": 9060, 
  "cht": 9061, 
  "shake": 9062, 
  "ities": 9063, 
  "deliberate": 9064, 
  "cite": 9065, 
  "tolo": 9066, 
  "intelligent": 9067, 
  "revisions": 9068, 
  "huan": 9069, 
  "carved": 9070, 
  "cle@@": 9071, 
  "experiment": 9072, 
  "script": 9073, 
  "staffing": 9074, 
  "anger": 9075, 
  "maker": 9076, 
  "tt@@": 9077, 
  "off@@": 9078, 
  "couples": 9079, 
  "disarmament": 9080, 
  "hawking": 9081, 
  "ades": 9082, 
  "morality": 9083, 
  "disciplines": 9084, 
  "eless": 9085, 
  "8.30": 9086, 
  "interfering": 9087, 
  "rubber": 9088, 
  "iraqi": 9089, 
  "1830": 9090, 
  "book@@": 9091, 
  "disposition": 9092, 
  "toured": 9093, 
  "sheets": 9094, 
  "deflation": 9095, 
  "ecstasy": 9096, 
  "64@@": 9097, 
  "commendation": 9098, 
  "aug": 9099, 
  "void": 9100, 
  "ace": 9101, 
  "133": 9102, 
  "jianxing": 9103, 
  "duck": 9104, 
  "enthusiastically": 9105, 
  "babies": 9106, 
  "meng": 9107, 
  "chairs": 9108, 
  "expose": 9109, 
  "polluted": 9110, 
  "proprietors": 9111, 
  "resistant": 9112, 
  "circulated": 9113, 
  "1.3%": 9114, 
  "legislator": 9115, 
  "auditors": 9116, 
  "270": 9117, 
  "unhealthy": 9118, 
  "embark": 9119, 
  "210": 9120, 
  "wealthy": 9121, 
  "partially": 9122, 
  "consolidating": 9123, 
  "unconscious": 9124, 
  "jing": 9125, 
  "131": 9126, 
  "oldest": 9127, 
  "wholeheartedly": 9128, 
  "punishable": 9129, 
  "adjoining": 9130, 
  "trigger": 9131, 
  "signboards": 9132, 
  "clay": 9133, 
  "supermarkets": 9134, 
  "subdivision": 9135, 
  "yan@@": 9136, 
  "ads": 9137, 
  "biotechnology": 9138, 
  "tate": 9139, 
  "ox@@": 9140, 
  "jump": 9141, 
  "cemeteries": 9142, 
  "piping": 9143, 
  "abused": 9144, 
  "deducted": 9145, 
  "ade": 9146, 
  "wui": 9147, 
  "formosa": 9148, 
  "cherish": 9149, 
  "oriental": 9150, 
  "explored": 9151, 
  "diago": 9152, 
  "celsius": 9153, 
  "intact": 9154, 
  "alice": 9155, 
  "rightly": 9156, 
  "practised": 9157, 
  "forfeited": 9158, 
  "loopholes": 9159, 
  "richard": 9160, 
  "ges": 9161, 
  "outdated": 9162, 
  "buttons": 9163, 
  "09@@": 9164, 
  "threaten": 9165, 
  "practiced": 9166, 
  "tricks": 9167, 
  "ak": 9168, 
  "ung@@": 9169, 
  "fetch": 9170, 
  "cattle": 9171, 
  "xiao": 9172, 
  "bug": 9173, 
  "banknotes": 9174, 
  "airports": 9175, 
  "herbal": 9176, 
  "multi@@": 9177, 
  "semiconductor": 9178, 
  "casual": 9179, 
  "minimal": 9180, 
  "alternatives": 9181, 
  "analysts": 9182, 
  "piers": 9183, 
  "apis": 9184, 
  "defensive": 9185, 
  "apprenticeship": 9186, 
  "heroes": 9187, 
  "visually": 9188, 
  "ntu": 9189, 
  "ton@@": 9190, 
  "134.@@": 9191, 
  "bicycle": 9192, 
  "collections": 9193, 
  "clerical": 9194, 
  "dimensions": 9195, 
  "crash": 9196, 
  "cannabis": 9197, 
  "downs": 9198, 
  "etc": 9199, 
  "mori": 9200, 
  "wannian": 9201, 
  "(swd)": 9202, 
  "1.7%": 9203, 
  "disagree": 9204, 
  "vesting": 9205, 
  "21@@": 9206, 
  "penny": 9207, 
  "jun@@": 9208, 
  "substantiated": 9209, 
  "weaknesses": 9210, 
  "-99": 9211, 
  "officiated": 9212, 
  "excitement": 9213, 
  "scrap": 9214, 
  "ster@@": 9215, 
  "wounding": 9216, 
  "standpoint": 9217, 
  "youde": 9218, 
  "italian": 9219, 
  "flourishing": 9220, 
  "doubtful": 9221, 
  "3000": 9222, 
  "subsectors": 9223, 
  "ambitious": 9224, 
  "passion": 9225, 
  "shortened": 9226, 
  "22@@": 9227, 
  "mobilization": 9228, 
  "muk": 9229, 
  "cc@@": 9230, 
  "evade": 9231, 
  "targeting": 9232, 
  "inject": 9233, 
  "gases": 9234, 
  "installing": 9235, 
  "3-@@": 9236, 
  "12,000": 9237, 
  "39@@": 9238, 
  "presidents": 9239, 
  "soong": 9240, 
  "cher": 9241, 
  "cheques": 9242, 
  "nominees": 9243, 
  "dominic": 9244, 
  "coordinating": 9245, 
  "net@@": 9246, 
  "oring": 9247, 
  "nurture": 9248, 
  "sof@@": 9249, 
  "emb@@": 9250, 
  "sunshine": 9251, 
  "expects": 9252, 
  "wounds": 9253, 
  "incense": 9254, 
  "broker": 9255, 
  "wo@@": 9256, 
  "subscribers": 9257, 
  "kn@@": 9258, 
  "connect": 9259, 
  "inhabitants": 9260, 
  "backbone": 9261, 
  "defective": 9262, 
  "lotteries": 9263, 
  "loco": 9264, 
  "leather": 9265, 
  "alists": 9266, 
  "gifted": 9267, 
  "190": 9268, 
  "43@@": 9269, 
  "tra@@": 9270, 
  "dissolved": 9271, 
  "motor@@": 9272, 
  "indonesian": 9273, 
  "dong@@": 9274, 
  "blackmail": 9275, 
  "expressway": 9276, 
  "drills": 9277, 
  "splitting": 9278, 
  "abreast": 9279, 
  "wastage": 9280, 
  "ship@@": 9281, 
  "08@@": 9282, 
  "sergeant": 9283, 
  "homeland": 9284, 
  "neck": 9285, 
  "easter": 9286, 
  "hkpa": 9287, 
  "resolutions": 9288, 
  "booklets": 9289, 
  "capitalism": 9290, 
  "0700": 9291, 
  "134": 9292, 
  "devise": 9293, 
  "6.5": 9294, 
  "condemned": 9295, 
  "footing": 9296, 
  "log": 9297, 
  "ozone": 9298, 
  "album": 9299, 
  "ao@@": 9300, 
  "mitigation": 9301, 
  "chiayi": 9302, 
  "dig@@": 9303, 
  "reciprocal": 9304, 
  "overlooked": 9305, 
  "sting": 9306, 
  "lonely": 9307, 
  "137": 9308, 
  "overstayers": 9309, 
  "fifty-@@": 9310, 
  "bon@@": 9311, 
  "trailer": 9312, 
  "lottery": 9313, 
  "dan@@": 9314, 
  "zi": 9315, 
  "hop": 9316, 
  "'ing": 9317, 
  "introduces": 9318, 
  "reinforced": 9319, 
  "dying": 9320, 
  "justify": 9321, 
  "thickness": 9322, 
  "da@@": 9323, 
  "locate": 9324, 
  "bling": 9325, 
  "principled": 9326, 
  "thirty-@@": 9327, 
  "businessman": 9328, 
  "programming": 9329, 
  "advisor": 9330, 
  "captured": 9331, 
  "excited": 9332, 
  "tac@@": 9333, 
  "58@@": 9334, 
  "jiangsu": 9335, 
  "tuberculosis": 9336, 
  "dam": 9337, 
  "quotas": 9338, 
  "sim@@": 9339, 
  "forging": 9340, 
  "pine": 9341, 
  "mining": 9342, 
  "suppress": 9343, 
  "ier": 9344, 
  "laura": 9345, 
  "crossed": 9346, 
  "unscrupulous": 9347, 
  "donor": 9348, 
  "trails": 9349, 
  "rows": 9350, 
  "tracking": 9351, 
  "alcoholic": 9352, 
  "jets": 9353, 
  "slaughter": 9354, 
  "40@@": 9355, 
  "hide": 9356, 
  "cheque": 9357, 
  "pest": 9358, 
  "pioneering": 9359, 
  "healthcare": 9360, 
  "delegated": 9361, 
  "ounding": 9362, 
  "accustomed": 9363, 
  "baptist": 9364, 
  "ab": 9365, 
  "authorisation": 9366, 
  "mer": 9367, 
  "outs": 9368, 
  "photographer": 9369, 
  "thr@@": 9370, 
  "school@@": 9371, 
  "triggered": 9372, 
  "questionnaires": 9373, 
  "paths": 9374, 
  "1,6@@": 9375, 
  "burial": 9376, 
  "motorcycles": 9377, 
  "sar@@": 9378, 
  "patriotism": 9379, 
  "(afcd)": 9380, 
  "1925": 9381, 
  "aff@@": 9382, 
  "gangs": 9383, 
  "jumped": 9384, 
  "bubble": 9385, 
  "tim@@": 9386, 
  "bowl": 9387, 
  "enjoyment": 9388, 
  "dean": 9389, 
  "democrats": 9390, 
  "qef": 9391, 
  "accomplishments": 9392, 
  "anybody": 9393, 
  "leaf": 9394, 
  "publicize": 9395, 
  "ums": 9396, 
  "chip": 9397, 
  "tolerance": 9398, 
  "conforms": 9399, 
  "53@@": 9400, 
  "jimmy": 9401, 
  "rejuvenation": 9402, 
  "flew": 9403, 
  "appropriated": 9404, 
  "joins": 9405, 
  "dissolution": 9406, 
  "17%": 9407, 
  "guess": 9408, 
  "2.8%": 9409, 
  "depression": 9410, 
  "fur@@": 9411, 
  "7.5": 9412, 
  "pun@@": 9413, 
  "computing": 9414, 
  "stroke": 9415, 
  "soup": 9416, 
  "attaining": 9417, 
  "2010": 9418, 
  "ck@@": 9419, 
  "vms": 9420, 
  "bodily": 9421, 
  "xin@@": 9422, 
  "cing": 9423, 
  "2.6%": 9424, 
  "suits": 9425, 
  "brunei": 9426, 
  "hinterland": 9427, 
  "stan@@": 9428, 
  "end@@": 9429, 
  "periodic": 9430, 
  "advises": 9431, 
  "recital": 9432, 
  "hab": 9433, 
  "sword": 9434, 
  "streamlined": 9435, 
  "1.2%": 9436, 
  "eoc": 9437, 
  "enemies": 9438, 
  "istic": 9439, 
  "conformity": 9440, 
  "sponsors": 9441, 
  "swing": 9442, 
  "prompted": 9443, 
  "(hk)": 9444, 
  "complacent": 9445, 
  "ine@@": 9446, 
  "sanction": 9447, 
  "defect": 9448, 
  "procedural": 9449, 
  "kyoto": 9450, 
  "technicians": 9451, 
  "unsafe": 9452, 
  "tm": 9453, 
  "admiration": 9454, 
  "lacquer": 9455, 
  "tting": 9456, 
  "ica": 9457, 
  "exceptions": 9458, 
  "exemptions": 9459, 
  "juncture": 9460, 
  "draws": 9461, 
  "consignment": 9462, 
  "complained": 9463, 
  "121": 9464, 
  "213": 9465, 
  "2,500": 9466, 
  "panama": 9467, 
  "luen": 9468, 
  "damaging": 9469, 
  "1.8%": 9470, 
  "(wto)": 9471, 
  "outsourcing": 9472, 
  "penetration": 9473, 
  "setbacks": 9474, 
  "raises": 9475, 
  "369": 9476, 
  "farewell": 9477, 
  "iously": 9478, 
  "wal@@": 9479, 
  "inbound": 9480, 
  "qiyue": 9481, 
  "noodles": 9482, 
  "polytechnic": 9483, 
  "chun@@": 9484, 
  "spanish": 9485, 
  "cas@@": 9486, 
  "taoyuan": 9487, 
  "ams": 9488, 
  "5.1": 9489, 
  "(t)": 9490, 
  "signatures": 9491, 
  "sy": 9492, 
  "climb": 9493, 
  "disorder": 9494, 
  "scam": 9495, 
  "chung@@": 9496, 
  "ladder": 9497, 
  "cru@@": 9498, 
  "bounds": 9499, 
  "rmb": 9500, 
  "hygienic": 9501, 
  "bles": 9502, 
  "suk": 9503, 
  "inseparable": 9504, 
  "adherence": 9505, 
  "0.6": 9506, 
  "ays": 9507, 
  "2.8": 9508, 
  "argues": 9509, 
  "predict": 9510, 
  "haul": 9511, 
  "resisting": 9512, 
  "unpaid": 9513, 
  "tended": 9514, 
  "fen": 9515, 
  "imply": 9516, 
  "forefront": 9517, 
  "designing": 9518, 
  "transfers": 9519, 
  "bl": 9520, 
  "heartfelt": 9521, 
  "genes": 9522, 
  "exporters": 9523, 
  "mag@@": 9524, 
  "jian@@": 9525, 
  "zhong@@": 9526, 
  "fore@@": 9527, 
  "extends": 9528, 
  "seoul": 9529, 
  "explicit": 9530, 
  "1963": 9531, 
  "newsletter": 9532, 
  "320": 9533, 
  "8-@@": 9534, 
  "convincing": 9535, 
  "powder": 9536, 
  "ky": 9537, 
  "mike": 9538, 
  "qualify": 9539, 
  "spell": 9540, 
  "underneath": 9541, 
  ">": 9542, 
  "widened": 9543, 
  "mansion": 9544, 
  "ivory": 9545, 
  "(mpfa)": 9546, 
  "firecrackers": 9547, 
  "hong@@": 9548, 
  "infant": 9549, 
  "regrettable": 9550, 
  "exceptionally": 9551, 
  "lanterns": 9552, 
  "officiate": 9553, 
  "hills": 9554, 
  "1.1%": 9555, 
  "hsin@@": 9556, 
  "shortcomings": 9557, 
  "treaties": 9558, 
  "belarus": 9559, 
  "earners": 9560, 
  "traps": 9561, 
  "probe": 9562, 
  "safeguarded": 9563, 
  "malaysian": 9564, 
  "peacefully": 9565, 
  "travelled": 9566, 
  "2000-01": 9567, 
  "authorizing": 9568, 
  "fulness": 9569, 
  "prone": 9570, 
  "1958": 9571, 
  "refugee": 9572, 
  "personalities": 9573, 
  "unstable": 9574, 
  "recycled": 9575, 
  "owns": 9576, 
  "chart": 9577, 
  "apology": 9578, 
  "2.7": 9579, 
  "capitalist": 9580, 
  "horizontal": 9581, 
  "anchor": 9582, 
  "possessed": 9583, 
  "ops": 9584, 
  "shells": 9585, 
  "standardized": 9586, 
  "liberty": 9587, 
  "elevated": 9588, 
  "pakistani": 9589, 
  "percentages": 9590, 
  "loyal": 9591, 
  "18th": 9592, 
  "nearest": 9593, 
  "tap@@": 9594, 
  "sui": 9595, 
  "ck": 9596, 
  "compound": 9597, 
  "pamphlets": 9598, 
  "mineral": 9599, 
  "amateur": 9600, 
  "chess": 9601, 
  "dominated": 9602, 
  "technically": 9603, 
  "halt": 9604, 
  "lab@@": 9605, 
  "xing": 9606, 
  "rampant": 9607, 
  "http://www.hkma.gov.hk": 9608, 
  "prisons": 9609, 
  "transshipment": 9610, 
  "sworn": 9611, 
  "cds": 9612, 
  "show@@": 9613, 
  "liked": 9614, 
  "opium": 9615, 
  "nos.": 9616, 
  "dam@@": 9617, 
  "confucius": 9618, 
  "arisen": 9619, 
  "ran@@": 9620, 
  "keelung": 9621, 
  "twenty-@@": 9622, 
  "successively": 9623, 
  "solar": 9624, 
  "gre@@": 9625, 
  "nurturing": 9626, 
  "attainment": 9627, 
  "hunan": 9628, 
  "extinguishing": 9629, 
  "inferior": 9630, 
  "sam@@": 9631, 
  "shandong": 9632, 
  "loyalty": 9633, 
  "tries": 9634, 
  "moratorium": 9635, 
  "unhappy": 9636, 
  "reactions": 9637, 
  "nuisances": 9638, 
  "ational": 9639, 
  "aerospace": 9640, 
  "37@@": 9641, 
  "pe": 9642, 
  "sy@@": 9643, 
  "---@@": 9644, 
  "angles": 9645, 
  "arch@@": 9646, 
  "tru@@": 9647, 
  "kiosks": 9648, 
  "reliability": 9649, 
  "influences": 9650, 
  "forwarded": 9651, 
  "traveled": 9652, 
  "alimony": 9653, 
  "wsd": 9654, 
  "undertook": 9655, 
  "bangguo": 9656, 
  "navigational": 9657, 
  "supporters": 9658, 
  "mac@@": 9659, 
  "cents": 9660, 
  "ids": 9661, 
  "nights": 9662, 
  "basin": 9663, 
  "educators": 9664, 
  "oct": 9665, 
  "grand@@": 9666, 
  "solemnly": 9667, 
  "land@@": 9668, 
  "boosting": 9669, 
  "belts": 9670, 
  "syn@@": 9671, 
  "xia@@": 9672, 
  "eased": 9673, 
  "unavoidable": 9674, 
  "faithful": 9675, 
  "advent": 9676, 
  "digit": 9677, 
  "wasted": 9678, 
  "mobilized": 9679, 
  "compelled": 9680, 
  "probation": 9681, 
  "bona": 9682, 
  "emb": 9683, 
  "hostel": 9684, 
  "researches": 9685, 
  "performer": 9686, 
  "low@@": 9687, 
  "incomplete": 9688, 
  "reconciliation": 9689, 
  "supervised": 9690, 
  "inception": 9691, 
  "sporting": 9692, 
  "cop@@": 9693, 
  "typhoons": 9694, 
  "tela": 9695, 
  "wings": 9696, 
  "provider": 9697, 
  "barristers": 9698, 
  "aggressive": 9699, 
  "remainder": 9700, 
  "obey": 9701, 
  "#": 9702, 
  "fathers": 9703, 
  "warehouse": 9704, 
  "2.7%": 9705, 
  "van@@": 9706, 
  "tired": 9707, 
  "hometown": 9708, 
  "statutes": 9709, 
  "setback": 9710, 
  "meritorious": 9711, 
  "landmark": 9712, 
  "notion": 9713, 
  "kite": 9714, 
  "classmates": 9715, 
  "2.9%": 9716, 
  "superstructure": 9717, 
  "certainty": 9718, 
  "fears": 9719, 
  "wins": 9720, 
  "breached": 9721, 
  "g)": 9722, 
  "varies": 9723, 
  "permissible": 9724, 
  "feng@@": 9725, 
  "mirror": 9726, 
  "envisaged": 9727, 
  "pamphlet": 9728, 
  "execute": 9729, 
  "progressing": 9730, 
  "(x)": 9731, 
  "bookmaking": 9732, 
  "transnational": 9733, 
  "apprentice": 9734, 
  "gates": 9735, 
  "rebound": 9736, 
  "simplify": 9737, 
  "zhi@@": 9738, 
  "reversed": 9739, 
  "beside": 9740, 
  "lau@@": 9741, 
  "weakened": 9742, 
  "tip": 9743, 
  "flourish": 9744, 
  "sisters": 9745, 
  "pregnancy": 9746, 
  "seating": 9747, 
  "1,4@@": 9748, 
  "auditorium": 9749, 
  "emergencies": 9750, 
  "dao": 9751, 
  "ae": 9752, 
  "projections": 9753, 
  "1.9%": 9754, 
  "0.0@@": 9755, 
  "utilize": 9756, 
  "devotion": 9757, 
  "blindly": 9758, 
  "repulse": 9759, 
  "continual": 9760, 
  "successor": 9761, 
  "sing@@": 9762, 
  "ick": 9763, 
  "surcharges": 9764, 
  "towed": 9765, 
  "females": 9766, 
  "congratulate": 9767, 
  "long@@": 9768, 
  "poem": 9769, 
  "repay": 9770, 
  "cer@@": 9771, 
  "opt": 9772, 
  "rat": 9773, 
  "monkeys": 9774, 
  "strata": 9775, 
  "vin@@": 9776, 
  "chat": 9777, 
  "pdf": 9778, 
  "enrich": 9779, 
  "costing": 9780, 
  "debentures": 9781, 
  "spain": 9782, 
  "bookstore": 9783, 
  "deafness": 9784, 
  "acy": 9785, 
  "disappointing": 9786, 
  "mid-@@": 9787, 
  "wrapped": 9788, 
  "1997/98": 9789, 
  "curtain": 9790, 
  "2002-03": 9791, 
  "exposition": 9792, 
  "metals": 9793, 
  "rocket": 9794, 
  "10,@@": 9795, 
  "mul@@": 9796, 
  "inquest": 9797, 
  "cuisine": 9798, 
  "somebody": 9799, 
  "excellency": 9800, 
  "commences": 9801, 
  "liquidation": 9802, 
  "teenage": 9803, 
  "1.6%": 9804, 
  "seasons": 9805, 
  "hastily": 9806, 
  "pulled": 9807, 
  "helicopters": 9808, 
  "compares": 9809, 
  "singer": 9810, 
  "pornographic": 9811, 
  "confidentiality": 9812, 
  "particulates": 9813, 
  "implied": 9814, 
  "cmb": 9815, 
  "oms": 9816, 
  "deficiencies": 9817, 
  ".com": 9818, 
  "lacked": 9819, 
  "ambition": 9820, 
  "resettlement": 9821, 
  "cylinder": 9822, 
  "ann@@": 9823, 
  "bangkok": 9824, 
  "manifest": 9825, 
  "occasionally": 9826, 
  "massage": 9827, 
  "firepower": 9828, 
  "quit": 9829, 
  "warmth": 9830, 
  "devised": 9831, 
  "journal": 9832, 
  "tered": 9833, 
  "definitive": 9834, 
  "ances": 9835, 
  "annexed": 9836, 
  "quar@@": 9837, 
  "'i": 9838, 
  "vacuum": 9839, 
  "upset": 9840, 
  "exchanging": 9841, 
  "fluctuations": 9842, 
  "gging": 9843, 
  "3.1%": 9844, 
  "minibus": 9845, 
  "ishes": 9846, 
  "justifications": 9847, 
  "invasion": 9848, 
  "tightening": 9849, 
  "reproductive": 9850, 
  "fro@@": 9851, 
  "ee": 9852, 
  "hosts": 9853, 
  "rocks": 9854, 
  "subhead": 9855, 
  "na": 9856, 
  "failures": 9857, 
  "hei": 9858, 
  "depreciation": 9859, 
  "pik": 9860, 
  "psychology": 9861, 
  "tmd": 9862, 
  "cosmopolitan": 9863, 
  "jet": 9864, 
  "metropolitan": 9865, 
  "cleaned": 9866, 
  "stem": 9867, 
  "disqualification": 9868, 
  "subversion": 9869, 
  "irregularities": 9870, 
  "0.8": 9871, 
  "poly@@": 9872, 
  "151": 9873, 
  "nice": 9874, 
  "ax@@": 9875, 
  "tendered": 9876, 
  "ther": 9877, 
  "induced": 9878, 
  "prospectus": 9879, 
  "dec": 9880, 
  "automation": 9881, 
  "deprive": 9882, 
  "tang@@": 9883, 
  "pronged": 9884, 
  "yuan@@": 9885, 
  "unremitting": 9886, 
  "attacking": 9887, 
  "m1": 9888, 
  "murray": 9889, 
  "matrimonial": 9890, 
  "periodical": 9891, 
  "198@@": 9892, 
  "conveniently": 9893, 
  "hero": 9894, 
  "handful": 9895, 
  "departed": 9896, 
  "ged": 9897, 
  "foresight": 9898, 
  "differently": 9899, 
  "va": 9900, 
  "referral": 9901, 
  "katherine": 9902, 
  "tory": 9903, 
  "brussels": 9904, 
  "sells": 9905, 
  "invalid": 9906, 
  "incur": 9907, 
  "solidarity": 9908, 
  "mn": 9909, 
  "classrooms": 9910, 
  "sellers": 9911, 
  "rewards": 9912, 
  "fide": 9913, 
  "centralized": 9914, 
  "uncle": 9915, 
  "affordability": 9916, 
  "distinctly": 9917, 
  "timber": 9918, 
  "143": 9919, 
  "vent": 9920, 
  "liver": 9921, 
  "separating": 9922, 
  "shifted": 9923, 
  "desires": 9924, 
  "ordering": 9925, 
  "struggling": 9926, 
  "obtainable": 9927, 
  "g-8": 9928, 
  "falun": 9929, 
  "transmitting": 9930, 
  "immunities": 9931, 
  "ur": 9932, 
  "scolar": 9933, 
  "kk": 9934, 
  "conditioned": 9935, 
  "multimedia": 9936, 
  "--@@": 9937, 
  "hasn": 9938, 
  "wind@@": 9939, 
  "(u@@": 9940, 
  "lgv": 9941, 
  "profitable": 9942, 
  "unilaterally": 9943, 
  "locals": 9944, 
  "gan": 9945, 
  "meticulous": 9946, 
  "destiny": 9947, 
  "ude": 9948, 
  "lang": 9949, 
  "deepest": 9950, 
  "mobilize": 9951, 
  "connaught": 9952, 
  "1200": 9953, 
  "complain": 9954, 
  "1912": 9955, 
  "char@@": 9956, 
  "constituting": 9957, 
  "dining": 9958, 
  "tical": 9959, 
  "sheer": 9960, 
  "alan": 9961, 
  "regrets": 9962, 
  "civilizations": 9963, 
  "radical": 9964, 
  "definitions": 9965, 
  "adjournment": 9966, 
  "dispatched": 9967, 
  "exams": 9968, 
  "rolled": 9969, 
  "sto@@": 9970, 
  "evolved": 9971, 
  "subrule": 9972, 
  "consistency": 9973, 
  "dependants": 9974, 
  "floods": 9975, 
  "surviving": 9976, 
  "3.3": 9977, 
  "wanting": 9978, 
  "1,200": 9979, 
  "statue": 9980, 
  "implication": 9981, 
  "participant": 9982, 
  "defeated": 9983, 
  "dcs": 9984, 
  "individually": 9985, 
  "accessibility": 9986, 
  "armament": 9987, 
  "zo@@": 9988, 
  "constable": 9989, 
  "emphatically": 9990, 
  "insured": 9991, 
  "hegemony": 9992, 
  "emoluments": 9993, 
  "cepa": 9994, 
  "divorced": 9995, 
  "goers": 9996, 
  "flowing": 9997, 
  "transmit": 9998, 
  "threshold": 9999, 
  "biographical": 10000, 
  "stuck": 10001, 
  "eco": 10002, 
  "walked": 10003, 
  "violations": 10004, 
  "chil@@": 10005, 
  "heating": 10006, 
  "reinstatement": 10007, 
  "sty@@": 10008, 
  "cornerstone": 10009, 
  "facilitation": 10010, 
  "9,000": 10011, 
  "finalized": 10012, 
  "beware": 10013, 
  "mercury": 10014, 
  "subjective": 10015, 
  "seldom": 10016, 
  "disappear": 10017, 
  "acquiring": 10018, 
  "rape": 10019, 
  "impartiality": 10020, 
  "outbound": 10021, 
  "fo": 10022, 
  "harmon@@": 10023, 
  "bombs": 10024, 
  "2.2%": 10025, 
  "relaxing": 10026, 
  "insists": 10027, 
  "impe@@": 10028, 
  "tends": 10029, 
  "securely": 10030, 
  "useless": 10031, 
  "whale": 10032, 
  "rejection": 10033, 
  "visibility": 10034, 
  "greeting": 10035, 
  "physics": 10036, 
  "cho": 10037, 
  "consumed": 10038, 
  "person@@": 10039, 
  "vic@@": 10040, 
  "authors": 10041, 
  "publisher": 10042, 
  "serviced": 10043, 
  "6.4": 10044, 
  "graphic": 10045, 
  "punish": 10046, 
  "o'clock": 10047, 
  "uncompleted": 10048, 
  "ken": 10049, 
  "incapable": 10050, 
  "marginally": 10051, 
  "methadone": 10052, 
  "disadvantaged": 10053, 
  "hum@@": 10054, 
  "xin": 10055, 
  "scal@@": 10056, 
  "representativeness": 10057, 
  "alistic": 10058, 
  "18%": 10059, 
  "129": 10060, 
  "token": 10061, 
  "plan@@": 10062, 
  "mus@@": 10063, 
  "freeboard": 10064, 
  "symbols": 10065, 
  "potentially": 10066, 
  "ballots": 10067, 
  "instability": 10068, 
  "-2": 10069, 
  "weekdays": 10070, 
  "productions": 10071, 
  "upsurge": 10072, 
  "blows": 10073, 
  "dividends": 10074, 
  "54@@": 10075, 
  "shipment": 10076, 
  "congressmen": 10077, 
  "tale": 10078, 
  "nov": 10079, 
  "discounts": 10080, 
  "importer": 10081, 
  "139.@@": 10082, 
  "endeavours": 10083, 
  "chase": 10084, 
  "durable": 10085, 
  "mi": 10086, 
  "cake": 10087, 
  "worn": 10088, 
  "ences": 10089, 
  "oned": 10090, 
  "entrants": 10091, 
  "formalism": 10092, 
  "coin": 10093, 
  "ore": 10094, 
  "satisfies": 10095, 
  "choir": 10096, 
  "wards": 10097, 
  "dragons": 10098, 
  "iling": 10099, 
  "apparel": 10100, 
  "nethersole": 10101, 
  "no.6": 10102, 
  "cro@@": 10103, 
  "confronting": 10104, 
  "sensitivity": 10105, 
  "surname": 10106, 
  "pavement": 10107, 
  "ov": 10108, 
  "bravery": 10109, 
  "contributory": 10110, 
  "carparks": 10111, 
  "celebrated": 10112, 
  "38@@": 10113, 
  "abiding": 10114, 
  "commanders": 10115, 
  "confiscated": 10116, 
  "swept": 10117, 
  "tops": 10118, 
  "permitting": 10119, 
  "presumption": 10120, 
  "fastest": 10121, 
  "retroactively": 10122, 
  "shoulders": 10123, 
  "athletic": 10124, 
  "ascertaining": 10125, 
  "8.5": 10126, 
  "alia": 10127, 
  "honesty": 10128, 
  "tc": 10129, 
  "itu": 10130, 
  "ok": 10131, 
  "ben@@": 10132, 
  "0.7": 10133, 
  "adap@@": 10134, 
  "ambient": 10135, 
  "evasion": 10136, 
  "stern": 10137, 
  "ashed": 10138, 
  "cells": 10139, 
  "lately": 10140, 
  "subway": 10141, 
  "piles": 10142, 
  "cottage": 10143, 
  "addicts": 10144, 
  "warships": 10145, 
  "panic": 10146, 
  "defining": 10147, 
  "gall@@": 10148, 
  "delays": 10149, 
  "preside": 10150, 
  "packets": 10151, 
  "mai": 10152, 
  "hoisting": 10153, 
  "139": 10154, 
  "pingtung": 10155, 
  "coexistence": 10156, 
  "sta@@": 10157, 
  "showcase": 10158, 
  "4.5%": 10159, 
  "ali": 10160, 
  "balancing": 10161, 
  "surveying": 10162, 
  "ron@@": 10163, 
  "reap": 10164, 
  "fifteen": 10165, 
  "sickness": 10166, 
  "malpractices": 10167, 
  "gotten": 10168, 
  "'one": 10169, 
  "sie": 10170, 
  "zhuhai": 10171, 
  "wildlife": 10172, 
  "-1": 10173, 
  "parliaments": 10174, 
  "phased": 10175, 
  "pesticides": 10176, 
  "bankers": 10177, 
  "exco": 10178, 
  "spr@@": 10179, 
  "dancers": 10180, 
  "motivation": 10181, 
  "303": 10182, 
  "mel@@": 10183, 
  "ass": 10184, 
  "soldier": 10185, 
  "foreseeable": 10186, 
  "extinguishers": 10187, 
  "screened": 10188, 
  "44@@": 10189, 
  "ini@@": 10190, 
  "tak@@": 10191, 
  "cloth": 10192, 
  "elegant": 10193, 
  "traced": 10194, 
  "2001/02": 10195, 
  "citizenship": 10196, 
  "delicate": 10197, 
  "circuits": 10198, 
  "email": 10199, 
  "policemen": 10200, 
  "researcher": 10201, 
  "updating": 10202, 
  "prefecture": 10203, 
  "radi@@": 10204, 
  "snake": 10205, 
  "levying": 10206, 
  "brave": 10207, 
  "recognizes": 10208, 
  "nien": 10209, 
  "capacities": 10210, 
  "enrol": 10211, 
  "dozens": 10212, 
  "1953": 10213, 
  "2001-02": 10214, 
  "proximity": 10215, 
  "surfaces": 10216, 
  "scenario": 10217, 
  "farmer": 10218, 
  "ireland": 10219, 
[...]
